<pad> 0
<unk> 1
<s> 2
</s> 3
▁雪 4
舟 5
▁（ 6
▁せ 7
っ 8
しゅう 9
▁、 10
▁14 11
20 12
▁年 13
▁応 14
永 15
▁27 16
▁） 17
▁- 18
▁15 19
06 20
▁永正 21
▁3 22
▁は 23
▁号 24
▁で 25
▁世紀 26
▁後半 27
▁室町 28
▁時代 29
▁に 30
▁活躍 31
▁し 32
▁た 33
▁水 34
墨 35
▁画 36
▁家 37
▁・ 38
▁禅 39
僧 40
聖 41
▁と 42
▁も 43
▁称 44
え 45
▁られ 46
▁る 47
▁。 48
▁日本 49
▁の 50
▁を 51
▁一 52
変 53
▁さ 54
▁諱 55
▁ 56
「 57
▁等 58
楊 59
▁とう 60
よ 61
う 62
▁」 63
しくは 64
拙 65
宗 66
▁備中 67
▁国 68
▁生まれ 69
▁京都 70
▁相国 71
▁寺 72
▁入 73
▁っ 74
▁て 75
▁から 76
▁周防 77
▁移 78
▁その 79
▁後 80
▁遣 81
明 82
▁使 83
▁随 84
行 85
▁中国 86
▁明 87
▁渡 88
▁学 89
▁ん 90
▁だ 91
▁作品 92
▁数 93
▁多 94
▁く 95
▁風 96
▁山水 97
▁だけ 98
▁な 99
▁人物 100
▁や 101
▁花 102
鳥 103
▁よ 104
▁大 105
胆 106
構 107
図 108
▁力 109
強 110
▁い 111
▁筆 112
線 113
▁非常 114
▁個 115
性 116
▁的 117
風 118
▁作り 119
出 120
▁現存 121
▁する 122
▁うち 123
▁6 124
▁点 125
▁が 126
▁国宝 127
▁指定 128
▁れ 129
▁お 130
▁り 131
家 132
▁なか 133
▁別 134
格 135
▁評価 136
▁受け 137
▁いえ 138
▁この 139
▁ため 140
▁図 141
▁屏風 142
▁など 143
▁伝 144
▁大変 145
▁真 146
筆 147
▁あ 148
▁か 149
▁専 150
門 151
▁間 152
▁意見 153
▁分かれ 154
▁もの 155
々 156
▁代表 157
▁作 158
▁長 159
巻 160
▁夏 161
冬 162
▁山 163
▁天 164
橋 165
立 166
▁破 167
慧 168
可 169
▁断 170
臂 171
▁秋 172
▁弟子 173
月 174
▁宗 175
淵 176
▁春 177
▁ら 178
▁赤 179
浜 180
▁現在 181
▁岡山 182
▁県 183
▁総 184
社 185
▁市 186
▁生 187
▁小 188
田 189
▁氏 190
▁う 191
▁武家 192
▁幼 193
▁頃 194
▁近く 195
▁宝 196
福 197
l 198
rb 199
- 200
r 201
▁10 202
▁歳 203
▁林 204
▁周 205
藤 206
▁師事 207
▁修行 208
▁積 209
▁む 210
▁とも 211
章 212
文 213
▁絵 214
54 215
▁28 216
▁ごろ 217
▁守護 218
▁大名 219
▁大内 220
▁庇 221
護 222
室 223
▁雲 224
谷 225
▁庵 226
口 227
▁構え 228
65 229
▁寛 230
正 231
楚 232
石 233
梵 234
& 235
▁2 236
97 237
34 238
▁そ 239
せ 240
き 241
ぼ 242
ん 243
▁二 244
字 245
手 246
▁龍 247
崗 248
圭 249
▁字 250
▁説 251
▁請 252
▁以後 253
▁名乗 254
▁思 255
▁わ 256
▁これ 257
▁以前 258
▁同一 259
▁こと 260
▁示 261
▁す 262
▁確 263
実 264
▁史料 265
68 266
仁 267
▁船 268
▁へ 269
航 270
▁約 271
▁年間 272
▁本 273
▁触れ 274
▁研究 275
81 276
▁文明 277
▁13 278
▁美濃 279
▁旅行 280
▁没 281
年 282
▁記録 283
02 284
▁生涯 285
▁以外 286
謎 287
▁部分 288
▁つ 289
▁こん 290
な 291
▁伝説 292
▁残 293
▁日 294
▁ばかり 295
▁好 296
▁経 297
▁読 298
▁僧 299
▁仏 300
堂 301
▁柱 302
ば 303
り 304
つけ 305
▁しま 306
▁ま 307
▁しかし 308
▁床 309
▁落ち 310
涙 311
▁足 312
▁親 313
指 314
▁つけ 315
▁ね 316
ず 317
み 318
▁描 319
▁ところ 320
▁見 321
事 322
▁感 323
心 324
▁許 325
▁最も 326
▁よく 327
▁知 328
▁話 329
▁初 330
▁江戸 331
▁狩野 332
▁永 333
納 334
▁編纂 335
『 336
朝 337
▁史 338
▁』 339
▁16 340
93 341
刊 342
▁神 343
▁化 344
▁始ま 345
▁派 346
▁当時 347
壇 348
▁支配 349
▁師 350
▁仰 351
▁ぎ 352
▁諸 353
▁求 354
め 355
▁増え 356
▁言 357
▁人気 358
▁反 359
映 360
▁信仰 361
▁祇園 362
▁祭 363
▁礼 364
記 365
▁人形 366
▁浄瑠璃 367
▁歌舞伎 368
▁宝暦 369
▁7 370
▁12 371
▁月 372
▁17 373
58 374
▁1 375
演 376
▁孫 377
娘 378
姫 379
▁金 380
閣 381
▁場 382
▁有名 383
▁よう 384
▁上演 385
▁文化 386
▁今 387
▁歴史 388
▁一人 389
▁国立 390
▁博 391
物 392
▁館 393
▁四 394
季 395
▁巻 396
▁毛利 397
86 398
▁18 399
▁東京 400
95 401
応 402
▁4 403
▁愛 404
知 405
▁斉 406
96 407
▁5 408
人 409
▁蔵 410
▁石 411
▁美術 412
倣 413
▁高 414
克 415
▁恭 416
▁立 417
珪 418
▁李 419
▁唐 420
▁牧 421
牛 422
▁梁 423
楷 424
▁黄 425
▁平 426
▁玉 427
澗 428
▁香 429
雪 430
▁益 431
▁兼 432
堯 433
▁像 434
▁郷 435
▁記念 436
▁毘 437
沙 438
溌 439
▁正 440
木 441
※ 442
▁可能 443
▁性 444
▁挙げ 445
後 446
▁500 447
▁特 448
別 449
▁展 450
録 451
▁2002 452
沼 453
▁頼 454
輔 455
▁論 456
創 457
叢 458
書 459
▁社 460
is 461
b 462
n 463
84 464
60 465
41 466
援 467
▁団 468
下 469
裕 470
二 471
瀬 472
川 473
▁原 474
休 475
純 476
きゅう 477
▁そう 478
じ 479
ゅ 480
▁臨 481
済 482
徳 483
▁説話 484
▁モデル 485
▁さん 486
頓 487
咄 488
▁項 489
目 490
▁ペ 491
ー 492
ジ 493
▁若 494
干 495
▁記述 496
▁あり 497
▁テレビ 498
▁ア 499
ニ 500
メ 501
▁参照 502
小 503
松 504
▁天皇 505
▁落 506
胤 507
▁菅原 508
▁和 509
▁日記 510
▁東 511
▁坊 512
城 513
▁卿 514
94 515
▁八 516
日 517
▁条 518
▁秘 519
伝 520
▁云 521
尚 522
▁院 523
▁皇子 524
▁世 525
▁之 526
▁人 527
無 528
し 529
名 530
▁後世 531
▁千 532
▁菊 533
丸 534
▁じ 535
建 536
▁名 537
▁呼 538
▁ば 539
▁狂 540
▁子 541
瞎驢 542
▁かつ 543
ろ 544
▁夢 545
閨 546
け 547
い 548
▁戒 549
▁順 550
▁書 551
▁道 552
▁安 553
国 554
外 555
▁集 556
鑑 557
▁入門 558
· 559
▁受 560
戒 561
付け 562
▁早 563
▁詩 564
才 565
▁優 566
れ 567
▁時 568
▁漢詩 569
▁長門 570
草 571
衣 572
▁宿 573
▁洛 574
中 575
▁評 576
判 577
▁賞 578
賛 579
10 580
謙 581
▁翁 582
▁為 583
▁けん 584
▁改め 585
翁 586
▁21 587
14 588
▁遷 589
化 590
定 591
▁でき 592
▁自 593
殺 594
▁未 595
遂 596
▁起こ 597
▁22 598
15 599
▁華 600
叟 601
曇 602
そう 603
ど 604
▁洞 605
山 606
▁三 607
▁棒 608
▁公 609
案 610
▁対 611
▁有 612
▁より 613
▁無 614
▁帰 615
▁雨 616
▁ふ 617
ら 618
▁降 619
▁吹 620
▁答え 621
▁授 622
か 623
▁なお 624
漏 625
▁路 626
迷 627
煩 628
悩 629
▁世界 630
▁悟 631
▁指 632
▁夜 633
▁カ 634
ラ 635
ス 636
▁鳴 637
声 638
▁聞 639
俄 640
悟 641
▁印 642
▁状 643
▁与え 644
▁辞 645
退 646
▁者 647
笑 648
▁ながら 649
▁送 650
歌 651
画 652
狂 653
▁生活 654
長 655
▁元年 656
28 657
光 658
▁男子 659
▁ず 660
▁崩御 661
▁伏見 662
▁宮 663
▁花園 664
▁迎え 665
▁即位 666
花 667
園 668
▁推 669
挙 670
▁東海 671
譜 672
▁ただし 673
泉 674
淑 675
夫 676
▁幕府 677
▁賛 678
成 679
▁関係 680
▁乱 681
74 682
土 683
御門 684
▁勅 685
命 686
▁住持 687
▁第 688
47 689
▁代 690
▁任 691
▁ぜ 692
▁住 693
▁かっ 694
▁再興 695
▁尽 696
力 697
▁塔頭 698
珠 699
▁開祖 700
▁創建 701
▁親し 702
▁接 703
▁民 704
衆 705
慕 706
88 707
酬 708
恩 709
終 710
▁際 711
▁死 712
▁述べ 713
わ 714
▁通称 715
▁府 716
▁京田辺 717
薪 718
▁地区 719
▁康 720
56 721
▁荒 722
廃 723
▁妙 724
勝 725
▁墓 726
▁慈 727
揚 728
▁塔 729
▁宮内 730
▁庁 731
▁御 732
▁廟 733
▁所 734
▁管理 735
▁陵墓 736
▁もと 737
づ 738
▁王 739
墓 740
▁一般 741
▁立ち 742
入 743
▁参拝 744
▁不 745
▁自由 746
奔 747
放 748
▁奇 749
▁以下 750
▁逸話 751
▁証 752
▁由来 753
▁文書 754
▁火 755
▁投 756
▁男 757
色 758
▁仏教 759
律 760
▁禁 761
▁飲 762
酒 763
▁肉 764
食 765
▁女 766
犯 767
▁行 768
盲 769
▁森 770
▁侍 771
者 772
んじ 773
▁しゃ 774
▁側 775
女 776
▁たり 777
▁岐 778
紹 779
禎 780
▁実子 781
▁朱 782
鞘 783
▁木 784
刀 785
▁差 786
わり 787
▁格 788
好 789
▁街 790
▁歩 791
▁き 792
交 793
▁本願 794
▁門 795
主 796
▁蓮如 797
▁留守 798
▁中 799
▁居 800
上が 801
こ 802
▁み 803
▁持 804
▁念仏 805
▁阿弥 806
陀 807
▁如来 808
▁枕 809
▁昼 810
寝 811
宅 812
▁上人 813
俺 814
▁商 815
売 816
▁道具 817
▁何 818
▁発 819
言 820
▁正月 821
杖 822
▁頭 823
▁ド 824
ク 825
ロ 826
つ 827
らえ 828
▁ご 829
▁用 830
叫 831
▁び 832
▁練 833
歩 834
▁こう 835
見 836
抜 837
動 838
▁普 839
代 840
▁通 841
▁教義 842
▁面 843
▁禅宗 844
▁精神 845
▁表 846
▁同時 847
▁行動 848
▁権 849
威 850
▁形 851
骸 852
▁批判 853
刺 854
統 855
▁警 856
鐘 857
▁彼 858
▁直 859
▁法 860
語 861
▁七 862
誡 863
偈 864
伺 865
▁形式 866
間 867
臭 868
▁生き 869
▁方 870
▁共 871
感 872
▁ち 873
なし 874
み出 875
▁元 876
▁能 877
▁村田 878
▁珠 879
▁伝承 880
▁茶 881
▁墨 882
蹟 883
▁極め 884
て 885
▁珍 886
重 887
▁やや 888
▁疑 889
わし 890
▁著書 891
集 892
▁続 893
骨 894
▁東山 895
▁足利 896
▁義 897
政 898
▁夫人 899
▁日野 900
▁富 901
子 902
▁幕 903
冥 904
▁旅 905
▁里 906
▁塚 907
で 908
▁なし 909
▁釈 910
迦 911
▁ほ 912
く 913
夜 914
▁百 915
千 916
た 917
▁それ 918
▁値 919
▁桜 920
▁武士 921
桧 922
▁魚 923
鯛 924
袖 925
蔵 926
▁ぞ 927
▁実 928
▁達 929
磨 930
▁ひ 931
ょ 932
ひ 933
常 934
▁収録 935
； 936
▁一部 937
抜け 938
違い 939
世 940
▁市川 941
▁白 942
弦 943
▁著 944
▁. 945
▁放送 946
▁出版 947
▁協会 948
▁, 949
▁19 950
70 951
▁nh 952
k 953
▁ブ 954
ック 955
32 956
▁柳 957
▁聖 958
▁文 959
▁書院 960
80 961
▁8 962
上 963
勉 964
▁改 965
版 966
▁中央 967
論 968
▁1997 969
公 970
▁文庫 971
▁栗 972
▁勇 973
著 974
祥 975
▁2005 976
▁11 977
43 978
61 979
25 980
67 981
▁漫画 982
▁べ 983
ェ 984
▁坂 985
▁尚 986
75 987
82 988
▁動 989
▁現 990
ション 991
▁制作 992
▁教育 993
▁朝日 994
▁系 995
列 996
o 997
. 998
▁d 999
e 1000
a 1001
d 1002
i 1003
▁2001 1004
▁かけ 1005
▁発売 1006
v 1007
▁全 1008
▁ス 1009
タ 1010
オ 1011
▁オ 1012
ル 1013
フ 1014
▁/ 1015
an 1016
p 1017
x 1018
▁製 1019
作 1020
▁小説 1021
▁探 1022
偵 1023
▁密 1024
そ 1025
む 1026
▁鯨 1027
▁統一 1028
郎 1029
解 1030
▁暗 1031
▁朝 1032
▁松 1033
▁健 1034
闇 1035
▁物語 1036
▁虚 1037
軍 1038
▁ドラマ 1039
▁： 1040
▁奥 1041
瑛 1042
▁バ 1043
エ 1044
ティ 1045
▁サ 1046
ペ 1047
ン 1048
▁劇場 1049
▁2008 1050
▁加藤 1051
少 1052
▁期 1053
▁青年 1054
▁厳 1055
▁子供 1056
▁向け 1057
に 1058
▁傾 1059
向 1060
▁強 1061
▁また 1062
▁義満 1063
込 1064
▁添え 1065
▁名前 1066
示 1067
▁200 1068
▁余り 1069
禄 1070
▁前期 1071
▁現れ 1072
▁作者 1073
▁不明 1074
▁事 1075
績 1076
▁他 1077
ぞ 1078
▁登場 1079
▁置 1080
換え 1081
▁含 1082
▁難 1083
▁願い 1084
▁上 1085
▁仮 1086
託 1087
ども 1088
▁翻 1089
▁t 1090
業 1091
▁鹿 1092
苑 1093
▁知識 1094
▁得 1095
尊 1096
だ 1097
▁おけ 1098
▁仏像 1099
▁安置 1100
▁観音 1101
▁菩薩 1102
▁左 1103
脇 1104
▁勢 1105
至 1106
▁右 1107
▁脇 1108
▁場合 1109
悲 1110
▁あらわ 1111
身 1112
恵 1113
侍 1114
冠 1115
仏 1116
瓶 1117
▁両 1118
▁比較 1119
▁区別 1120
▁やす 1121
▁坐像 1122
跪 1123
坐 1124
▁来 1125
迎 1126
▁尊 1127
像 1128
▁往生 1129
取 1130
▁蓮 1131
台 1132
捧 1133
げ 1134
持 1135
▁普通 1136
▁地蔵 1137
樹 1138
▁含め 1139
▁五 1140
例 1141
▁主な 1142
▁岩 1143
寺 1144
▁堂 1145
▁壇 1146
▁組 1147
▁平安 1148
▁清 1149
凉 1150
▁仁和 1151
▁三千 1152
▁兵庫 1153
▁浄土 1154
▁小野 1155
▁鎌倉 1156
快 1157
慶 1158
▁奈良 1159
隆 1160
▁橘 1161
▁念 1162
▁関連 1163
▁善 1164
▁式 1165
▁親鸞 1166
▁しん 1167
▁初期 1168
▁真宗 1169
祖 1170
▁定め 1171
▁覚 1172
如 1173
▁明治 1174
▁9 1175
76 1176
▁大師 1177
▁だい 1178
▁諡 1179
▁追贈 1180
▁法然 1181
▁宗教 1182
▁教え 1183
▁継承 1184
▁さらに 1185
▁注 1186
▁開 1187
▁意 1188
志 1189
▁考え 1190
▁独 1191
自 1192
▁寺院 1193
▁各地 1194
▁つつ 1195
まし 1196
▁道場 1197
▁設け 1198
▁教 1199
団 1200
▁隆盛 1201
▁既 1202
派 1203
▁攻撃 1204
▁宗派 1205
▁相 1206
違 1207
確 1208
旨 1209
▁確立 1210
教 1211
▁顕 1212
▁類 1213
▁信 1214
証 1215
▁完成 1216
元 1217
▁... 1218
▁選定 1219
▁インド 1220
▁十 1221
住 1222
婆 1223
易 1224
▁品 1225
親 1226
▁無量 1227
寿 1228
提 1229
舎 1230
▁願 1231
生 1232
鸞 1233
▁ど 1234
註 1235
▁讃 1236
佛 1237
綽 1238
▁どう 1239
しゃ 1240
ぜん 1241
楽 1242
▁源 1243
信 1244
_ 1245
侶 1246
▁げん 1247
▁要 1248
空 1249
▁選 1250
択 1251
▁聖徳 1252
▁太子 1253
敬 1254
▁崇 1255
拝 1256
▁憲法 1257
▁部 1258
称 1259
説 1260
▁観 1261
拠 1262
所 1263
▁経典 1264
▁中心 1265
▁最 1266
▁重要 1267
▁視 1268
凡 1269
▁極楽 1270
▁出来 1271
▁理 1272
▁賜 1273
▁ひら 1274
道 1275
因 1276
▁報 1277
▁前 1278
述 1279
▁通り 1280
分 1281
▁ずる 1282
▁心 1283
▁意味 1284
▁すべ 1285
▁働き 1286
▁ほん 1287
が 1288
▁ぶ 1289
▁ここ 1290
▁智 1291
▁持ち 1292
合わせ 1293
▁末 1294
法 1295
▁こ 1296
▁否定 1297
▁悪 1298
機 1299
▁思想 1300
▁整備 1301
▁手段 1302
▁行為 1303
▁しか 1304
▁成 1305
覚 1306
▁救 1307
＞ 1308
▁逆 1309
▁表現 1310
▁大乗 1311
我 1312
▁ひと 1313
▁到 1314
達 1315
▁超 1316
▁違い 1317
▁年齢 1318
▁数え 1319
▁暦 1320
▁著作 1321
整 1322
合 1323
▁保 1324
▁旧暦 1325
▁表示 1326
歿 1327
▁除 1328
▁母 1329
和 1330
▁源氏 1331
▁八幡 1332
▁太郎 1333
▁吉 1334
こう 1335
▁参考 1336
▁文献 1337
典 1338
▁委員 1339
▁会 1340
▁編 1341
▁大谷 1342
務 1343
78 1344
83 1345
▁0 1346
0 1347
▁治 1348
承 1349
▁青 1350
蓮 1351
▁しょう 1352
▁天台 1353
▁座主 1354
▁･ 1355
円 1356
度 1357
▁範 1358
宴 1359
ね 1360
▁比叡山 1361
▁20 1362
▁限 1363
界 1364
▁建 1365
01 1366
頃 1367
▁29 1368
▁叡山 1369
▁決 1370
▁下 1371
▁祈 1372
念 1373
▁建立 1374
▁頂 1375
▁中京 1376
▁区 1377
▁参 1378
籠 1379
▁荘 1380
厳 1381
▁引 1382
導 1383
▁させ 1384
句 1385
告 1386
▁従 1387
明け 1388
水 1389
▁円 1390
▁町 1391
▁草 1392
庵 1393
養 1394
▁付近 1395
▁訪 1396
69 1397
▁そし 1398
▁岡崎 1399
▁地 1400
▁左京 1401
天 1402
王 1403
院 1404
▁結 1405
▁わた 1406
聴 1407
聞 1408
▁出 1409
▁恵 1410
▁尼 1411
▁消息 1412
修 1413
意 1414
▁機 1415
師 1416
▁空 1417
〈 1418
〉 1419
研 1420
鑽 1421
だい 1422
久 1423
05 1424
▁書写 1425
▁肖像 1426
▁門弟 1427
▁ごく 1428
▁改名 1429
しん 1430
▁九条 1431
▁娘 1432
▁又 1433
善 1434
▁結婚 1435
▁配流 1436
▁罪 1437
▁妻 1438
帯 1439
▁近 1440
▁有力 1441
▁＝ 1442
婚 1443
姻 1444
▁多数 1445
鈔 1446
▁誤 1447
▁同様 1448
▁六角 1449
▁告 1450
▁命 1451
▁記 1452
▁写本 1453
▁西 1454
▁のみ 1455
07 1456
▁興 1457
▁訴え 1458
▁停止 1459
遵 1460
西 1461
罪 1462
▁流罪 1463
▁承 1464
難 1465
籍 1466
▁剥 1467
奪 1468
▁藤 1469
井 1470
彦 1471
▁俗 1472
▁ざ 1473
▁土佐 1474
▁越後 1475
▁国府 1476
▁新 1477
潟 1478
▁豪 1479
族 1480
▁則 1481
▁え 1482
うけ 1483
暦 1484
11 1485
赦 1486
12 1487
▁25 1488
▁80 1489
滅 1490
▁度 1491
▁とどま 1492
▁拠点 1493
▁精 1494
▁布教 1495
▁活動 1496
▁東国 1497
▁関東 1498
▁及 1499
▁主 1500
▁稲 1501
▁にて 1502
稿 1503
▁撰 1504
▁京 1505
▁同 1506
72 1507
弟 1508
▁二十 1509
輩 1510
▁24 1511
▁たち 1512
▁常陸 1513
野 1514
▁43 1515
▁ヶ 1516
▁存 1517
続 1518
▁取締 1519
▁令 1520
▁62 1521
京 1522
励 1523
▁様 1524
▁異 1525
義 1526
端 1527
▁取 1528
▁沙 1529
汰 1530
▁補 1531
足 1532
訂 1533
▁続け 1534
治 1535
48 1536
讃 1537
50 1538
▁唯 1539
▁盛 1540
岡 1541
誓 1542
本 1543
51 1544
諍 1545
▁書状 1546
▁制 1547
止 1548
52 1549
聚 1550
▁じょう 1551
▁もん 1552
53 1553
▁息子 1554
▁如 1555
▁正統 1556
▁派遣 1557
邪 1558
▁賢 1559
けん 1560
▁混乱 1561
▁陸奥 1562
網 1563
徒 1564
▁規模 1565
▁築 1566
▁身 1567
の 1568
回り 1569
話 1570
▁故 1571
郷 1572
▁伝え 1573
▁理由 1574
▁土地 1575
▁福井 1576
雲 1577
▁同年 1578
▁付 1579
▁手紙 1580
絶 1581
歎 1582
異 1583
▁抄 1584
▁想 1585
起 1586
▁衆 1587
▁訪問 1588
▁前後 1589
▁種 1590
▁回 1591
往 1592
▁還 1593
57 1594
粟 1595
▁散 1596
▁奉 1597
類 1598
▁広 1599
▁転 1600
写 1601
嘉 1602
号 1603
▁銘 1604
▁帖 1605
簡 1606
燈 1607
▁押 1608
小路 1609
▁南 1610
▁万 1611
里 1612
▁諸説 1613
▁場所 1614
▁角 1615
〔 1616
▁光 1617
▁下京 1618
▁遺 1619
体 1620
〕 1621
▁弟 1622
尋 1623
有 1624
▁僧都 1625
▁じん 1626
▁鳥 1627
▁野 1628
▁北 1629
辺 1630
▁納め 1631
▁非 1632
俗 1633
場 1634
▁貫 1635
謝 1636
▁講 1637
▁法要 1638
▁営 1639
葬 1640
▁曾 1641
孫 1642
べ 1643
▁辺 1644
▁延 1645
▁葬 1646
▁まつ 1647
南 1648
荼 1649
毘 1650
▁熊野 1651
品 1652
▁運 1653
地 1654
影 1655
▁額 1656
▁掲げ 1657
対 1658
▁撤 1659
去 1660
▁延暦 1661
塔 1662
却 1663
▁まで 1664
▁漢 1665
▁略 1666
尾 1667
▁句 1668
点 1669
▁書物 1670
▁愚 1671
禿 1672
▁弥 1673
▁徳 1674
▁出家 1675
▁倉 1676
三 1677
國 1678
▁連 1679
太郎 1680
▁1987 1681
▁松竹 1682
▁映画 1683
▁橋 1684
▁津 1685
▁陽 1686
▁本尊 1687
▁舟 1688
▁父 1689
▁漆 1690
▁遺言 1691
▁誓 1692
▁登 1693
▁叔父 1694
▁菩提 1695
▁そこ 1696
▁住職 1697
学 1698
▁根本 1699
▁於 1700
▁皇 1701
▁阿 1702
闍 1703
梨 1704
▁丸 1705
式 1706
龍 1707
▁大津 1708
▁坂本 1709
眼 1710
▁房 1711
叡 1712
▁ずつ 1713
貰 1714
安 1715
疏 1716
経 1717
▁進 1718
▁下り 1719
▁弘 1720
▁至 1721
▁文字 1722
処 1723
▁時間 1724
▁短 1725
▁常 1726
頭 1727
▁継 1728
▁坐 1729
臥 1730
問 1731
節 1732
▁久 1733
捨 1734
▁是 1735
▁定 1736
之 1737
▁業 1738
依 1739
▁良 1740
大 1741
▁赦免 1742
▁摂津 1743
▁勝 1744
▁復帰 1745
▁翌 1746
▁閉 1747
老 1748
▁後継 1749
▁弁 1750
▁幸 1751
▁隆 1752
寛 1753
▁門人 1754
▁解釈 1755
微 1756
妙 1757
▁嘉 1758
27 1759
▁再 1760
び 1761
きな 1762
▁被害 1763
蒙 1764
▁分 1765
▁加 1766
速 1767
宝 1768
盗 1769
賊 1770
味 1771
▁襲撃 1772
▁扱い 1773
▁破壊 1774
壱 1775
岐 1776
▁太秦 1777
貞 1778
▁流 1779
りゅう 1780
▁流れ 1781
▁形成 1782
▁中世 1783
▁鎮 1784
▁一方 1785
▁弾 1786
圧 1787
▁北条 1788
▁一族 1789
入れ 1790
忠 1791
真 1792
▁光明 1793
伸 1794
▁南北 1795
栄 1796
旗 1797
冏 1798
聡 1799
▁及び 1800
▁流派 1801
▁圧 1802
倒 1803
脈 1804
▁重 1805
▁唱え 1806
▁血 1807
▁組織 1808
▁増 1809
▁あた 1810
底 1811
▁松平 1812
乞 1813
▁更 1814
裔 1815
▁徳川 1816
▁家康 1817
▁手 1818
厚 1819
▁保護 1820
照 1821
個 1822
▁将軍 1823
は 1824
藩 1825
▁体制 1826
▁廃 1827
毀 1828
釈 1829
▁養 1830
鸕 1831
▁徹 1832
▁福 1833
▁近代 1834
越 1835
▁統合 1836
▁原型 1837
▁成立 1838
▁法人 1839
▁役 1840
員 1841
▁責 1842
任 1843
▁内 1844
局 1845
林 1846
深草 1847
▁並 1848
▁状態 1849
▁改革 1850
▁運動 1851
▁分裂 1852
▁存在 1853
▁特徴 1854
▁祖 1855
智 1856
證 1857
▁枚 1858
▁起 1859
請 1860
▁いち 1861
ま 1862
▁紙 1863
▁歌 1864
たら 1865
▁ぬ 1866
▁けれ 1867
眺 1868
す 1869
▁霊 1870
▁番 1871
輪 1872
▁詠 1873
▁本山 1874
頂 1875
観 1876
▁長岡 1877
京極 1878
願 1879
▁縁 1880
▁都 1881
▁h 1882
t 1883
w 1884
z 1885
j 1886
▁j 1887
▁紫 1888
▁k 1889
u 1890
▁天照 1891
▁p 1892
▁c 1893
m 1894
~ 1895
y 1896
/ 1897
遍 1898
29 1899
000 1900
4 1901
03 1902
▁井上 1903
5 1904
c 1905
en 1906
▁長野 1907
h 1908
on 1909
g 1910
浄 1911
6 1912
▁大学 1913
▁名古 1914
屋 1915
▁三好 1916
▁学校 1917
等 1918
▁芝 1919
▁旧 1920
▁支 1921
校 1922
▁姉妹 1923
▁校 1924
宮 1925
▁大阪 1926
▁熊 1927
▁九州 1928
ご 1929
▁しゅう 1930
▁空海 1931
▁初頭 1932
羅 1933
尼 1934
▁曼荼羅 1935
らし 1936
密 1937
果 1938
▁密教 1939
▁基 1940
盤 1941
▁時期 1942
▁最澄 1943
華 1944
▁比べ 1945
位 1946
摂 1947
包 1948
▁台 1949
▁東寺 1950
16 1951
▁高野 1952
▁金剛 1953
▁峯 1954
▁修 1955
禅 1956
23 1957
賜 1958
▁護 1959
嘱 1960
んど 1961
▁国家 1962
認 1963
▁養成 1964
▁許可 1965
ぞれ 1966
▁独立 1967
賢 1968
▁長者 1969
▁兼ね 1970
末 1971
▁制度 1972
▁統 1973
括 1974
▁争い 1975
▁負 1976
雷 1977
▁伽藍 1978
▁焼失 1979
▁国司 1980
妨 1981
▁衰 1982
▁中期 1983
▁藤原 1984
▁道長 1985
▁寺社 1986
詣 1987
▁復興 1988
▁皇族 1989
▁摂関 1990
▁公家 1991
▁経済 1992
▁支援 1993
▁財政 1994
鑁 1995
資 1996
▁重視 1997
相 1998
践 1999
▁作法 2000
▁教学 2001
▁半 2002
内 2003
▁論争 2004
まり 2005
▁提 2006
唱 2007
▁振 2008
興 2009
会 2010
▁根 2011
来 2012
▁和歌山 2013
▁隠 2014
棲 2015
執 2016
▁古 2017
90 2018
瑜 2019
▁大日 2020
▁基礎 2021
85 2022
▁天正 2023
▁豊臣 2024
▁秀吉 2025
▁焼き 2026
討 2027
ち 2028
▁灰 2029
燼 2030
誉 2031
▁長谷 2032
▁豊 2033
▁慶長 2034
▁玄 2035
宥 2036
ゆ 2037
積 2038
条 2039
▁再建 2040
杲 2041
▁ほう 2042
ぼう 2043
▁界 2044
▁統制 2045
04 2046
▁醍醐 2047
▁監 2048
視 2049
▁維 2050
新 2051
▁以降 2052
▁政 2053
府 2054
▁分離 2055
進 2056
▁伴 2057
棄 2058
▁かかわ 2059
▁打 2060
撃 2061
▁命令 2062
領 2063
▁返 2064
求 2065
制 2066
▁没収 2067
権 2068
跡 2069
▁称号 2070
▁禁止 2071
▁経営 2072
▁追い 2073
▁離れ 2074
▁敬 2075
▁厚 2076
▁各 2077
▁23 2078
唐 2079
乗 2080
具 2081
35 2082
▁承和 2083
▁才 2084
▁延喜 2085
21 2086
▁贈 2087
▁本堂 2088
▁祀 2089
系 2090
▁薩 2091
埵 2092
▁系譜 2093
らい 2094
猛 2095
▁みょう 2096
▁ぞう 2097
さ 2098
▁けい 2099
ゃ 2100
▁関わ 2101
▁加え 2102
一 2103
質 2104
鈷 2105
杵 2106
▁のち 2107
域 2108
▁貿易 2109
▁連れ 2110
▁翻訳 2111
▁灌頂 2112
▁外 2113
縛 2114
畏 2115
▁受け継 2116
▁ぐ 2117
▁一行 2118
▁ぎょう 2119
▁天文 2120
▁口 2121
▁きょう 2122
胎 2123
部 2124
椅 2125
▁座 2126
▁横 2127
童 2128
▁待 2129
▁左手 2130
▁即 2131
▁宇 2132
宙 2133
▁絶 2134
理 2135
ろん 2136
摩 2137
訶 2138
衍 2139
▁うえ 2140
▁方法 2141
契 2142
▁主要 2143
▁裏 2144
方 2145
想 2146
▁習 2147
得 2148
▁たとえ 2149
▁車 2150
致 2151
▁つく 2152
沢 2153
▁ひろ 2154
▁六 2155
▁やが 2156
▁三十 2157
流 2158
わせ 2159
▁100 2160
▁始祖 2161
じゅう 2162
▁定義 2163
▁持明 2164
▁入れ 2165
ずれ 2166
▁関与 2167
▁儀 2168
軌 2169
▁右京 2170
▁嵯峨 2171
▁池 2172
▁所在 2173
▁語源 2174
▁狭 2175
▁属 2176
▁忍 2177
辱 2178
▁せん 2179
▁雅 2180
▁仁 2181
▁寛平 2182
皇 2183
▁宇多 2184
助 2185
略 2186
▁助 2187
訣 2188
通 2189
科 2190
海 2191
▁勧修 2192
▁単 2193
▁海 2194
▁俊 2195
俊 2196
範 2197
▁別れ 2198
種 2199
様 2200
▁展開 2201
▁みな 2202
▁昭和 2203
39 2204
▁団体 2205
▁律 2206
▁戦後 2207
▁50 2208
▁33 2209
▁連絡 2210
睦 2211
▁共通 2212
▁事業 2213
宰 2214
▁目的 2215
▁結成 2216
▁局 2217
▁泉 2218
涌 2219
階 2220
貴 2221
▁中山 2222
▁宝塚 2223
神 2224
澄 2225
▁須 2226
▁大寺 2227
市 2228
▁構成 2229
属 2230
阿 2231
▁管 2232
替 2233
▁供 2234
供 2235
益 2236
咒 2237
▁舎 2238
利 2239
▁守 2240
▁息 2241
災 2242
額 2243
仕 2244
▁徒 2245
▁別当 2246
▁行事 2247
ほ 2248
▁戦 2249
乱 2250
断 2251
水尾 2252
▁演 2253
▁ぶり 2254
▁復活 2255
71 2256
▁影響 2257
▁廃止 2258
▁照 2259
嘆 2260
▁とき 2261
▁宮中 2262
▁合 2263
計 2264
座 2265
▁交 2266
互 2267
▁明王 2268
▁併せ 2269
白 2270
櫃 2271
▁勅使 2272
▁焼 2273
香 2274
▁同日 2275
▁奉還 2276
▁儀式 2277
満 2278
▁最高 2279
儀 2280
▁使用 2281
袈 2282
裟 2283
▁持ち帰 2284
▁ちょう 2285
▁務め 2286
期 2287
▁就任 2288
▁慣習 2289
平 2290
總 2291
▁横浜 2292
▁鶴 2293
▁用い 2294
▁ただ 2295
黙 2296
▁曹 2297
洞 2298
宋 2299
26 2300
▁帰国 2301
▁セ 2302
シ 2303
ョ 2304
ナ 2305
リ 2306
ズム 2307
▁一派 2308
▁拒 2309
否 2310
▁迫 2311
害 2312
同 2313
▁きっかけ 2314
寂 2315
▁次第 2316
▁標 2317
榜 2318
▁呼称 2319
瑩 2320
瑾 2321
席 2322
峨 2323
韶 2324
碩 2325
▁政治 2326
▁地方 2327
▁下級 2328
▁広ま 2329
牟 2330
▁主に 2331
かけ 2332
▁眼 2333
般 2334
ロー 2335
ガ 2336
▁環境 2337
▁般若 2338
▁妙法 2339
▁観世 2340
音 2341
▁寿 2342
量 2343
▁甘 2344
露 2345
▁契 2346
鏡 2347
昧 2348
▁基本 2349
完 2350
▁編集 2351
▁録 2352
▁側近 2353
▁まとめ 2354
抽 2355
編 2356
▁梅 2357
詠 2358
詞 2359
▁作曲 2360
首 2361
▁000 2362
ヵ 2363
▁ごと 2364
▁担当 2365
▁閣 2366
僚 2367
数 2368
▁議会 2369
▁議員 2370
▁36 2371
▁選挙 2372
▁駒 2373
澤 2374
▁東北 2375
祉 2376
▁理事 2377
諦 2378
44 2379
▁越前 2380
▁波 2381
多 2382
▁要請 2383
▁港 2384
▁代官 2385
児 2386
島 2387
姶 2388
良 2389
▁郡 2390
原 2391
晃 2392
仙 2393
亨 2394
▁能登 2395
▁石川 2396
▁輪 2397
町 2398
▁31 2399
98 2400
▁火災 2401
▁44 2402
▁1911 2403
▁移転 2404
▁38 2405
源 2406
▁北海道 2407
前 2408
▁城 2409
▁享 2410
▁26 2411
▁施行 2412
▁教会 2413
混 2414
▁本来 2415
▁薄 2416
▁離脱 2417
慈 2418
事実 2419
▁主張 2420
▁社会 2421
▁全国 2422
▁拡大 2423
▁41 2424
08 2425
▁急 2426
▁衰退 2427
▁後期 2428
▁大正 2429
▁高田 2430
“ 2431
” 2432
▁冠 2433
▁終 2434
息 2435
▁最後 2436
▁神奈川 2437
核 2438
▁取り 2439
▁構築 2440
▁在 2441
▁指導 2442
▁海外 2443
▁少 2444
▁かん 2445
觀 2446
▁音 2447
▁サン 2448
スク 2449
ット 2450
ヴ 2451
ァ 2452
▁ロー 2453
▁キ 2454
テ 2455
シュ 2456
अ 2457
वलोकितेश्व 2458
र 2459
▁a 2460
ś 2461
ra 2462
▁古代 2463
▁集め 2464
在 2465
▁別名 2466
▁名称 2467
+ 2468
ī 2469
▁語 2470
勢 2471
奘 2472
▁訳 2473
▁採用 2474
▁起源 2475
ゾ 2476
ア 2477
スター 2478
▁マ 2479
ズ 2480
ダー 2481
▁女神 2482
ナー 2483
▁ヒ 2484
ター 2485
▁神話 2486
▁ラ 2487
ミ 2488
▁指摘 2489
鳩 2490
什 2491
訳 2492
▁大陸 2493
▁趣 2494
▁目 2495
▁皇帝 2496
民 2497
▁避 2498
諱 2499
▁定着 2500
▁ざる 2501
▁施 2502
士 2503
▁位置 2504
▁づけ 2505
▁対象 2506
冒 2507
▁象徴 2508
▁飛鳥 2509
▁造 2510
▁例 2511
▁利益 2512
▁結びつ 2513
▁地域 2514
▁問 2515
▁功 2516
くら 2517
落 2518
頼 2519
矩 2520
咤 2521
怛 2522
母 2523
▁言葉 2524
▁女性 2525
向き 2526
▁したが 2527
▁変 2528
根 2529
▁性格 2530
▁器 2531
現 2532
げん 2533
▁箇所 2534
▁変化 2535
まざま 2536
▁異な 2537
ゆる 2538
▁人々 2539
面 2540
▁姿 2541
▁種類 2542
▁おう 2543
ざ 2544
▁官 2545
▁比 2546
丘 2547
も 2548
▁乾 2549
闥 2550
緊 2551
那 2552
▁きん 2553
辟 2554
支 2555
▁帝 2556
▁大将軍 2557
塞 2558
▁32 2559
睺 2560
▁羅 2561
▁声 2562
▁居士 2563
夷 2564
婦 2565
叉 2566
▁30 2567
樓 2568
る 2569
▁執 2570
▁馬 2571
▁如意 2572
▁准 2573
胝 2574
代わり 2575
羂 2576
索 2577
謂 2578
伽 2579
廣 2580
圓 2581
滿 2582
礙 2583
經 2584
誦 2585
▁給 2586
▁次 2587
項 2588
▁葉 2589
▁衣 2590
柳 2591
頸 2592
琉 2593
璃 2594
▁園 2595
▁遊 2596
戯 2597
瀧 2598
薬 2599
▁列 2600
▁刊行 2601
彙 2602
載 2603
▁発達 2604
題 2605
▁しばし 2606
独 2607
まれ 2608
籃 2609
葉 2610
▁静 2611
蛤 2612
蜊 2613
ぐ 2614
ろう 2615
▁ゆ 2616
▁滝 2617
お 2618
頚 2619
耨 2620
瑠 2621
ろく 2622
掌 2623
や 2624
▁威 2625
と 2626
戸 2627
▁いわ 2628
灑 2629
▁栃 2630
▁― 2631
▁立像 2632
▁財 2633
崖 2634
▁史跡 2635
▁浅草 2636
船 2637
▁羽 2638
賀 2639
▁滋賀 2640
▁石山 2641
▁向 2642
岸 2643
櫟 2644
▁清水 2645
湛 2646
躯 2647
▁六波羅 2648
蜜 2649
▁九 2650
▁薬師 2651
▁招 2652
▁室 2653
▁天王寺 2654
▁葛 2655
古 2656
呪 2657
斑 2658
▁東大 2659
▁金堂 2660
▁以上 2661
▁フィ 2662
遊 2663
スト 2664
リー 2665
▁法師 2666
▁携 2667
ント 2668
▁封 2669
殊 2670
旺 2671
盛 2672
檗 2673
▁希 2674
▁変え 2675
▁様式 2676
▁宇治 2677
▁萬 2678
ぷ 2679
清 2680
聘 2681
40 2682
晋 2683
▁当 2684
初 2685
▁正宗 2686
▁特色 2687
淆 2688
▁背景 2689
▁鉄 2690
▁努 2691
45 2692
▁帳 2693
▁書き 2694
上げ 2695
▁一切 2696
▁山内 2697
摺 2698
いん 2699
漢 2700
カ 2701
▁解 2702
脱 2703
▁日蓮 2704
▁誰 2705
▁対立 2706
▁当た 2707
迹 2708
▁コ 2709
ピ 2710
▁過ぎ 2711
▁すれ 2712
▁田 2713
遠 2714
延 2715
▁巨 2716
涅 2717
槃 2718
▁以 2719
布 2720
形 2721
▁ある 2722
いは 2723
▁場面 2724
▁誕生 2725
▁苦 2726
魔 2727
▁行な 2728
▁一番 2729
蟹 2730
▁銅 2731
▁著名 2732
▁瑞 2733
▁模 2734
▁題 2735
▁祭祀 2736
▁左右 2737
▁ノ 2738
ウ 2739
マ 2740
マン 2741
ダ 2742
▁ボ 2743
諌 2744
竺 2745
▁フ 2746
▁堺 2747
▁大仏 2748
ぶ 2749
▁アジア 2750
▁圏 2751
然 2752
壁 2753
▁彫刻 2754
▁古く 2755
武 2756
▁律令 2757
廷 2758
▁利用 2759
嚆 2760
矢 2761
▁現代 2762
▁○ 2763
▁メートル 2764
▁基準 2765
▁2007 2766
▁タ 2767
モ 2768
倶 2769
▁決定 2770
▁用語 2771
ma 2772
ā 2773
▁乗 2774
▁学者 2775
▁見解 2776
▁向か 2777
秘 2778
▁主義 2779
チ 2780
ベ 2781
▁捉え 2782
ンド 2783
ゥ 2784
迫 2785
▁情勢 2786
▁要素 2787
▁結果 2788
イス 2789
ム 2790
▁北部 2791
▁侵攻 2792
▁デ 2793
▁スル 2794
タン 2795
▁南部 2796
▁外交 2797
▁挟 2798
▁遭 2799
偶 2800
▁呪 2801
術 2802
▁段階 2803
▁消滅 2804
▁対抗 2805
▁体系 2806
▁試み 2807
ha 2808
盧 2809
遮 2810
▁追 2811
崇 2812
ヨ 2813
究 2814
▁つれ 2815
チャ 2816
クラ 2817
▁プラ 2818
▁最上 2819
▁効果 2820
▁実施 2821
▁移行 2822
▁動き 2823
途 2824
▁発展 2825
▁初めて 2826
▁紹介 2827
▁純 2828
片 2829
▁雑 2830
▁だっ 2831
珍 2832
▁交流 2833
イ 2834
▁ライ 2835
バ 2836
▁儒教 2837
▁ネ 2838
パ 2839
ール 2840
▁モ 2841
ゴ 2842
▁導入 2843
錬 2844
金 2845
▁検 2846
ード 2847
ぎ 2848
ユ 2849
s 2850
耶 2851
限 2852
約 2853
／ 2854
▁土 2855
▁配 2856
▁位 2857
▁期間 2858
▁めぐ 2859
劫 2860
惟 2861
立て 2862
▁関 2863
▁四十 2864
▁立て 2865
宇 2866
▁ガ 2867
▁河 2868
▁砂 2869
▁ほど 2870
▁依 2871
存 2872
， 2873
ゲ 2874
▁パン 2875
▁死者 2876
閦 2877
▁宝生 2878
▁死後 2879
▁魂 2880
▁イ 2881
ラン 2882
▁ワ 2883
ーン 2884
▁肥 2885
沃 2886
▁繁 2887
ビ 2888
▁言い 2889
回 2890
▁とおり 2891
▁もっとも 2892
▁線 2893
▁放 2894
射 2895
背 2896
▁似 2897
▁違 2898
用 2899
オン 2900
▁テ 2901
ゼ 2902
▁ウ 2903
▁垂 2904
▁権現 2905
磐 2906
▁平等 2907
▁鳳 2908
凰 2909
▁講堂 2910
霞 2911
▁木津 2912
▁体 2913
▁生駒 2914
厨 2915
勒 2916
ト 2917
レー 2918
▁ヤ 2919
逸 2920
奈 2921
▁パ 2922
▁ユ 2923
▁ゴ 2924
▁シ 2925
ッ 2926
束 2927
▁億 2928
兜 2929
率 2930
▁朝鮮 2931
▁半島 2932
▁流行 2933
▁3000 2934
▁出現 2935
▁遠 2936
喩 2937
92 2938
▁先 2939
取り 2940
▁40 2941
▁cm 2942
▁質 2943
▁木造 2944
▁こち 2945
▁合わせ 2946
革 2947
望 2948
魏 2949
ート 2950
待 2951
▁一種 2952
▁メ 2953
シア 2954
穀 2955
熟 2956
▁農 2957
耕 2958
軸 2959
▁海上 2960
▁踊 2961
▁太平 2962
▁洋 2963
▁沿岸 2964
▁富士 2965
融 2966
▁食 2967
▁百姓 2968
▁一揆 2969
直 2970
▁付属 2971
▁かなり 2972
含 2973
▁見え 2974
▁概念 2975
▁過 2976
▁300 2977
識 2978
着 2979
竟 2980
▁堅 2981
▁太陽 2982
▁ミ 2983
▁アー 2984
ディ 2985
ヤ 2986
▁群 2987
▁同じ 2988
リア 2989
級 2990
ザ 2991
▁英 2992
雄 2993
▁役割 2994
ギ 2995
シャ 2996
ラー 2997
▁ク 2998
▁ロ 2999
▁m 3000
晟 3001
▁考 3002
慮 3003
▁側面 3004
▁推測 3005
θ 3006
盟 3007
友 3008
容 3009
▁詞 3010
▁友 3011
情 3012
▁深 3013
▁沖縄 3014
▁祭り 3015
顔 3016
▁布 3017
袋 3018
跏 3019
▁上げ 3020
膝 3021
頬 3022
瞑 3023
銅 3024
▁重文 3025
▁最古 3026
▁→ 3027
▁レ 3028
▁ソ 3029
ワ 3030
勤 3031
▁名目 3032
▁元来 3033
▁記載 3034
▁漢字 3035
｛ 3036
｝ 3037
▁宣言 3038
▁ナ 3039
▁最初 3040
▁詳細 3041
▁繰り返 3042
▁創 3043
価 3044
▁引き 3045
顕 3046
▁法主 3047
▁始まり 3048
▁終わ 3049
▁こそ 3050
▁確か 3051
史 3052
架 3053
▁産 3054
▁わけ 3055
逞 3056
▁乗り 3057
切 3058
極 3059
▁但し 3060
▁固 3061
▁さす 3062
低 3063
▁なら 3064
▁はず 3065
▁内容 3066
嘘 3067
らか 3068
態 3069
▁例え 3070
気 3071
▁実行 3072
▁ダ 3073
プ 3074
▁s 3075
思 3076
議 3077
▁因 3078
▁普及 3079
▁章 3080
顗 3081
▁前半 3082
▁浮 3083
譬 3084
▁分類 3085
▁大き 3086
▁分け 3087
▁段 3088
▁序 3089
便 3090
▁勧 3091
発 3092
▁流通 3093
▁細か 3094
必 3095
▁予 3096
▁キリス 3097
▁劇 3098
▁五百 3099
塵 3100
▁テー 3101
▁問題 3102
惹 3103
▁すなわ 3104
たび 3105
転 3106
己 3107
死 3108
娑 3109
なる 3110
屈 3111
喜 3112
功 3113
▁はじめ 3114
▁境 3115
涯 3116
湧 3117
莫 3118
▁薬 3119
▁け 3120
とう 3121
らく 3122
▁りょう 3123
▁軽 3124
累 3125
ぜ 3126
ふ 3127
つか 3128
▁わか 3129
▁様子 3130
▁かた 3131
窮 3132
裏 3133
繋 3134
髻 3135
ちゅう 3136
▁しゅ 3137
医 3138
▁病 3139
▁滅 3140
▁状況 3141
唆 3142
酔 3143
▁東部 3144
▁省 3145
▁添 3146
▁追加 3147
グ 3148
夏 3149
▁満 3150
洲 3151
諺 3152
浙 3153
江 3154
倉 3155
▁記事 3156
▁書紀 3157
▁皇太子 3158
亦 3159
▁岡 3160
▁喜 3161
▁播 3162
▁納 3163
第 3164
２ 3165
１ 3166
４ 3167
▁注釈 3168
▁皇后 3169
▁建て 3170
奉 3171
づけ 3172
▁果た 3173
只 3174
管 3175
▁宣 3176
まで 3177
▁地位 3178
▁不動 3179
段 3180
鋭 3181
▁遂 3182
▁始め 3183
▁おも 3184
▁作家 3185
▁高山 3186
樗 3187
▁妹 3188
輝 3189
▁革 3190
莞 3191
爾 3192
▁軍人 3193
▁軍 3194
謀 3195
▁戦争 3196
▁敗戦 3197
▁可 3198
駐 3199
▁変更 3200
▁余 3201
▁晩年 3202
▁極 3203
的 3204
▁紀元 3205
従 3206
占 3207
▁諸国 3208
▁仕 3209
▁今日 3210
よそ 3211
憶 3212
▁意識 3213
隨 3214
▁色 3215
察 3216
▁供養 3217
▁比叡 3218
▁思い 3219
浮 3220
愍 3221
▁貴族 3222
▁建築 3223
▁貞 3224
要 3225
▁幅 3226
広 3227
▁層 3228
▁貢献 3229
▁末期 3230
忍 3231
どり 3232
▁太鼓 3233
鉦 3234
▁かね 3235
▁打ち 3236
鳴 3237
也 3238
▁時宗 3239
▁信濃 3240
▁佐久 3241
▁系統 3242
▁盆 3243
踊 3244
▁出雲 3245
▁創始 3246
▁発祥 3247
隋 3248
38 3249
▁設立 3250
礎 3251
▁吸収 3252
？ 3253
13 3254
渓 3255
朗 3256
73 3257
擬 3258
▁中興 3259
荊 3260
▁典 3261
▁呼び 3262
▁初め 3263
▁鑑 3264
▁来日 3265
▁南都 3266
▁新し 3267
▁戻 3268
▁輩出 3269
許 3270
▁事情 3271
▁ポ 3272
▁いく 3273
▁まだ 3274
備 3275
憂 3276
暁 3277
帰 3278
▁完 3279
全 3280
▁編入 3281
った 3282
ップ 3283
そも 3284
▁夕 3285
▁午 3286
懺 3287
時 3288
萌 3289
芽 3290
at 3291
▁ろ 3292
▁庶民 3293
▁概要 3294
＋ 3295
▁分割 3296
若 3297
▁階 3298
▁細 3299
▁構造 3300
かく 3301
っぽ 3302
▁尽く 3303
ぢ 3304
▁～ 3305
焔 3306
▁離 3307
垢 3308
歓 3309
▁荷 3310
負 3311
▁載せ 3312
潤 3313
▁廻 3314
▁位階 3315
迄 3316
▁利 3317
他 3318
施 3319
▁振り 3320
境 3321
▁具 3322
▁退 3323
▁果 3324
▁相対 3325
▁欠 3326
ジャ 3327
造 3328
▁事例 3329
▁注意 3330
▁必要 3331
▁あと 3332
▁処 3333
▁習合 3334
▁逃れ 3335
▁望 3336
基 3337
62 3338
▁三条 3339
▁小路 3340
病 3341
送 3342
▁遠江 3343
▁池田 3344
▁上洛 3345
拾 3346
▁骨 3347
墳 3348
▁泰 3349
▁あたり 3350
▁造営 3351
妥 3352
当 3353
▁職 3354
▁子孫 3355
▁相続 3356
▁亀山 3357
59 3358
紛 3359
▁直接 3360
抗 3361
培 3362
▁軍事 3363
▁困難 3364
▁荒木 3365
▁和田 3366
▁伊達 3367
曽 3368
▁了 3369
帳 3370
▁系図 3371
巧 3372
▁近江 3373
▁北陸 3374
▁徐 3375
拡 3376
張 3377
▁越中 3378
▁富山 3379
▁井 3380
波 3381
砺 3382
▁加賀 3383
祟 3384
逼 3385
▁長男 3386
▁法名 3387
49 3388
▁35 3389
▁奥州 3390
▁遺跡 3391
▁巡 3392
亡 3393
▁失 3394
▁ころ 3395
騒 3396
飢 3397
饉 3398
▁加茂 3399
▁川 3400
餓 3401
埋 3402
▁絶え 3403
刻 3404
呈 3405
展 3406
村 3407
▁生産 3408
▁荘園 3409
▁領 3410
▁没落 3411
▁農民 3412
▁向上 3413
▁惣 3414
敏 3415
▁対応 3416
▁開始 3417
▁熱 3418
烈 3419
▁近畿 3420
▁村 3421
碍 3422
▁刺 3423
激 3424
兵 3425
崎 3426
坊 3427
静 3428
▁河内 3429
▁着 3430
▁寝 3431
殿 3432
享 3433
▁共和 3434
▁もち 3435
▁樹 3436
▁周辺 3437
況 3438
丹 3439
89 3440
▁譲 3441
▁大坂 3442
▁隠居 3443
▁文章 3444
▁地名 3445
昔 3446
縁 3447
99 3448
状 3449
▁大い 3450
▁介入 3451
▁相模 3452
斉 3453
蜂 3454
▁細川 3455
▁政元 3456
督 3457
▁殺 3458
争 3459
▁恐れ 3460
▁滞在 3461
柏 3462
▁長尾 3463
▁次男 3464
▁元号 3465
▁晴元 3466
▁助け 3467
▁動員 3468
▁畠山 3469
▁連合 3470
談 3471
▁景 3472
虎 3473
▁上杉 3474
▁謙信 3475
路 3476
▁確保 3477
▁39 3478
官 3479
▁三河 3480
63 3481
▁争 3482
▁和睦 3483
▁領国 3484
▁薩摩 3485
▁島 3486
津 3487
▁織田 3488
▁信長 3489
▁合戦 3490
▁紀伊 3491
鷺 3492
森 3493
炎 3494
▁跡地 3495
▁一帯 3496
▁和泉 3497
▁貝 3498
塚 3499
▁寄進 3500
▁天満 3501
▁まず 3502
91 3503
結 3504
▁茨 3505
散 3506
▁半分 3507
▁400 3508
灯 3509
▁担 3510
▁組み合わ 3511
▁配置 3512
彫 3513
▁画像 3514
ざん 3515
▁毎 3516
▁そん 3517
壮 3518
▁屋 3519
▁柴 3520
焚 3521
讚 3522
▁鏡 3523
餅 3524
慢 3525
▁大会 3526
験 3527
弥 3528
▁髪 3529
▁肩 3530
▁切 3531
削 3532
▁近世 3533
▁男性 3534
apa 3535
剃 3536
髪 3537
▁染 3538
▁入道 3539
▁女房 3540
▁御前 3541
▁蘇我 3542
▁馬子 3543
▁司 3544
馬 3545
▁桜井 3546
▁伝来 3547
▁まつり 3548
▁巫女 3549
▁天平 3550
厭 3551
潮 3552
▁淳 3553
▁親王 3554
▁一条 3555
▁中宮 3556
▁彰 3557
▁設置 3558
▁削 3559
勿 3560
▁風習 3561
▁夫 3562
▁老 3563
▁頼朝 3564
省 3565
▁五山 3566
▁修験 3567
伏 3568
▁夫婦 3569
▁祈祷 3570
宣 3571
百 3572
▁売 3573
春 3574
` 3575
かん 3576
▁価値 3577
預 3578
っか 3579
獄 3580
堕 3581
▁まま 3582
廻 3583
▁集ま 3584
勅 3585
賓 3586
跋 3587
囉 3588
惰 3589
in 3590
▁慶 3591
▁所属 3592
▁1000 3593
瞿 3594
州 3595
諾 3596
伐 3597
蹉 3598
湿 3599
釐 3600
▁600 3601
蘇 3602
▁頻 3603
▁距 3604
瞻 3605
耽 3606
没 3607
浴 3608
▁首 3609
楞 3610
哩 3611
弗 3612
鉢 3613
拏 3614
戎 3615
th 3616
30 3617
忉 3618
特 3619
▁兄 3620
▁那 3621
犀 3622
▁g 3623
▁120 3624
リン 3625
セ 3626
掲 3627
ń 3628
斯 3629
ū 3630
▁喜多 3631
▁埼 3632
玉 3633
▁千葉 3634
黒 3635
▁愛宕 3636
▁大分 3637
佐 3638
▁長慶 3639
碧 3640
▁中華 3641
人民 3642
▁西園 3643
▁江 3644
徽 3645
▁湖 3646
北 3647
▁武 3648
寶 3649
都 3650
筇 3651
竹 3652
昆 3653
港 3654
स 3655
ूत 3656
् 3657
始 3658
よび 3659
▁忠 3660
▁準 3661
▁大蔵 3662
▁作業 3663
脩 3664
▁範囲 3665
▁整理 3666
▁タイ 3667
ャ 3668
▁東南 3669
▁本文 3670
▁解説 3671
▁規定 3672
▁相当 3673
▁施設 3674
▁双 3675
趣 3676
▁綱 3677
▁しも 3678
▁形態 3679
ツ 3680
ポ 3681
▁ト 3682
ボ 3683
▁シャ 3684
ュ 3685
テン 3686
▁版 3687
熙 3688
雍 3689
24 3690
▁リ 3691
33 3692
42 3693
サ 3694
36 3695
▁1990 3696
▁年代 3697
装 3698
▁進め 3699
逐 3700
▁発掘 3701
▁見な 3702
昇 3703
▁収 3704
▁印刷 3705
蜀 3706
▁規 3707
▁宋 3708
▁高麗 3709
▁近隣 3710
与 3711
▁幾 3712
▁確認 3713
▁書道 3714
▁所蔵 3715
幻 3716
趙 3717
▁発見 3718
印 3719
次 3720
▁割 3721
譲 3722
燕 3723
キ 3724
刹 3725
準 3726
▁私 3727
▁作成 3728
▁袋 3729
綴 3730
徑 3731
▁清朝 3732
▁後述 3733
卍 3734
藏 3735
▁覆 3736
雕 3737
▁兵 3738
火 3739
▁其 3740
▁将 3741
▁欽 3742
▁栄 3743
▁輸 3744
▁慶安 3745
艱 3746
▁辛 3747
苦 3748
▁大戦 3749
▁歴代 3750
返 3751
▁縮 3752
刷 3753
▁寄 3754
楠 3755
次郎 3756
▁渡辺 3757
旭 3758
▁費 3759
55 3760
▁目録 3761
▁収め 3762
▁國 3763
譯 3764
▁認 3765
▁経過 3766
調 3767
▁おそ 3768
綱 3769
廬 3770
濁 3771
▁適 3772
? 3773
7 3774
77 3775
64 3776
17 3777
▁頼通 3778
ñ 3779
ṛ 3780
僅 3781
髄 3782
臓 3783
▁物 3784
宏 3785
▁中村 3786
▁哲学 3787
09 3788
▁偽 3789
▁帰還 3790
▁区分 3791
▁碑 3792
加 3793
▁幽 3794
▁旨 3795
読 3796
繁 3797
▁稀 3798
即 3799
▁復 3800
是 3801
復 3802
▁独特 3803
該 3804
瑞 3805
課 3806
鍵 3807
▁慣 3808
坂 3809
洪 3810
▁戦前 3811
評 3812
▁食事 3813
▁神社 3814
▁大社 3815
▁御霊 3816
棚 3817
須 3818
隠 3819
▁ほか 3820
桂 3821
汝 3822
組 3823
▁写 3824
▁俳句 3825
▁読み 3826
▁神道 3827
しろ 3828
止め 3829
霊 3830
癒 3831
▁祈願 3832
▁亀 3833
塙 3834
▁成功 3835
拭 3836
ド 3837
ジュ 3838
吉 3839
曼 3840
レン 3841
剣 3842
篋 3843
衛 3844
▁扶 3845
誕 3846
財 3847
▁童子 3848
▁誘 3849
涼 3850
▁ちな 3851
▁ホ 3852
とめ 3853
▁獅子 3854
▁背 3855
趺 3856
▁乗せ 3857
▁騎 3858
獅 3859
▁握 3860
填 3861
▁ハ 3862
桓 3863
▁付け 3864
▁天王 3865
▁配下 3866
憍 3867
尸 3868
▁昔 3869
▁姓 3870
▁輔 3871
▁大臣 3872
▁ゆえ 3873
▁本名 3874
脂 3875
服 3876
▁甲 3877
冑 3878
茎 3879
象 3880
虫 3881
どう 3882
塑 3883
▁大宝 3884
▁東大寺 3885
漆 3886
庚 3887
申 3888
飾 3889
又 3890
▁グ 3891
▁医 3892
壷 3893
▁結び 3894
▁与 3895
壺 3896
▁日光 3897
眷 3898
将 3899
▁ほと 3900
笈 3901
▁主体 3902
就 3903
▁雷 3904
▁少な 3905
▁神護 3906
型 3907
窟 3908
君 3909
コ 3910
セン 3911
能 3912
▁ベ 3913
合い 3914
▁オー 3915
払 3916
▁せよ 3917
ハ 3918
疫 3919
除 3920
屠 3921
層 3922
▁掛け 3923
汚 3924
穢 3925
蔑 3926
▁危険 3927
敢 3928
▁大将 3929
▁率 3930
▁動物 3931
高 3932
ーズ 3933
▁敦 3934
煌 3935
▁壁画 3936
戴 3937
▁仏壇 3938
▁前方 3939
囲 3940
分け 3941
▁板 3942
▁桃山 3943
▁五条 3944
鶏 3945
▁伊 3946
▁蒲生 3947
▁竜 3948
▁浄 3949
▁淡路 3950
揖 3951
保 3952
▁陰陽 3953
▁占 3954
壬 3955
▁課 3956
倍 3957
▁晴 3958
决 3959
柄 3960
≪ 3961
≫ 3962
螣 3963
蛇 3964
巳 3965
驚 3966
恐 3967
怖 3968
凶 3969
▁丁 3970
▁陰 3971
東 3972
雀 3973
舌 3974
▁懸 3975
丙 3976
卯 3977
▁乙 3978
勾 3979
▁陣 3980
▁辰 3981
戦 3982
闘 3983
訟 3984
戊 3985
寅 3986
▁銭 3987
▁せい 3988
乙 3989
▁貴 3990
丑 3991
无 3992
后 3993
亥 3994
癸 3995
▁冬 3996
酉 3997
裳 3998
▁衣服 3999
じょう 4000
▁申 4001
疾 4002
▁喪 4003
戌 4004
欺 4005
殆 4006
▁前身 4007
敵 4008
据 4009
棍 4010
棒 4011
ソ 4012
ィ 4013
製 4014
▁武将 4015
鬼 4016
▁鬼 4017
▁固め 4018
當 4019
麻 4020
▁戦闘 4021
▁イメージ 4022
▁過程 4023
▁北方 4024
▁はっき 4025
戟 4026
▁片 4027
▁腰 4028
▁当て 4029
▁緑 4030
▁顔 4031
▁傘 4032
▁銀 4033
▁金銀 4034
吐 4035
ング 4036
▁峰 4037
奥 4038
▁変わ 4039
托 4040
靖 4041
鎖 4042
鎧 4043
腕 4044
▁籠 4045
▁防 4046
筒 4047
▁被 4048
藍 4049
▁楼 4050
ファ 4051
▁刀 4052
宛 4053
▁御所 4054
▁所有 4055
▁掌握 4056
▁政務 4057
▁奉行 4058
梶 4059
▁殿 4060
▁竹 4061
令 4062
▁跡 4063
際 4064
▁格式 4065
蔓 4066
▁皇女 4067
▁谷 4068
▁御殿 4069
羽 4070
八 4071
幡 4072
▁千代 4073
▁蔵人 4074
▁墓所 4075
▁最大 4076
▁誇 4077
▁全体 4078
庁 4079
▁つい 4080
▁2000 4081
欧 4082
▁行政 4083
策 4084
▁システム 4085
▁危 4086
▁権限 4087
▁制限 4088
枢 4089
▁六条 4090
▁烏丸 4091
▁便 4092
宜 4093
廟 4094
▁運営 4095
幹 4096
▁方針 4097
憲 4098
朋 4099
▁一体 4100
横 4101
▁憲 4102
還 4103
▁恩 4104
劉 4105
畺 4106
頌 4107
▁国内 4108
区 4109
▁議 4110
決 4111
▁機関 4112
▁参議 4113
▁審 4114
査 4115
▁執行 4116
▁駐 4117
▁堀川 4118
▁三男 4119
＊ 4120
▁文久 4121
▁初代 4122
▁弘安 4123
▁委 4124
惠 4125
▁事件 4126
▁裁 4127
22 4128
職 4129
繰 4130
弘 4131
31 4132
⇒ 4133
▁五代 4134
▁八代 4135
琢 4136
▁寛文 4137
▁延宝 4138
79 4139
46 4140
▁1943 4141
▁1925 4142
暢 4143
▁1993 4144
▁平成 4145
▁1996 4146
▁騒動 4147
役 4148
▁1930 4149
▁発行 4150
▁調 4151
▁節 4152
▁五十 4153
十 4154
▁連携 4155
番 4156
▁職務 4157
▁経緯 4158
▁由 4159
緒 4160
▁複 4161
偏 4162
頗 4163
傾 4164
染 4165
▁或 4166
▁ザ 4167
揺 4168
▁暴 4169
悪 4170
忿 4171
怒 4172
▁毛 4173
皮 4174
纏 4175
▁志 4176
▁使者 4177
▁かか 4178
穏 4179
やか 4180
溢 4181
憤 4182
▁我 4183
烏 4184
▁召 4185
ちに 4186
▁捕らえ 4187
▁すぎ 4188
▁逃げ 4189
▁妃 4190
▁踏 4191
▁処分 4192
醜 4193
泥 4194
黄 4195
▁髷 4196
牙 4197
側 4198
▁装束 4199
▁奴 4200
隷 4201
▁付き 4202
▁変遷 4203
▁依頼 4204
ノ 4205
材 4206
▁分か 4207
矜 4208
羯 4209
ぬ 4210
付 4211
▁筋 4212
書き 4213
▁エ 4214
▁採 4215
稽 4216
祕 4217
劔 4218
體 4219
▁宮城 4220
巌 4221
▁大山 4222
▁凝 4223
灰 4224
▁東福 4225
▁－ 4226
▁絹 4227
▁名所 4228
▁四国 4229
汎 4230
ーク 4231
幅 4232
瓔珞 4233
拳 4234
▁根拠 4235
似 4236
ッド 4237
▁叙 4238
バー 4239
ヌ 4240
▁すぐ 4241
▁ケ 4242
阜 4243
斐 4244
▁忌 4245
▁一時 4246
▁恒 4247
▁規制 4248
▁篤 4249
▁進出 4250
禁 4251
▁議論 4252
ごと 4253
欲 4254
御 4255
▁抑え 4256
薦 4257
淫 4258
▁斎 4259
▁交渉 4260
倫 4261
猥 4262
褻 4263
獣 4264
姦 4265
▁排除 4266
岳 4267
液 4268
レ 4269
爪 4270
排 4271
泄 4272
褥 4273
▁境内 4274
輿 4275
触 4276
ブ 4277
▁仙 4278
米 4279
▁洗 4280
濯 4281
脛 4282
惚 4283
墜 4284
▁説明 4285
留 4286
踏 4287
故 4288
魑 4289
魅 4290
魍魎 4291
▁安全 4292
▁獲得 4293
▁ヒメ 4294
嫉 4295
妬 4296
池 4297
峰 4298
▁牛 4299
▁沖 4300
▁祭神 4301
▁ビ 4302
絡 4303
卑 4304
▁浸 4305
透 4306
▁参加 4307
憑 4308
呼 4309
▁資格 4310
残 4311
▁解散 4312
▁直後 4313
▁プロ 4314
▁37 4315
▁男女 4316
鎚 4317
媛 4318
開 4319
▁看 4320
板 4321
▁山頂 4322
陸 4323
潔 4324
斎 4325
曳 4326
竿 4327
▁秋田 4328
鉾 4329
▁囃子 4330
▁博多 4331
笠 4332
扮 4333
▁締め 4334
込み 4335
▁岸 4336
▁鉱 4337
▁炭 4338
鉱 4339
坑 4340
▁工事 4341
▁トンネル 4342
▁技術 4343
▁酒 4344
▁杜氏 4345
▁相撲 4346
俵 4347
▁能楽 4348
▁楽 4349
▁認め 4350
▁無形 4351
▁認定 4352
▁2004 4353
畜 4354
▁競技 4355
▁会員 4356
▁成人 4357
▁キャ 4358
闡 4359
もと 4360
損 4361
障 4362
悔 4363
過 4364
▁客 4365
▁苦し 4366
▁抜 4367
▁容 4368
姿 4369
▁紅 4370
挿 4371
▁亡 4372
失 4373
ケ 4374
▁ニ 4375
▁美 4376
▁絵画 4377
憧 4378
幢 4379
錫 4380
育 4381
▁包 4382
▁菓子 4383
▁供え 4384
閻 4385
細 4386
綿 4387
賽 4388
河 4389
卒 4390
▁関西 4391
▁扱 4392
傍 4393
僑 4394
眠 4395
荘 4396
眉 4397
▁並べ 4398
▁判 4399
衡 4400
▁秀 4401
▁もう 4402
膨 4403
先 4404
▁弱 4405
▁地下 4406
喘 4407
隔 4408
▁葬儀 4409
▁辻 4410
帝 4411
奏 4412
唵 4413
▁尾 4414
ネ 4415
▁化粧 4416
▁味噌 4417
▁塩 4418
切り 4419
▁張 4420
折 4421
咳 4422
守 4423
▁腹 4424
釘 4425
汗 4426
芋 4427
運 4428
尽 4429
鬘 4430
掛 4431
▁帯 4432
▁仏師 4433
岩 4434
巣 4435
鴨 4436
▁壬生 4437
▁神戸 4438
報 4439
紅 4440
▁弓 4441
弓 4442
偽 4443
▁程 4444
▁遊女 4445
▁代々 4446
枳 4447
▁邦 4448
惑 4449
▁矢 4450
▁詳 4451
▁操 4452
▁楽し 4453
▁気 4454
▁くれ 4455
▁札 4456
▁長浜 4457
献 4458
▁近衛 4459
▁政所 4460
▁移築 4461
▁山城 4462
▁表記 4463
吸 4464
蒲 4465
▁折り 4466
▁程度 4467
▁浅 4468
尻 4469
▁重ね 4470
▁落と 4471
歯 4472
筋 4473
▁少し 4474
▁突き 4475
鼻 4476
▁ヘ 4477
▁自然 4478
▁丹 4479
料 4480
▁方向 4481
囚 4482
▁医学 4483
滝 4484
▁寸 4485
▁尺 4486
雨 4487
▁飛 4488
▁鎮守 4489
懇 4490
麓 4491
▁改称 4492
臨 4493
▁留ま 4494
司 4495
य 4496
म 4497
मरा 4498
ज 4499
雙 4500
遡 4501
▁捕 4502
縄 4503
魂 4504
肌 4505
▁黒 4506
▁本項 4507
▁君 4508
▁官人 4509
▁ルー 4510
叱 4511
▁浪 4512
邦 4513
▁舞台 4514
５ 4515
▁嫡 4516
紙 4517
受 4518
表 4519
66 4520
▁大石 4521
▁サイ 4522
箇 4523
▁武田 4524
▁勝頼 4525
披 4526
▁北山 4527
蔽 4528
▁出発 4529
▁追放 4530
旦 4531
▁高ま 4532
消 4533
▁材料 4534
▁裁判 4535
近 4536
冨 4537
▁1999 4538
▁本部 4539
罰 4540
▁急死 4541
詐 4542
▁おお 4543
俳 4544
▁伯爵 4545
▁院号 4546
峯 4547
麿 4548
美 4549
楳 4550
嶺 4551
栖 4552
鳳 4553
規 4554
誌 4555
梧 4556
桐 4557
▁脱 4558
揮 4559
忌 4560
▁失敗 4561
責 4562
逝 4563
▁新聞 4564
▁俳諧 4565
遇 4566
悦 4567
疎 4568
▁1920 4569
▁1910 4570
ş 4571
▁スサノオ 4572
▁猛 4573
撒 4574
▁効 4575
▁都市 4576
▁氷 4577
▁アイ 4578
▁冷 4579
淡 4580
▁貧 4581
▁嫌 4582
▁孔 4583
偉 4584
毒 4585
▁食べ 4586
厄 4587
痛 4588
▁能力 4589
孔 4590
ぃ 4591
▁松尾 4592
▁舞鶴 4593
▁服 4594
▁技法 4595
雅 4596
▁作風 4597
▁襲 4598
奨 4599
楼 4600
腰 4601
▁ピ 4602
▁武者 4603
概 4604
党 4605
貌 4606
▁絵巻 4607
駄 4608
薙 4609
嵩 4610
▁ヨーロッパ 4611
▁狙 4612
▁防衛 4613
矛 4614
盾 4615
訴 4616
▁以仁 4617
▁平家 4618
▁描写 4619
▁双方 4620
▁取引 4621
▁槍 4622
▁胤 4623
▁津田 4624
砲 4625
▁算 4626
▁銃 4627
隊 4628
▁紀 4629
▁征伐 4630
▁諏訪 4631
▁信玄 4632
▁神宮 4633
▁大友 4634
鎮 4635
▁切り 4636
離 4637
▁抱え 4638
担 4639
封 4640
▁談 4641
▁衝 4642
突 4643
▁大和 4644
▁抗争 4645
▁原則 4646
▁どの 4647
狗 4648
▁資料 4649
▁怪 4650
▁縁起 4651
周 4652
環 4653
▁怒り 4654
豚 4655
貪 4656
▁最中 4657
受け 4658
▁行き 4659
▁過ご 4660
衰 4661
▁塗 4662
萎 4663
渇 4664
償 4665
▁料理 4666
▁分野 4667
肉 4668
菜 4669
▁卵 4670
▁乳 4671
▁ケース 4672
乳 4673
仔 4674
▁習慣 4675
雑 4676
▁調理 4677
▁食材 4678
▁加工 4679
▁保存 4680
飽 4681
▁醤油 4682
▁豆腐 4683
▁豆 4684
▁納豆 4685
▁油 4686
揚げ 4687
▁開発 4688
蓄 4689
▁植物 4690
▁湯 4691
▁食品 4692
炒 4693
祭 4694
▁家庭 4695
▁台湾 4696
韓 4697
▁料 4698
亭 4699
▁味 4700
▁調味 4701
酷 4702
使 4703
▁濃 4704
▁味付け 4705
▁煮 4706
凍 4707
▁コン 4708
▁浜 4709
豆 4710
辛 4711
訓 4712
▁赴 4713
粥 4714
▁飯 4715
ぽ 4716
庫 4717
▁素 4718
茶 4719
ブル 4720
▁方形 4721
卓 4722
▁囲 4723
皿 4724
▁野菜 4725
煮 4726
▁胡 4727
焼 4728
▁揚げ 4729
▁煎茶 4730
▁情 4731
嗜 4732
袱 4733
▁貴重 4734
差 4735
器 4736
鮮 4737
客 4738
促 4739
膳 4740
▁懐 4741
素 4742
▁季節 4743
▁盛り 4744
▁活 4745
▁汁 4746
ぺ 4747
粉 4748
▁饅頭 4749
羊 4750
羹 4751
▁うどん 4752
麺 4753
▁広が 4754
▁つなが 4755
泊 4756
▁提供 4757
篭 4758
舗 4759
▁象 4760
▁抱 4761
es 4762
粗 4763
暴 4764
覗 4765
▁女子 4766
擁 4767
▁公開 4768
油 4769
▁センチ 4770
（ 4771
▁米 4772
▁混ぜ 4773
▁餅 4774
串 4775
柿 4776
▁端 4777
榴 4778
▁静岡 4779
▁小山 4780
▁三重 4781
▁桑 4782
▁山崎 4783
▁上京 4784
陣 4785
▁天下 4786
▁茶屋 4787
▁尾張 4788
賤 4789
せん 4790
▁昌 4791
▁鴨 4792
▁淀川 4793
▁死去 4794
▁70 4795
駆 4796
▁藩 4797
▁藩主 4798
▁方面 4799
▁商人 4800
▁昭 4801
▁攻め 4802
▁あげ 4803
▁降伏 4804
▁条約 4805
署 4806
▁企 4807
竜 4808
婿 4809
瓊 4810
▁安土 4811
▁安芸 4812
▁身分 4813
37 4814
▁滅亡 4815
▁家臣 4816
▁脱出 4817
▁仕え 4818
亀 4819
▁豊後 4820
柴 4821
▁案 4822
躍 4823
測 4824
▁臣 4825
▁小早 4826
景 4827
柱 4828
▁1600 4829
▁戦い 4830
▁石田 4831
▁三成 4832
▁西軍 4833
▁当主 4834
▁輝 4835
▁庭 4836
▁楠 4837
四郎 4838
漫 4839
▁一覧 4840
附 4841
▁出世 4842
懐 4843
▁候 4844
▁掛 4845
▁貸 4846
下げ 4847
▁授与 4848
塗 4849
▁刻 4850
箔 4851
臍 4852
▁差し 4853
枠 4854
▁此 4855
▁形状 4856
押 4857
贋 4858
扉 4859
▁掲載 4860
▁写真 4861
比 4862
▁著者 4863
宸 4864
覧 4865
▁奏 4866
▁住居 4867
▁皇居 4868
▁観光 4869
▁拝 4870
牌 4871
夕 4872
▁沈 4873
まち 4874
▁僧正 4875
▁小倉 4876
▁仲 4877
▁建久 4878
▁歌人 4879
▁家集 4880
▁和歌 4881
▁くる 4882
▁越 4883
謡 4884
▁直前 4885
▁神武 4886
換 4887
▁仮名 4888
▁教授 4889
▁鈴木 4890
継 4891
▁古典 4892
▁文学 4893
店 4894
補 4895
▁国史 4896
今 4897
2003 4898
2 4899
昭 4900
岑 4901
▁よし 4902
むね 4903
▁桓武 4904
▁納言 4905
男 4906
孝 4907
▁乳母 4908
▁花山 4909
▁元慶 4910
▁貞観 4911
▁和歌集 4912
こと 4913
▁恋 4914
撰 4915
▁入集 4916
ゑ 4917
▁露 4918
▁舞踊 4919
恋 4920
▁停 4921
滞 4922
▁発生 4923
急 4924
▁策 4925
▁去 4926
じま 4927
▁強化 4928
▁判断 4929
▁大軍 4930
▁処刑 4931
壊 4932
▁政策 4933
算 4934
─ 4935
恕 4936
▁児 4937
▁改正 4938
▁創設 4939
▁佐 4940
▁日常 4941
倪 4942
悉 4943
件 4944
▁隠れ 4945
接 4946
窺 4947
▁兄弟 4948
介 4949
▁釣 4950
撞 4951
韻 4952
響 4953
▁鐘 4954
牢 4955
鯨 4956
陳 4957
▁南朝 4958
▁太 4959
▁突 4960
▁装飾 4961
▁大伴 4962
もの 4963
麗 4964
▁大半 4965
▁例外 4966
鈴 4967
昏 4968
径 4969
喚 4970
▁鋳 4971
▁小判 4972
▁雅楽 4973
収 4974
潰 4975
▁溶 4976
▁縦 4977
▁坪 4978
▁出土 4979
▁民俗 4980
▁弁慶 4981
▁級 4982
翔 4983
吊 4984
▁幕末 4985
博 4986
▁上野 4987
芭 4988
蕉 4989
▁晩 4990
康 4991
▁買 4992
尺 4993
暮 4994
▁曲 4995
黛 4996
▁建造 4997
敷 4998
蕾 4999
以 5000
夢 5001
摸 5002
胸 5003
焦 5004
熱 5005
傑 5006
▁平野 5007
▁鳥羽 5008
▁坂上 5009
▁田村 5010
麻呂 5011
邸 5012
▁勧進 5013
脚 5014
弊 5015
粋 5016
▁剣 5017
▁アン 5018
▁勤め 5019
館 5020
▁討 5021
幕 5022
醍 5023
醐 5024
▁建武 5025
▁新政 5026
葩 5027
▁勘 5028
▁顧問 5029
孚 5030
▁今川 5031
▁左衛門 5032
▁尉 5033
▁駿 5034
▁重臣 5035
菊 5036
噂 5037
係 5038
芳 5039
▁二人 5040
栴 5041
▁琴 5042
舜 5043
▁桂 5044
▁実現 5045
▁功績 5046
▁同盟 5047
▁締結 5048
▁折 5049
衝 5050
田原 5051
▁攻略 5052
▁庶 5053
▁奪 5054
戻 5055
▁制定 5056
▁商業 5057
▁60 5058
割 5059
綻 5060
叶 5061
▁敷 5062
▁隣 5063
・ 5064
Ā 5065
▁嵐山 5066
▁西京 5067
▁少年 5068
▁見せ 5069
郡 5070
紫 5071
翅 5072
▁吉野 5073
角 5074
▁互い 5075
刈 5076
▁併 5077
置 5078
▁笠 5079
寧 5080
▁激 5081
▁音楽 5082
複 5083
薛茘 5084
單 5085
灌 5086
▁ソー 5087
鷲 5088
獰 5089
▁充 5090
▁美し 5091
ヘ 5092
▁麻 5093
貼 5094
▁巻き 5095
甲 5096
翼 5097
▁笛 5098
畢 5099
▁琵琶 5100
▁西南 5101
▁繊 5102
▁健康 5103
▁代わ 5104
▁祖父 5105
淳 5106
泰 5107
▁関白 5108
▁猶子 5109
▁下賜 5110
▁正室 5111
▁倒 5112
ぴ 5113
▁42 5114
▁決ま 5115
▁大手 5116
隙 5117
▁わずか 5118
痕 5119
破 5120
▁粉 5121
▁型 5122
鐸 5123
▁払 5124
蝿 5125
▁投げ 5126
精 5127
螺 5128
釧 5129
髑 5130
髏 5131
▁傍 5132
楯 5133
▁宮殿 5134
鉤 5135
▁柄 5136
箭 5137
澡 5138
▁上方 5139
枝 5140
桃 5141
葡 5142
萄 5143
箱 5144
▁刃 5145
鉞 5146
斧 5147
▁まさ 5148
かり 5149
及 5150
▁留学 5151
▁太上 5152
芿 5153
轄 5154
▁1900 5155
っと 5156
û 5157
▁卒 5158
播 5159
▁低 5160
▁小さ 5161
▁敷地 5162
▁共同 5163
▁限り 5164
▁措置 5165
檀 5166
深 5167
▁45 5168
余 5169
洹 5170
▁つな 5171
いで 5172
▁筆頭 5173
▁日間 5174
郊 5175
酥 5176
酪酥 5177
漸 5178
引 5179
▁衛 5180
▁附 5181
▁熟 5182
淘 5183
序 5184
已 5185
閃 5186
▁劣 5187
牽 5188
▁速 5189
但 5190
▁桐 5191
▁やま 5192
▁合併 5193
▁正平 5194
順 5195
遁 5196
擢 5197
▁正成 5198
▁甲斐 5199
窓 5200
築 5201
▁建設 5202
▁援 5203
▁管領 5204
▁丹後 5205
授 5206
▁政変 5207
▁失脚 5208
▁育て 5209
兆 5210
盂 5211
蘭 5212
盆 5213
連 5214
燃 5215
痩 5216
喉 5217
▁驚 5218
銭 5219
▁汲 5220
伯 5221
▁澄 5222
▁兼務 5223
▁協 5224
▁附属 5225
▁国師 5226
▁権守 5227
▁季 5228
▁久我 5229
▁養子 5230
▁元服 5231
随 5232
▁免 5233
▁皇太后 5234
▁寛政 5235
▁とくに 5236
▁宇都 5237
房 5238
降 5239
▁設定 5240
▁減 5241
▁台頭 5242
腐 5243
敗 5244
鈍 5245
働 5246
▁絵師 5247
▁終え 5248
▁大同 5249
▁綾 5250
弁 5251
▁現象 5252
▁構想 5253
▁グループ 5254
襲 5255
▁部門 5256
▁天神 5257
ṇ 5258
ḍ 5259
ण 5260
ड 5261
ल 5262
ण् 5263
▁祭礼 5264
何 5265
▁秩 5266
砕 5267
愛 5268
あ 5269
▁春日 5270
俯瞰 5271
髭 5272
彭 5273
▁但馬 5274
湯 5275
▁茶道 5276
▁漬け 5277
庭 5278
▁城主 5279
▁山名 5280
▁祐 5281
▁浪人 5282
▁薫 5283
甫 5284
滴 5285
英 5286
▁軒 5287
諮 5288
▁着用 5289
反 5290
効 5291
▁所司 5292
珀 5293
▁棚 5294
軽 5295
▁秀忠 5296
▁堀 5297
▁寄せ 5298
▁家光 5299
謁 5300
柔 5301
▁工 5302
漬 5303
▁武蔵 5304
諭 5305
▁並び 5306
▁学問 5307
早 5308
▁1899 5309
▁歴任 5310
▁浅井 5311
▁虎 5312
浅 5313
▁外戚 5314
▁実父 5315
▁皮 5316
符 5317
粒 5318
▁穴 5319
▁糸 5320
揉 5321
鞄 5322
▁畳 5323
▁簡 5324
顆 5325
球 5326
▁副 5327
▁仕立て 5328
晶 5329
珊瑚 5330
▁素材 5331
▁入り 5332
ォ 5333
翡 5334
翠 5335
▁ビル 5336
▁ツ 5337
柘 5338
植 5339
琥珀 5340
▁星 5341
絹 5342
▁保管 5343
剤 5344
▁傷 5345
▁柔 5346
▁店 5347
▁利休 5348
蹴 5349
鞠 5350
扁 5351
Ｘ 5352
３ 5353
▁止め 5354
▁計 5355
▁販売 5356
▁儀礼 5357
▁紐 5358
毬 5359
▁× 5360
▁倍 5361
拘 5362
▁決め 5363
はり 5364
撚 5365
詰め 5366
● 5367
デ 5368
販 5369
糸 5370
▁修理 5371
▁交換 5372
漂 5373
飴 5374
替え 5375
振 5376
▁上下 5377
鼓 5378
▁来る 5379
▁デザイン 5380
せい 5381
▁源義 5382
▁阿波 5383
▁平治 5384
▁敗 5385
▁伊豆 5386
▁挙兵 5387
▁敗北 5388
▁佐々木 5389
▁渋 5390
匿 5391
総 5392
▁一門 5393
▁合流 5394
泣 5395
▁頼家 5396
▁謀反 5397
▁押し 5398
誅 5399
▁家人 5400
▁繋が 5401
魚 5402
▁寵 5403
廉 5404
▁農業 5405
▁清盛 5406
▁途中 5407
狐 5408
▁稲荷 5409
裸 5410
圃 5411
叔 5412
嗣 5413
兌 5414
銘 5415
▁明神 5416
18 5417
19 5418
▁文芸 5419
硬 5420
▁提出 5421
玩 5422
咎 5423
▁手法 5424
僭 5425
▁税 5426
▁筑紫 5427
牒 5428
▁原因 5429
▁連歌 5430
徹 5431
▁北野 5432
菟 5433
玖 5434
炳 5435
▁奉仕 5436
▁生地 5437
▁逸 5438
乏 5439
▁忘れ 5440
▁祝 5441
歴 5442
▁競 5443
瑫 5444
壽 5445
非 5446
涛 5447
▁潜 5448
▁イン 5449
産 5450
▁科 5451
▁アル 5452
疆 5453
▁猿 5454
祚 5455
畔 5456
右 5457
▁公卿 5458
▁将門 5459
▁反乱 5460
▁下向 5461
▁献上 5462
譚 5463
▁引用 5464
仮 5465
▁東洋 5466
▁温 5467
減 5468
裁 5469
▁借 5470
七 5471
媒 5472
曹 5473
▁割り 5474
▁情報 5475
▁河原 5476
▁秦 5477
蘂 5478
蔭 5479
▁赤松 5480
祐 5481
▁義教 5482
▁伊勢 5483
▁執筆 5484
欣 5485
答 5486
疑 5487
▁伝授 5488
捉 5489
鳥羽 5490
▁安政 5491
▁攘 5492
▁文政 5493
▁天保 5494
▁井伊 5495
弼 5496
彬 5497
殉 5498
▁日向 5499
▁斬 5500
▁錦 5501
▁湾 5502
▁亡く 5503
惜 5504
▁瀬戸 5505
▁不詳 5506
▁漁 5507
▁大橋 5508
▁募 5509
綸 5510
参 5511
▁賀茂 5512
惨 5513
▁資 5514
走 5515
労 5516
埴 5517
▁肥前 5518
▁機会 5519
拷 5520
灼 5521
▁鍋 5522
▁協力 5523
赤 5524
鍋 5525
打 5526
卿 5527
▁職人 5528
▁伊賀 5529
▁文治 5530
▁松永 5531
▁久秀 5532
▁遺構 5533
固 5534
舞 5535
▁まい 5536
▁舞 5537
▁征 5538
▁寒 5539
▁門下 5540
沿 5541
芸 5542
▁甚 5543
▁演奏 5544
▁太政 5545
▁姫 5546
▁出自 5547
洗 5548
神社 5549
辯 5550
辨 5551
廿 5552
箕 5553
▁柏 5554
▁箱 5555
関 5556
▁卒業 5557
▁番組 5558
齢 5559
▁英語 5560
堪 5561
▁工芸 5562
維 5563
頑 5564
配 5565
！ 5566
▁冊 5567
! 5568
臣 5569
獲 5570
穫 5571
▁催 5572
▁天武 5573
▁天暦 5574
菩 5575
薩 5576
秋 5577
宿 5578
稲 5579
紋 5580
▁葵 5581
曜 5582
蜷 5583
貝 5584
九 5585
幸 5586
▁奉納 5587
幣 5588
筥 5589
▁試験 5590
▁党 5591
床 5592
試 5593
閥 5594
姓 5595
▁ゆかり 5596
埼 5597
▁加増 5598
▁寂 5599
价 5600
▁斎藤 5601
椿 5602
▁太田 5603
▁暗殺 5604
▁天長 5605
嫡 5606
渡 5607
肯 5608
匠 5609
佳 5610
▁ふさ 5611
▁到着 5612
柚 5613
▁預け 5614
▁履 5615
耀 5616
罹 5617
設 5618
▁家族 5619
▁屋根 5620
▁みや 5621
▁詔 5622
▁組合 5623
▁孝 5624
標 5625
▁屋敷 5626
▁竹田 5627
矮 5628
寄せ 5629
▁王国 5630
▁先祖 5631
隅 5632
▁暮ら 5633
▁産地 5634
工 5635
▁障子 5636
欄 5637
▁灯 5638
▁瓦 5639
貫 5640
▁単位 5641
寸 5642
▁戸 5643
丈 5644
▁丈 5645
▁展示 5646
▁飾 5647
炉 5648
笥 5649
紺 5650
▁購入 5651
移 5652
程 5653
▁終了 5654
税 5655
賭 5656
札 5657
更 5658
▁五郎 5659
讒 5660
▁敏 5661
▁目指 5662
▁疑問 5663
▁会議 5664
▁就 5665
▁候補 5666
猊 5667
▁総理 5668
▁兼任 5669
監 5670
▁役職 5671
扱 5672
▁執事 5673
▁任命 5674
▁訓 5675
▁八木 5676
▁阿部 5677
畑 5678
幌 5679
渉 5680
▁啓 5681
▁株 5682
▁誠 5683
挨 5684
拶 5685
▁増加 5686
簿 5687
▁登録 5688
▁伊藤 5689
析 5690
▁確定 5691
謗 5692
▁くらい 5693
▁消 5694
耗 5695
▁訴 5696
▁犯 5697
逮 5698
捕 5699
▁刑 5700
▁出入り 5701
▁欧米 5702
ルト 5703
豊 5704
五 5705
棟 5706
▁嫡流 5707
姉 5708
妹 5709
▁皇位 5710
▁院政 5711
夭 5712
▁出会 5713
やま 5714
▁死亡 5715
▁芸術 5716
▁機構 5717
▁整え 5718
87 5719
▁34 5720
阻 5721
｢ 5722
▁発足 5723
▁建物 5724
▁部屋 5725
需 5726
▁備え 5727
▁2006 5728
挑 5729
堤 5730
防 5731
▁義務 5732
▁移動 5733
▁道路 5734
▁交通 5735
▁警察 5736
攻 5737
▁正親町 5738
浪 5739
▁年度 5740
弛 5741
▁編成 5742
▁拍 5743
車 5744
給 5745
▁定員 5746
▁山中 5747
▁日付 5748
摧 5749
抑 5750
忝 5751
習 5752
午 5753
翰 5754
斥 5755
云 5756
辰 5757
濫 5758
儼 5759
傳 5760
敎 5761
姪 5762
玄 5763
諫 5764
陽 5765
眞 5766
誠 5767
祇 5768
孤 5769
寄 5770
憐 5771
豪 5772
▁表面 5773
貨 5774
街 5775
超 5776
▁浦 5777
浦 5778
峻 5779
▁離宮 5780
▁命名 5781
▁掘 5782
▁育成 5783
▁エピソード 5784
某 5785
▁菅 5786
晏 5787
寓 5788
漱 5789
‥ 5790
辞 5791
▁辞任 5792
寮 5793
検 5794
▁享保 5795
▁法律 5796
▁葛城 5797
▁儒 5798
▁網 5799
梅 5800
阪 5801
▁フランス 5802
▁そば 5803
▁埋め 5804
▁磐 5805
▁生没 5806
詳 5807
紀 5808
▁惟 5809
猷 5810
▁出生 5811
▁若年 5812
技 5813
▁遺産 5814
▁拾遺 5815
屁 5816
揶 5817
揄 5818
焉 5819
▁本多 5820
▁慶応 5821
▁嗣子 5822
怨 5823
恨 5824
▁開設 5825
晴 5826
▁労 5827
廓 5828
▁耳 5829
刑 5830
▁1947 5831
▁会津 5832
▁田中 5833
兄弟 5834
唄 5835
▁棟梁 5836
▁頼政 5837
▁知行 5838
▁佐渡 5839
劣 5840
粘 5841
藁 5842
箆 5843
蓋 5844
ｍ 5845
欠 5846
詮 5847
▁淀 5848
▁着物 5849
蝋 5850
燭 5851
盒 5852
撥 5853
机 5854
飯 5855
閼 5856
ョウ 5857
▁旗 5858
柾 5859
磬 5860
扇 5861
啓 5862
▁扇 5863
帽 5864
佶 5865
閑 5866
ヶ 5867
筮 5868
▁引き継 5869
▁役目 5870
▁備後 5871
秀 5872
胡 5873
▁山本 5874
栂 5875
‧ 5876
筏 5877
▁企画 5878
上皇 5879
▁出仕 5880
妊 5881
▁出産 5882
憚 5883
▁弔 5884
診 5885
▁断絶 5886
▁むら 5887
▁苗 5888
▁経歴 5889
杢 5890
▁検校 5891
▁茂 5892
▁喫 5893
▁茶碗 5894
窯 5895
磁 5896
《 5897
》 5898
巾 5899
琳 5900
圜 5901
捏 5902
▁検討 5903
考 5904
栗 5905
襖 5906
絵 5907
､ 5908
▁高倉 5909
▁使節 5910
巒 5911
▁陶 5912
▁前田 5913
瓢 5914
鮎 5915
羲 5916
▁フェ 5917
▁損 5918
傷 5919
▁寄託 5920
▁下旬 5921
旬 5922
篠 5923
帥 5924
▁調査 5925
▁異説 5926
太 5927
匝瑳 5928
▁干 5929
拓 5930
庄 5931
▁難波 5932
▁畿内 5933
▁しかも 5934
畸 5935
▁みち 5936
謚 5937
氏 5938
父 5939
▁小姓 5940
▁敗れ 5941
針 5942
肥 5943
▁義経 5944
▁鞍馬 5945
逃 5946
晒 5947
▁居城 5948
址 5949
砦 5950
塊 5951
▁起き 5952
▁対馬 5953
▁備前 5954
摘 5955
▁キリシタン 5956
絆 5957
▁主催 5958
呂 5959
講 5960
% 5961
3 5962
▁久安 5963
狩 5964
牡 5965
鹿 5966
▁射 5967
▁かわ 5968
槻 5969
▁二条 5970
▁筑 5971
▁白川 5972
予 5973
茂 5974
▁陥 5975
▁創立 5976
▁道真 5977
▁行幸 5978
▁宣下 5979
滋 5980
▁八条 5981
塀 5982
枯 5983
▁庭園 5984
堀 5985
▁遠州 5986
杮 5987
▁葺 5988
▁住宅 5989
▁杉 5990
かし 5991
▁茶室 5992
▁隣接 5993
▁席 5994
躙 5995
虹 5996
廊 5997
▁障壁 5998
▁紙本 5999
蓬 6000
▁少将 6001
▁鷹 6002
▁淡 6003
彩 6004
▁歌合 6005
▁大夫 6006
▁従五 6007
畠 6008
六 6009
▁丹波 6010
▁介 6011
▁バス 6012
▁下車 6013
▁徒歩 6014
▁電鉄 6015
▁本線 6016
▁駅 6017
▁宝亀 6018
哲 6019
▁檜 6020
綜 6021
敦 6022
▁義昭 6023
尭 6024
▁秀頼 6025
▁親子 6026
檉 6027
憬 6028
▁倒幕 6029
▁計画 6030
▁北朝 6031
叙 6032
礼 6033
汴 6034
▁設計 6035
簾 6036
▁壁 6037
疊 6038
輦 6039
晨 6040
▁東宮 6041
采 6042
▁量 6043
▁世襲 6044
呑 6045
▁四条 6046
洛 6047
患 6048
操 6049
▁平氏 6050
義仲 6051
吏 6052
▁国守 6053
琴 6054
恠 6055
鼠 6056
吾 6057
▁桃 6058
為 6059
倹 6060
選 6061
鑚 6062
▁延長 6063
最 6064
▁昇 6065
▁朝臣 6066
▁甥 6067
尹 6068
斅 6069
▁大宰府 6070
遷 6071
▁箸 6072
▁翌日 6073
▁天慶 6074
▁侍従 6075
▁佐藤 6076
万 6077
しんのう 6078
娍 6079
冷 6080
▁士 6081
隣 6082
▁叙任 6083
▁尊氏 6084
▁走 6085
▁新設 6086
▁不可 6087
週 6088
遅 6089
▁国会 6090
蘆 6091
▁後円 6092
▁呉 6093
▁若狭 6094
珖 6095
商 6096
乾 6097
欽 6098
▁女御 6099
渚 6100
▁吉田 6101
▁意思 6102
▁勃発 6103
▁実家 6104
▁逃亡 6105
▁条件 6106
掛け 6107
脆 6108
弱 6109
▁大宮 6110
瓜 6111
▁与謝 6112
救 6113
右衛門 6114
▁大原 6115
▁郎 6116
▁姉 6117
▁彦根 6118
▁側室 6119
陶 6120
▁邸 6121
蕃 6122
吟 6123
▁高槻 6124
▁植え 6125
贇 6126
▁崩壊 6127
▁閏 6128
▁飛び 6129
▁昇進 6130
▁擁立 6131
杭 6132
奯 6133
鄂 6134
▁養父 6135
▁建保 6136
一郎 6137
㎞ 6138
諷 6139
｡ 6140
了 6141
俎 6142
▁伊東 6143
圀 6144
▁先立 6145
< 6146
> 6147
鯖 6148
▁小浜 6149
奝 6150
虞 6151
停 6152
▁嘉永 6153
三郎 6154
▁由良 6155
▁襲名 6156
▁妖怪 6157
貢 6158
▁蘭 6159
坡 6160
茝 6161
ぱ 6162
樵 6163
惺 6164
▁皆 6165
▁伯 6166
則 6167
萼 6168
昌 6169
狸 6170
狛 6171
▁学生 6172
▁専攻 6173
▁宮津 6174
恒 6175
▁貞享 6176
幽 6177
繕 6178
蝕 6179
▁浮世 6180
▁叩 6181
電 6182
▁電 6183
蛍 6184
稚 6185
▁行列 6186
陰 6187
▁撮 6188
並 6189
鉄 6190
穂 6191
⋆ 6192
｣ 6193
僊 6194
蕪 6195
寥 6196
▁山田 6197
譏 6198
織 6199
秉 6200
諡 6201
兀 6202
▁今出 6203
寇 6204
悠 6205
▁神楽 6206
兄 6207
黎 6208
笠原 6209
琦 6210
▁休 6211
霽 6212
酒屋 6213
兼 6214
粛 6215
っぱ 6216
▁中川 6217
▁中将 6218
▁清原 6219
徐 6220
麟 6221
▁氏族 6222
▁員 6223
▁仕事 6224
▁交わ 6225
怯 6226
曲 6227
賎 6228
協 6229
仰 6230
▁犬 6231
詔 6232
珂 6233
妄 6234
▁女王 6235
櫛 6236
▁摂政 6237
▁内裏 6238
▁落語 6239
▁題材 6240
馨 6241
潭 6242
礪 6243
▁京阪 6244
籌 6245
稜 6246
皐 6247
湫 6248
哉 6249
且 6250
▁中止 6251
蟄 6252
居 6253
▁雄 6254
把 6255
彊 6256
朶 6257
艮 6258
険 6259
崕 6260
▁萩 6261
誨 6262
▁1888 6263
梓 6264
鴻 6265
渥 6266
▁図書 6267
嶋 6268
▁邸宅 6269
▁養女 6270
▁叙位 6271
▁薨去 6272
▁産業 6273
▁奨 6274
▁植 6275
▁綱吉 6276
▁切腹 6277
▁鷹司 6278
▁捨て 6279
▁浅野 6280
兵衛 6281
鶯 6282
▁遅 6283
▁蕎麦 6284
▁栽培 6285
笹 6286
乃 6287
富 6288
▁商品 6289
宍 6290
▁八十 6291
▁水戸 6292
▁嫁 6293
仲 6294
紊 6295
▁タクシー 6296
▁銀行 6297
▁報告 6298
誹 6299
まえ 6300
枕 6301
奠 6302
爐 6303
跨 6304
▁炊 6305
▁造り 6306
款 6307
樒 6308
偲 6309
縮 6310
瞬 6311
征 6312
▁公方 6313
軋 6314
轢 6315
捺 6316
▁新田 6317
▁料金 6318
汽 6319
抛 6320
顧 6321
升 6322
椀 6323
免 6324
▁1918 6325
捲 6326
▁往復 6327
煙 6328
寵 6329
朴 6330
旱 6331
魃 6332
▁地震 6333
増 6334
鍛 6335
濡 6336
腹 6337
悶 6338
攀 6339
軟 6340
喝 6341
▁学習 6342
歪 6343
ます 6344
肝 6345
癖 6346
がけ 6347
▁届 6348
贅 6349
療 6350
禪 6351
德 6352
錄 6353
嶽 6354
摯 6355
顒 6356
穴 6357
汾 6358
漣 6359
蘊 6360
霜 6361
瑯琊 6362
覇 6363
懃 6364
愚 6365
▁師範 6366
潙 6367
謹 6368
偃 6369
竇 6370
肩 6371
膺 6372
丕 6373
匡 6374
虔 6375
▁献 6376
芙 6377
蓉 6378
淄 6379
歇 6380
暉 6381
勧 6382
▁楽器 6383
做 6384
▁アメリカ 6385
▁f 6386
擲 6387
▁飾り 6388
卦 6389
▁太夫 6390
▁地頭 6391
▁補任 6392
陥 6393
▁大神 6394
▁大国 6395
▁住吉 6396
倚 6397
麦 6398
▁石室 6399
▁狂言 6400
▁どこ 6401
▁監督 6402
鼎 6403
抱 6404
溺 6405
▁埋葬 6406
俣 6407
箪 6408
▁抵 6409
飫 6410
▁不足 6411
湘 6412
▁秀次 6413
巍 6414
▁平田 6415
篤 6416
吹 6417
搭 6418
▁松本 6419
▁受賞 6420
▁知事 6421
▁技 6422
寔 6423
県 6424
冲 6425
浩 6426
瀚 6427
湖 6428
▁主人 6429
皓 6430
沌 6431
昨 6432
贈 6433
蒹 6434
葭 6435
酊 6436
▁赴任 6437
▁通信 6438
▁ヶ所 6439
彰 6440
怜 6441
鏑 6442
▁寺町 6443
衷 6444
棺 6445
桶 6446
▁丁目 6447
毫 6448
裾 6449
瑟 6450
桁 6451
禽 6452
▁胴 6453
▁病死 6454
零 6455
▁後ろ 6456
崩 6457
樫 6458
▁幹 6459
困 6460
娶 6461
▁駆け 6462
▁越え 6463
▁再開 6464
薗 6465
▁庄 6466
▁年貢 6467
▁内閣 6468
陵 6469
坦 6470
▁方丈 6471
▁街道 6472
▁jr 6473
▁戦死 6474
控 6475
賞 6476
苔 6477
▁明智 6478
▁信忠 6479
淇 6480
傅 6481
萬 6482
毛 6483
▁有栖川 6484
▁大久保 6485
▁彦 6486
左衛門 6487
駒 6488
覺 6489
瀕 6490
侮 6491
慎 6492
７ 6493
錐 6494
喰 6495
▁橿 6496
曖 6497
避 6498
▁遷任 6499
襴 6500
候 6501
瀑 6502
星 6503
綾 6504
垣 6505
▁件 6506
描 6507
碣 6508
巴 6509
▁棟 6510
▁アクセス 6511
▁センター 6512
嶼 6513
晦 6514
煕 6515
□ 6516
諜 6517
霅 6518
謫 6519
▁ふた 6520
症 6521
▁温泉 6522
梁 6523
脳 6524
痺 6525
▁医師 6526
営 6527
礫 6528
殻 6529
▁容器 6530
炭 6531
▁貨幣 6532
▁亀岡 6533
▁平城 6534
タンゴ 6535
▁鉄道 6536
両 6537
▁1926 6538
▁財団 6539
▁開催 6540
遥 6541
砂 6542
催 6543
▁会館 6544
翆 6545
釜 6546
裡 6547
▁工場 6548
慰 6549
弾 6550
共 6551
實 6552
▁吉宗 6553
莚 6554
麩 6555
洵 6556
▁俵 6557
佑 6558
温 6559
▁橋本 6560
硯 6561
惧 6562
▁条例 6563
▁区域 6564
邊 6565
充 6566
弧 6567
緋 6568
葱 6569
閤 6570
駈 6571
竪 6572
ネマ 6573
▁山陰 6574
髙 6575
葛 6576
▁亮 6577
儲 6578
▁宮廷 6579
虜 6580
縫 6581
▁脚 6582
碑 6583
犬 6584
▁長官 6585
▁低下 6586
輻 6587
1 6588
匹 6589
▁四方 6590
▁草子 6591
▁発表 6592
▁世阿弥 6593
【 6594
】 6595
▁シテ 6596
▁ワキ 6597
ヅ 6598
匂 6599
▁多賀 6600
屯 6601
▁転任 6602
▁遷都 6603
▁どち 6604
韋 6605
▁天井 6606
▁鳥居 6607
刃 6608
▁次郎 6609
▁阪急 6610
韜 6611
澆 6612
淨 6613
囑 6614
〒 6615
▁嵯峨野 6616
▁東側 6617
塩 6618
672 6619
緻 6620
▁光秀 6621
鋳 6622
鰐 6623
▁市民 6624
▁公園 6625
篁 6626
▁高松 6627
由 6628
恤 6629
尤 6630
奇 6631
棘 6632
▁紋 6633
潅 6634
嵯 6635
耆 6636
うやく 6637
郭 6638
▁大路 6639
黌 6640
拈 6641
逆 6642
誑 6643
▁神職 6644
▁小川 6645
▁町名 6646
蝦 6647
蟇 6648
拐 6649
▁警備 6650
僉 6651
▁国民 6652
▁筒井 6653
▁平定 6654
▁東海道 6655
▁大山崎 6656
▁府道 6657
庶 6658
▁おこな 6659
費 6660
薄 6661
閲 6662
絲 6663
半 6664
軼 6665
甍 6666
竦櫂 6667
恢 6668
滄 6669
崛 6670
猶 6671
蠢 6672
懈 6673
匪 6674
哀 6675
聳 6676
霧 6677
俯 6678
忽 6679
歔欷 6680
玆 6681
▁奮 6682
鄙 6683
虚 6684
雖 6685
蕖 6686
乎 6687
▁演目 6688
▁経由 6689
▁芸能 6690
▁明石 6691
捻 6692
▁職業 6693
▁興行 6694
▁緩 6695
▁奉公 6696
▁兵衛 6697
▁河原町 6698
▁丘 6699
▁近鉄 6700
驢 6701
灞 6702
訢 6703
▁今井 6704
皎 6705
耳 6706
▁国際 6707
▁1989 6708
▁科学 6709
締 6710
鴫 6711
ニュー 6712
熊 6713
▁イギリス 6714
▁ドイツ 6715
血 6716
辻 6717
▁紅葉 6718
▁篆刻 6719
悼 6720
范 6721
膩 6722
茗 6723
荷 6724
斗 6725
▁養老 6726
▁ルート 6727
▁km 6728
俶 6729
▁後藤 6730
▁従軍 6731
▁指揮 6732
▁隊 6733
債 6734
▁会社 6735
▁総裁 6736
▁倒れ 6737
錯 6738
▁申し 6739
▁陵 6740
▁1907 6741
聯 6742
▁家元 6743
▁番号 6744
‐ 6745
倦 6746
卜 6747
褒 6748
帛 6749
▁織 6750
遣 6751
幟 6752
揃 6753
▁元治 6754
泳 6755
瑶 6756
聨 6757
％ 6758
▁峠 6759
▁かみ 6760
▁集落 6761
猿 6762
旋 6763
晡 6764
滑 6765
▁うかが 6766
妖 6767
▁剣術 6768
▁武術 6769
麁 6770
藐 6771
▁始 6772
峙 6773
トリ 6774
ーフ 6775
▁韓国 6776
サー 6777
杓 6778
冶 6779
訛 6780
婁 6781
讖 6782
彌 6783
卷 6784
覲 6785
～ 6786
來 6787
會 6788
▁工業 6789
á 6790
▁雁 6791
茅 6792
并 6793
瓚 6794
▁風俗 6795
ーム 6796
坎 6797
荊棘 6798
漠 6799
▁開拓 6800
蚕 6801
繭 6802
▁溝 6803
▁風呂 6804
ヮ 6805
呵 6806
蕨 6807
▁地上 6808
赫 6809
暑 6810
惡 6811
皆 6812
聲 6813
挍 6814
數 6815
諸 6816
咨嗟 6817
咨 6818
嗟 6819
稱 6820
樂 6821
頁 6822
而 6823
８ 6824
處 6825
爲 6826
徧 6827
讀 6828
觸 6829
輭 6830
盡 6831
于 6832
闕 6833
陋 6834
歡 6835
轉 6836
▁解決 6837
逢 6838
奢 6839
稠 6840
へ 6841
拯 6842
顛 6843
曰 6844
▁入学 6845
衞 6846
磯 6847
膀胱 6848
癌 6849
懸 6850
襟 6851
鞋 6852
簠 6853
簋 6854
履 6855
袢 6856
掟 6857
蕩 6858
暗 6859
騎 6860
▁敵 6861
▁討ち取 6862
廢 6863
釋 6864
▁嵐 6865
鋸 6866
爵 6867
▁侯爵 6868
華族 6869
▁方式 6870
▁売り 6871
亜 6872
タル 6873
ヒ 6874
杉 6875
誘 6876
▁家系 6877
▁神祇 6878
▁執権 6879
▁探題 6880
雇 6881
購 6882
辿 6883
▁ブーム 6884
▁勤務 6885
馴 6886
▁陸軍 6887
▁設備 6888
▁予定 6889
均 6890
洩 6891
凌 6892
駕 6893
･ 6894
爆 6895
▁装置 6896
兇 6897
魄 6898
▁袖 6899
青 6900
樋 6901
届 6902
▁長女 6903
枉 6904
銀 6905
愕 6906
二郎 6907
買 6908
練 6909
▁1927 6910
▁徴 6911
▁1929 6912
鐙 6913
檠 6914
訪 6915
▁吾 6916
炬 6917
抹 6918
煽 6919
糾 6920
漑 6921
膚 6922
墾 6923
▁三輪 6924
▁阿倍 6925
賦 6926
虐 6927
▁陸 6928
▁三郎 6929
▁歯 6930
掃 6931
埃 6932
絞 6933
▁製品 6934
▁黒田 6935
瞋 6936
癡 6937
△ 6938
○ 6939
苛 6940
睡 6941
喧 6942
嘩 6943
娯 6944
膸 6945
遙 6946
掴 6947
橙 6948
榊 6949
鰯 6950
菖 6951
蒡 6952
穣 6953
漁 6954
漕 6955
媚 6956
渾 6957
▁蒸 6958
▁ご飯 6959
▁商店 6960
粽 6961
竈 6962
藝 6963
侯 6964
Ś 6965
ṃ 6966
ṣ 6967
ṭ 6968
曉 6969
▁先代 6970
巡 6971
▁学科 6972
▁連盟 6973
［ 6974
］ 6975
忖 6976
▁君主 6977
葦 6978
芥 6979
肖 6980
禍 6981
熹 6982
▁倭 6983
▁統治 6984
▁機能 6985
劈 6986
▁寮 6987
詩 6988
槇 6989
醴 6990
▁符 6991
吽 6992
篆 6993
濃 6994
鑰 6995
瘡 6996
聾瞽 6997
▁硬 6998
牘 6999
崔 7000
瑗 7001
〜 7002
▁麻呂 7003
▁博士 7004
▁オオ 7005
農 7006
灸 7007
▁寿司 7008
▁路線 7009
▁案内 7010
▁家老 7011
脅 7012
襌 7013
▁大海 7014
勇 7015
旧 7016
▁対策 7017
▁西洋 7018
斡 7019
璋 7020
霖 7021
睛 7022
徙 7023
▁しい 7024
應 7025
塾 7026
▁万国 7027
▁各国 7028
▁辞職 7029
桜 7030
． 7031
葆 7032
冰 7033
筵 7034
猟 7035
勘 7036
箋 7037
犂 7038
瀹 7039
拈錍 7040
▁面積 7041
単 7042
▁女官 7043
怠 7044
椙 7045
桑 7046
▁少輔 7047
贄 7048
十郎 7049
允 7050
敒 7051
甥 7052
澁 7053
▁移住 7054
臺 7055
庸 7056
騰 7057
▁物部 7058
▁宗盛 7059
刎 7060
岫 7061
鯉 7062
▁政宗 7063
▁大化 7064
旻 7065
雉 7066
▁改元 7067
▁玉葉 7068
姝 7069
禧 7070
▁大野 7071
其 7072
鴎 7073
啄 7074
痔 7075
痰 7076
▁本丸 7077
▁好み 7078
椎 7079
亘 7080
蝶 7081
） 7082
屑 7083
蒿 7084
蹊 7085
貧 7086
騨 7087
駁 7088
詁 7089
炮 7090
▁山陽 7091
僕 7092
鎔 7093
瀛 7094
撲 7095
暹 7096
▁入内 7097
慌 7098
轍 7099
企 7100
藻 7101
條 7102
咲 7103
旒 7104
畹 7105
痢 7106
顯 7107
注 7108
糧 7109
握 7110
捜 7111
帖 7112
羝 7113
嬰 7114
▁役所 7115
▁官位 7116
椰 7117
▁1891 7118
腸 7119
ライ 7120
▁企業 7121
矯 7122
▁開業 7123
▁試 7124
誤 7125
肺 7126
渦 7127
▁出演 7128
▁ホーム 7129
綬 7130
▁勲 7131
▁現地 7132
湊 7133
▁多田 7134
▁忠臣 7135
▁芸 7136
芯 7137
▁城下 7138
丁 7139
▁分布 7140
緞 7141
罫 7142
婉 7143
茨 7144
▁磯 7145
▁準備 7146
暫 7147
▁片岡 7148
左 7149
甚 7150
侵 7151
擦 7152
短 7153
▁昇叙 7154
▁権利 7155
擯 7156
疇 7157
顰蹙 7158
憎 7159
罵 7160
訾 7161
吼 7162
膓 7163
函 7164
嚴 7165
▁竣工 7166
▁1896 7167
韮 7168
醒 7169
飛 7170
乘 7171
遜 7172
▁安達 7173
▁弘化 7174
嵐 7175
軒 7176
▁督 7177
髷 7178
▁和服 7179
舶 7180
遯 7181
瀞 7182
歸 7183
獨 7184
碇 7185
訊 7186
糟 7187
浚 7188
繍 7189
鐶 7190
樺 7191
紝 7192
大寺 7193
嬉 7194
▁ヲ 7195
犠 7196
牲 7197
弔 7198
▁趣味 7199
遼 7200
ランド 7201
不 7202
贖 7203
泯 7204
撮 7205
耘 7206
捃 7207
菓 7208
氷 7209
疋 7210
㎝ 7211
笛 7212
謳 7213
▁日清 7214
▁披露 7215
堰 7216
暇 7217
警 7218
腫 7219
▁官職 7220
暈 7221
耐 7222
攝 7223
稙 7224
▁出兵 7225
疲 7226
邁 7227
伊 7228
▁引き続 7229
蒔 7230
▁王子 7231
喬 7232
俘 7233
鶴 7234
痴 7235
▁大江 7236
▁大宰 7237
祠 7238
儚 7239
雫 7240
戚 7241
滸 7242
迂 7243
涸 7244
▁支給 7245
緩 7246
嶂 7247
▁芳 7248
鍼 7249
▁攻 7250
饑 7251
股 7252
▁コース 7253
▁穂 7254
× 7255
眤 7256
▁人口 7257
▁義時 7258
猫 7259
飼 7260
▁処理 7261
▁復元 7262
迅 7263
帆 7264
遽 7265
▁帝国 7266
借 7267
鄭 7268
駢 7269
几 7270
▁法令 7271
芬 7272
愷 7273
讎 7274
▁病院 7275
f 7276
梯 7277
邃 7278
震 7279
昂 7280
臆 7281
▁本所 7282
禰 7283
▁管轄 7284
董 7285
▁老中 7286
蕭 7287
賑 7288
▁公事 7289
據 7290
璩 7291
昕 7292
篇 7293
慨 7294
隻 7295
靴 7296
袾 7297
▁釜 7298
冊 7299
ú 7300
í 7301
ó 7302
狄 7303
炫 7304
朕 7305
羨 7306
殯 7307
▁団子 7308
喪 7309
祓 7310
尖 7311
煉 7312
抵 7313
祷 7314
▁サービス 7315
柩 7316
▁貨物 7317
▁消費 7318
剰 7319
携 7320
搬 7321
懲 7322
▁文武 7323
▁持統 7324
▁古墳 7325
曝 7326
娠 7327
劾 7328
殖 7329
孵 7330
霍 7331
拵 7332
薫 7333
沓 7334
▁神名 7335
落と 7336
洒 7337
槽 7338
雰 7339
批 7340
剋 7341
追 7342
儺 7343
添 7344
蚊 7345
▁武道 7346
溪 7347
礀 7348
臘 7349
▁蝦夷 7350
▁猪 7351
閉 7352
哭 7353
關 7354
搗 7355
猴 7356
▁水野 7357
繒 7358
妓 7359
鎌 7360
槍 7361
揆 7362
▁乾燥 7363
燻 7364
寡 7365
▁イベント 7366
▁ロシア 7367
▁1998 7368
桴 7369
▁合奏 7370
槌 7371
王権 7372
嘗 7373
笏 7374
▁故実 7375
穆 7376
擾 7377
▁治天 7378
▁神事 7379
詫 7380
勃 7381
谿 7382
濤 7383
厓 7384
菰 7385
靳 7386
▁厩 7387
▁参戦 7388
▁減少 7389
▁公法 7390
▁桐壺 7391
▁光源氏 7392
麒 7393
奴 7394
嬪 7395
孩 7396
侃 7397
眩 7398
發 7399
弌 7400
▁松山 7401
舊 7402
泡 7403
樣 7404
對 7405
假 7406
兎 7407
缺 7408
餘 7409
▁阪 7410
荻 7411
徂 7412
徠 7413
壌 7414
祗 7415
▁比売 7416
寳 7417
號 7418
到 7419
姚 7420
偸 7421
賈 7422
▁追討 7423
▁義輝 7424
▁子爵 7425
紡 7426
勁 7427
芦 7428
瞭 7429
荒 7430
▁太刀 7431
▁天守 7432
▁家紋 7433
▁斯波 7434
▁吉良 7435
稔 7436
群 7437
剱 7438
諗 7439
裴 7440
夾 7441
豁 7442
怤 7443
琛 7444
甯 7445
樽 7446
巖 7447
糊 7448
靡 7449
冤 7450
双 7451
硫 7452
▁隠岐 7453
▁稽古 7454
霽崙 7455
敍 7456
佚 7457
鄷 7458
愆 7459
玻 7460
蠲 7461
▁どお 7462
▁ダイヤ 7463
▁みなもと 7464
妻 7465
巨 7466
杜 7467
▁盆地 7468
▁高市 7469
誄 7470
徭 7471
齎 7472
邑 7473
槙 7474
沐 7475
之助 7476
剛 7477
蓑 7478
稷 7479
← 7480
▁町人 7481
諳 7482
▁衣装 7483
嵌 7484
學 7485
龕 7486
臼 7487
醸 7488
斃 7489
蟻 7490
▁5000 7491
犍 7492
佉 7493
騫 7494
譌 7495
頷 7496
綺 7497
舅 7498
咋 7499
▁社殿 7500
斜 7501
盞 7502
嗚 7503
湍 7504
▁築城 7505
▁高島 7506
▁田辺 7507
▁通過 7508
俟 7509
旃 7510
畴 7511
朽 7512
▁沿い 7513
熾 7514
乖 7515
肘 7516
膊 7517
腿 7518
▁文様 7519
框 7520
矧 7521
刳 7522
躰 7523
濱 7524
縹 7525
渺 7526
掬 7527
雁 7528
▁インターチェンジ 7529
▁名神 7530
▁高速 7531
纔 7532
淸 7533
恍 7534
慾 7535
悅 7536
莊嚴 7537
▁香り 7538
忙 7539
各 7540
▁開通 7541
審 7542
廂 7543
裂 7544
▁西側 7545
鉛 7546
凹 7547
隈 7548
繧繝 7549
鞍 7550
焼き 7551
尿 7552
▁化学 7553
班 7554
靫 7555
漉 7556
捗 7557
▁俳優 7558
邨 7559
▁近藤 7560
郁 7561
茲 7562
稗 7563
▁製造 7564
秦 7565
泗 7566
▁壬申 7567
齟齬 7568
紆 7569
▁ヤマト 7570
鞭 7571
未 7572
獼 7573
菴 7574
鞞 7575
簸 7576
纂 7577
ッチ 7578
螻 7579
麼 7580
這 7581
舍 7582
藪 7583
= 7584
轆轤 7585
挽 7586
抉 7587
恥 7588
伎 7589
雌 7590
鍍 7591
租 7592
詰 7593
粕 7594
▁閑院 7595
忘 7596
＜ 7597
縞 7598
菱 7599
袂 7600
鰭 7601
改 7602
穰 7603
▁海岸 7604
隼 7605
艘 7606
灘 7607
躊 7608
躇 7609
五郎 7610
▁運賃 7611
栓 7612
窪 7613
▁四郎 7614
尉 7615
怪 7616
▁判官 7617
仇 7618
淋 7619
愉 7620
▁城郭 7621
▁普請 7622
掠 7623
椹 7624
▁御池 7625
▁譜代 7626
▁亭 7627
櫓 7628
▁旗本 7629
▁新選 7630
饗 7631
▁司令 7632
凸 7633
▁櫓 7634
莱 7635
洋 7636
▁丸太町 7637
蔀 7638
陛 7639
憩 7640
to 7641
狭 7642
q 7643
頒 7644
▁カード 7645
▁ic 7646
郵 7647
募 7648
▁乗車 7649
妃 7650
श 7651
ी 7652
▁酢 7653
ँघार 7654
ा 7655
貯 7656
笮 7657
鑪 7658
▁営業 7659
鋪 7660
券 7661
▁店舗 7662
▁福知 7663
併 7664
塁 7665
▁急行 7666
▁列車 7667
汀 7668
▁芹沢 7669
桟 7670
瓦 7671
昉 7672
▁のりば 7673
鄰 7674
殷 7675
膾 7676
炙 7677
肅 7678
槎 7679
筠 7680
㎡ 7681
楢 7682
絃 7683
▁鵜 7684
鳶 7685
鴉 7686
鈿 7687
錍 7688
鱗 7689
霰 7690
楓 7691
▁土器 7692
▁弥生 7693
▁築造 7694
枡 7695
搦 7696
▁駅舎 7697
▁旅館 7698
▁ホテル 7699
蒐 7700
▁工学 7701
芝 7702
九郎 7703
▁幹線 7704
▁全線 7705
▁大河 7706
▁桂川 7707
葺 7708
翳 7709
謐 7710
畷 7711
▁落城 7712
趾 7713
▁団地 7714
▁陣屋 7715
炊 7716
竃 7717
▁海軍 7718
廠 7719
▁製法 7720
² 7721
窒 7722
▁直通 7723
▁国道 7724
朔 7725
邉 7726
▁運転 7727
▁電車 7728
溜 7729
濠 7730
渠 7731
濾 7732
▁区間 7733
▁本社 7734
餐 7735
榮 7736
暖 7737
膏 7738
楕 7739
褐 7740
游 7741
噴 7742
▁エリア 7743
ベル 7744
▁券 7745
收 7746
▁社長 7747
駅 7748
砧 7749
▁弁当 7750
樟 7751
▁松井 7752
▁駅前 7753
賃 7754
貸 7755
缶 7756
鹸 7757
▁アルコール 7758
跳 7759
栽 7760
菌 7761
坪 7762
循 7763
艦 7764
▁市場 7765
旅 7766
椋 7767
侘 7768
篷 7769
薮 7770
魯 7771
柵 7772
蛮 7773
▁役者 7774
侠 7775
▁分家 7776
窠 7777
歳 7778
▁全長 7779
椒 7780
笙 7781
礁 7782
佇 7783
▁国造 7784
銃 7785
▁特急 7786
隧 7787
烟 7788
按 7789
柯 7790
牀 7791
筍 7792
卸 7793
蔦 7794
綵 7795
鵜 7796
祢 7797
萱 7798
堅 7799
杣 7800
賄 7801
採 7802
祈 7803
橇 7804
饌 7805
穿 7806
▁弓道 7807
▁公演 7808
劇 7809
▁久世 7810
區 7811
▁試合 7812
掻 7813
▁朽木 7814
夥 7815
氾 7816
祀 7817
械 7818
▁コーヒー 7819
▁討死 7820
哺 7821
ホ 7822
餌 7823
湾 7824
▁龍馬 7825
閘 7826
峡 7827
▁縄文 7828
慣 7829
° 7830
餃 7831
脊 7832
▁成分 7833
栢 7834
8 7835
▁オランダ 7836
▁創業 7837
鑿 7838
嘲 7839
渫 7840
▁定家 7841
溥 7842
芒 7843
ＴＶ 7844
召 7845
▁演劇 7846
専 7847
▁品種 7848
▁改良 7849
ヰ 7850
▁芝居 7851
▁右近衛 7852
蒼 7853
▁任官 7854
▁ラーメン 7855
▁稲葉 7856
票 7857
朱 7858
飲 7859
▁〜 7860
▁兵力 7861
▁番線 7862
垂 7863
▁構内 7864
檜 7865
捌 7866
伴 7867
▁主演 7868
舒 7869
鋼 7870
▁車両 7871
▁国鉄 7872
▁軌道 7873
▁車庫 7874
▁停車 7875
▁経路 7876
▁乗り入れ 7877
▁運行 7878
▁発着 7879
逓 7880
▁円墳 7881
▁埴輪 7882
掘 7883
銛 7884
粧 7885
珈琲 7886
デン 7887
蛸 7888
狼 7889
蔡 7890
— 7891
枩 7892
巽 7893
墟 7894
爺 7895
蛙 7896
駱 7897
鴛鴦 7898
絖 7899
薊 7900
滕 7901
睥 7902
睨 7903
蜃 7904
ｧ 7905
陪 7906
衙 7907
▁鉄砲 7908
楔 7909
鍾 7910
馗 7911
▁酸 7912
鯱 7913
渋 7914
逗 7915
衾 7916
扠 7917
簀 7918
笄 7919
汐 7920
涵 7921
鞴 7922
適 7923
茸 7924
較 7925
拗 7926
緑 7927
攪 7928
孟 7929
撹 7930
▁在地 7931
▁本殿 7932
鰹 7933
▁樺太 7934
稼 7935
欒 7936
é 7937
ì 7938
祁 7939
畳 7940
與 7941
▁名跡 7942
幾 7943
株 7944
燗 7945
燵 7946
箸 7947
渟 7948
蹲 7949
踞 7950
杯 7951
汲 7952
絨毯 7953
▁真田 7954
▁木戸 7955
扼 7956
禦 7957
畝 7958
懼 7959
碕 7960
▁じんじゃ 7961
鏝 7962
▁メーカー 7963
欅 7964
橖 7965
▁吉備 7966
ヾ 7967
筈 7968
▁芸妓 7969
桝 7970
勲 7971
栩 7972
卉 7973
値 7974
誇 7975
爛 7976
雛 7977
咸 7978
▁本家 7979
茜 7980
纐纈 7981
祝 7982
▁酒造 7983
▁御陵 7984
崑 7985
ＣＦ 7986
庇 7987
棋 7988
崋 7989
隖 7990
惲 7991
▁義弘 7992
鮫 7993
珉 7994
戈 7995
釉 7996
甕 7997
▁海苔 7998
▁左近衛 7999
錣 8000
縅 8001
轡 8002
迭 8003
亙 8004
▁出陣 8005
▁恩賞 8006
゙ 8007
糒 8008
▁弾正 8009
▁衛門 8010
▁大炊 8011
將 8012
ぉ 8013
▁租税 8014
埒 8015
* 8016
艇 8017
玲 8018
▁快速 8019
牝 8020
蹄 8021
紗 8022
† 8023
9 8024
▁昆布 8025
宵 8026
巷 8027
團 8028
剖 8029
汁 8030
酵 8031
錠 8032
帷 8033
堆 8034
▁プロダク 8035
鏃 8036
銚 8037
蛭 8038
泛 8039
襄 8040
哇 8041
麾 8042
堡 8043
奄 8044
▁弓矢 8045
舘 8046
屏 8047
牆 8048
堞 8049
槨 8050
厠 8051
愁 8052
撫 8053
溝 8054
℃ 8055
俑 8056
壙 8057
鋤 8058
磔 8059
嬌 8060
仍 8061
大兄 8062
肄 8063
▁のみこ 8064
壕 8065
鼈 8066
阮 8067
碁 8068
瑁 8069
鏤 8070
碗 8071
坏 8072
﨟 8073
纈 8074
毅 8075
Ⅰ 8076
Ⅱ 8077
Ⅲ 8078
綏 8079
薨 8080
烽 8081
▁倭国 8082
椽 8083
魁 8084
鴟 8085
▁斎宮 8086
鍬 8087
荳 8088
焙 8089
禊 8090
恬 8091
惇 8092
懽 8093
媞 8094
圏 8095
活 8096
鶉 8097
徘 8098
瀟 8099
扈 8100
璧 8101
樔 8102
叛 8103
禮 8104
埠 8105
錨 8106
站 8107
騙 8108
▁撃 8109
鋺 8110
纒 8111
滓 8112
仿 8113
Ｕ 8114
０ 8115
糠 8116
央 8117
ｿｳ 8118
Ｌ 8119
裙 8120
牧 8121
肋 8122
優 8123
挺 8124
▁袴 8125
頤 8126
筌 8127
筅 8128
夾紵 8129
瑪瑙 8130
邇 8131
珥 8132
鋒 8133
嚇 8134
委 8135
蜘 8136
蛛 8137
猪 8138
▁正五 8139
四 8140
珎 8141
覆 8142
蓆 8143
: 8144
痘 8145
疱 8146
怡 8147
ｘ 8148
鷹 8149
塼 8150
靱 8151
蟾蜍 8152
旛 8153
′ 8154
″ 8155
錆 8156
▁歩兵 8157
漲 8158
卵 8159
櫂 8160
棗 8161
鑵 8162
蹶 8163
〆 8164
９ 8165
恃 8166
ü 8167
ã 8168
ạ 8169
渤 8170
裲襠 8171
李 8172
囀 8173
盃 8174
▁褌 8175
壹 8176
篳 8177
篥 8178
鼉 8179
鞨 8180
箏 8181
簧 8182
唇 8183
▁箏 8184
伶 8185
箜篌 8186
簫 8187
竽 8188
鱈 8189
胞 8190
▁ひめ 8191
苞 8192
ＯＶＡ 8193
▁出汁 8194
酢 8195
▁麺 8196
丼 8197
▁砂糖 8198
姜 8199
煎 8200
棹 8201
糖 8202
埜 8203
饂飩 8204
▁餡 8205
薯蕷 8206
餡 8207
芡 8208
à 8209
溶 8210
澱 8211
酸 8212
鮒 8213
麹 8214
糞 8215
焜 8216
溌剌 8217
▁宗家 8218
彗 8219
莪 8220
燄 8221
傲 8222
驕 8223
唸 8224
嫗 8225
姨 8226
聊 8227
ゐ 8228
嫌 8229
茄 8230
沸 8231
銑 8232
靭 8233
鎬 8234
砥 8235
冴 8236
疵 8237
鑢 8238
鍔 8239
健 8240
佩 8241
曾 8242
絢 8243
寒 8244
斬 8245
鋩 8246
緬 8247
籬 8248
縣 8249
碓 8250
▁輸出 8251
▁醸造 8252
馳 8253
箙 8254
諏 8255
檳榔 8256
攪拌 8257
撹拌 8258
碾 8259
▁糖 8260
紬 8261
蝉 8262
銕 8263
丞 8264
▁梅若 8265
措 8266
亟 8267
紐 8268
唾 8269
▁能楽師 8270
▁屋台 8271
▁猿楽 8272
涜 8273
噌 8274
鸚 8275
鵡 8276
邯鄲 8277
潜 8278
鵺 8279
猩 8280
鬚 8281
幔 8282
桔 8283
梗 8284
苗 8285
裃 8286
煤 8287
玅 8288
鵬 8289
俚 8290
髯 8291
舁 8292
噺 8293
▁講談 8294
贔 8295
屓 8296
殴 8297
艶 8298
岬 8299
炷 8300
筯 8301
匙 8302
箒 8303
鹹 8304
恰 8305
、 8306
顎 8307
囂 8308
榎 8309
蒟蒻 8310
肴 8311
▁鵜飼 8312
肱 8313
舳 8314
胃 8315
瞼 8316
黐 8317
匁 8318
艫 8319
楫 8320
艫楫 8321
檣 8322
篝 8323
▁尼子 8324
衿 8325
鑼 8326
彷 8327
彿 8328
姐 8329
簪 8330
鬢 8331
嫁 8332
褄 8333
幇 8334
荏 8335
愈 8336
闊 8337
啐 8338
舐 8339
碌 8340
逍 8341
姑 8342
鱧 8343
轟 8344
▁焼酎 8345
饒 8346
沽 8347
估 8348
秤 8349
籤 8350
阼 8351
閏 8352
▁立憲 8353
此 8354
㈱ 8355
ＣＭ 8356
茹 8357
鮭 8358
鮑 8359
▁ウナギ 8360
葵 8361
擂 8362
槐 8363
偕 8364
挂 8365
襷 8366
膜 8367
胴 8368
鋲 8369
＠ 8370
佃 8371
巫 8372
咫 8373
皺 8374
恭 8375
▁受領 8376
▁利家 8377
▁藩士 8378
漿 8379
徴 8380
蠣 8381
噛 8382
烹 8383
柑 8384
橘 8385
▁カレー 8386
鮨 8387
錦 8388
▁ふじわ 8389
鉋 8390
楮 8391
椏 8392
ゝ 8393
ヲ 8394
滲 8395
膠 8396
篩 8397
礬 8398
カツ 8399
裄 8400
燦 8401
躪 8402
鞁 8403
鎗 8404
▁長政 8405
凋 8406
櫻 8407
齋 8408
燔 8409
糺 8410
▁内蔵 8411
ر 8412
ا 8413
یج 8414
ی 8415
ن 8416
Ｂ 8417
傀 8418
儡 8419
淀 8420
稀 8421
柊 8422
罐 8423
袷 8424
袿 8425
袴 8426
褶 8427
腋 8428
袍 8429
衫 8430
珣 8431
蜻 8432
蛉 8433
縒 8434
絽 8435
襞 8436
▁昇殿 8437
熨 8438
巓 8439
崢 8440
燁 8441
淹 8442
▁地歌 8443
旡 8444
釵 8445
硝 8446
バネ 8447
髮 8448
鍮 8449
囃 8450
杏 8451
肢 8452
悍 8453
筴 8454
衵 8455
▁中務 8456
Ｖ 8457
襠 8458
衽 8459
▁宮家 8460
虱 8461
ぁ 8462
迪 8463
紳 8464
▁為義 8465
吠 8466
劒 8467
节 8468
櫨 8469
@ 8470
６ 8471
弉 8472
筝 8473
髢 8474
繊 8475
酌 8476
諒 8477
▁脚本 8478
嘴 8479
鴈 8480
▁尾上 8481
翫 8482
凄 8483
▁團十郎 8484
澹 8485
滌 8486
盈 8487
曄 8488
筧 8489
襪 8490
捩 8491
苧 8492
彈 8493
傘 8494
襦 8495
凾 8496
舩 8497
蟷螂 8498
姥 8499
拍 8500
觴 8501
▁改易 8502
弄 8503
ｋｇ 8504
① 8505
② 8506
③ 8507
④ 8508
⑤ 8509
⑥ 8510
ｇ 8511
冕 8512
帶 8513
袞冕 8514
黼 8515
彜 8516
黼黻 8517
絛 8518
紕 8519
韈 8520
醤 8521
隘 8522
它 8523
▁酒井 8524
庖 8525
錘 8526
繩 8527
▁府県 8528
拉 8529
沫 8530
蓴 8531
緯 8532
筬 8533
麝 8534
綟 8535
厘 8536
曦 8537
慙 8538
𨏍 8539
堺 8540
囁 8541
幼 8542
凛 8543
閔 8544
冉 8545
軻 8546
荀 8547
儒 8548
誼 8549
▁丞 8550
莽 8551
賈逵 8552
肓 8553
翻 8554
穎 8555
啖 8556
顥 8557
軾 8558
沈 8559
鵝 8560
濂 8561
孺 8562
薛 8563
皖 8564
挫 8565
煥 8566
溟 8567
畿 8568
窩 8569
圷 8570
▁電化 8571
鋏 8572
胚 8573
彼 8574
β 8575
肪 8576
膵 8577
搾 8578
榕 8579
疹 8580
# 8581
; 8582
鐵 8583
冗 8584
雜 8585
秒 8586
◎ 8587
鐚 8588
驛 8589
鯰 8590
殼 8591
棠 8592
砒 8593
▁空手 8594
ヂ 8595
▁降下 8596
孕 8597
▁麹 8598
▁酵母 8599
醗 8600
蛋 8601
甑 8602
嚼 8603
醇 8604
酛 8605
醪 8606
μ 8607
趨 8608
馥 8609
斂 8610
爽 8611
娼 8612
箍 8613
笊 8614
梱 8615
籾 8616
淮 8617
鎹 8618
惣 8619
〇 8620
〝 8621
〟 8622
傭 8623
仆 8624
鰻 8625
腎 8626
徘徊 8627
繇 8628
艾 8629
艾蒿 8630
曵 8631
蕗 8632
厖 8633
噪 8634
柝 8635
ē 8636
歙 8637
嵋 8638
匀 8639
滇綠 8640
羮 8641
葟 8642
黍 8643
喫 8644
綫 8645
椨 8646
鯵 8647
鈎 8648
腺 8649
釣 8650
蒸 8651
鮪 8652
黴 8653
輸 8654
蔕 8655
酎 8656
瞳 8657
錮 8658
ò 8659
薯 8660
稈 8661
Ａ 8662
γ 8663
ô 8664
叩 8665
籐 8666
泌 8667
矣 8668
剪 8669
醂 8670
肛 8671
挌 8672
∞ 8673
掣 8674
炸 8675
慚愧 8676
檸檬 8677
辣 8678
▁教員 8679
撓 8680
剽 8681
窃 8682
咀嚼 8683
＆ 8684
▁部隊 8685
廳 8686
咖 8687
珈竰 8688
咖哩 8689
燒 8690
鰾 8691
弽 8692
晩 8693
皴 8694
登 8695
腔 8696
曙 8697
掾 8698
≒ 8699
榛 8700
佗 8701
朮 8702
薑 8703
旁 8704
鮸 8705
腱 8706
梃 8707
酋 8708
詛 8709
弭 8710
祿 8711
鵠 8712
弩 8713
夙 8714
氣 8715
鞆 8716
投 8717
拮 8718
諴 8719
嚢 8720
脾 8721
縦 8722
藷 8723
▁男爵 8724
▁すけ 8725
α 8726
招 8727
鱲 8728
鰆 8729
鯔 8730
截 8731
偐 8732
粂 8733
甜 8734
梢 8735
弣 8736
鵲 8737
渣 8738
搏 8739
副 8740
呆 8741
瀝 8742
蕊 8743
鱓 8744
蓼 8745
槲 8746
哨 8747
捷 8748
鏢 8749
凝 8750
蚤 8751
哥 8752
吃 8753
鱸 8754
茉莉 8755
匍匐 8756
遐 8757
鬆 8758
脯 8759
餠 8760
茣蓙 8761
盥 8762
糕 8763
酪 8764
臙 8765
被 8766
ǔ 8767
紮 8768
麪 8769
鯣 8770
套 8771
蟠 8772
睫 8773
赭 8774
棕櫚 8775
▁助六 8776
糝 8777
鱠 8778
▁蘭学 8779
聾 8780
凧 8781
糯 8782
粳 8783
К 8784
а 8785
ш 8786
ž 8787
ă 8788
糜 8789
撩 8790
私 8791
狡 8792
狡猾 8793
匏 8794
奮 8795
臀 8796
枇杷 8797
柞 8798
苺 8799
癋 8800
顰 8801
▁官制 8802
蛹 8803
廼 8804
瞽 8805
嬥 8806
熔 8807
耙 8808
慷 8809
纓 8810
郢 8811
簑 8812
枹 8813
苅 8814
獏 8815
弐 8816
阡 8817
烙 8818
蕎 8819
瑣 8820
侈 8821
裹 8822
ぇ 8823
氈 8824
蚯蚓 8825
麋 8826
錺 8827
酩酊 8828
▁評定 8829
踵 8830
浸 8831
唎 8832
▁正二 8833
－ 8834
ｔ 8835
梳 8836
鬱 8837
痒 8838
嗅 8839
些 8840
賠 8841
琺瑯 8842
壜 8843
僥倖 8844
薀 8845
瀉 8846
僖凭 8847
鏨 8848
撈 8849
仗 8850
藺 8851
喋 8852
→ 8853
Ｃ 8854
Ｄ 8855
鉈 8856
鰒 8857
ＪＲ 8858
渭 8859
謾 8860
Ｔ 8861
橈 8862
縢 8863
鞣 8864
諤 8865
鱒 8866
鈐 8867
頫 8868
冽 8869
狽 8870
筐 8871
蘧 8872
鬨 8873
呟 8874
潴 8875
喀痰 8876
泔坏 8877
↓ 8878
蘢 8879
匝 8880
咽 8881
廰 8882
劍 8883
糶 8884
躾 8885
瘍 8886
讐 8887
黑 8888
熬 8889
ǎ 8890
伍 8891
榲邨 8892
窄 8893
▁正三 8894
甃 8895
皀 8896
皀縵 8897
競 8898
牓 8899
幄 8900
蝙蝠 8901
婢 8902
溯 8903
躁 8904
萩 8905
萊 8906
茵 8907
甦 8908
菎蒻 8909
舷 8910
渕 8911
侏 8912
磋 8913
嶠 8914
ō 8915
齣 8916
莨 8917
鱶 8918
▁大輔 8919
洙 8920
希 8921
徨 8922
啜 8923
挟 8924
燧 8925
ℓ 8926
ù 8927
ế 8928
ê 8929
Đ 8930
س 8931
瞥 8932
梟 8933
♭ 8934
奚 8935
竄 8936
冪 8937
璣 8938
飩 8939
彪 8940
麵 8941
ầ 8942
鮹 8943
鱆 8944
ὀκ 8945
τώπους 8946
蕁 8947
ǐ 8948
糍 8949
嗽 8950
殘 8951
捔 8952
峽 8953
★ 8954
ｋ 8955
泅 8956
屍 8957
昴 8958
慳 8959
絣 8960
袵 8961
颪 8962
昼 8963
朧 8964
鼬 8965
聟 8966
俸 8967
籔 8968
叭 8969
鑓 8970
郞 8971
▁夕霧 8972
梆 8973
肇 8974
詢 8975
橡 8976
臈 8977
è 8978
蚫 8979
斤 8980
鰓 8981
瓮 8982
吻 8983
咬 8984
舂 8985
☆ 8986
笞 8987
璉 8988
餞 8989
餬 8990
蝎 8991
黏臍 8992
餤 8993
餺飥 8994
慄 8995
攷 8996
湮 8997
を 8998
｜ 8999
袒 9000
誂 9001
炻 9002
探 9003
稻 9004
慵 9005
犢 9006
褌 9007
畚 9008
縊 9009
鮓 9010
ि 9011
糀 9012
嘔 9013
鰊 9014
蒜 9015
捥 9016
螢 9017
− 9018
莟 9019
寐 9020
呉 9021
♯ 9022
簇 9023
蕤 9024
紘 9025
恣 9026
蒟 9027
ệ 9028
彝 9029
颯 9030
穐 9031
龝 9032
琰 9033
鉅 9034
觱 9035
哈哈 9036
ＣＤ 9037
瘧 9038
禾 9039
凱 9040
豹 9041
蛎 9042
絎 9043
芾 9044
褞 9045
胯 9046
▁勝家 9047
頽 9048
岌 9049
沾 9050
雹 9051
籟 9052
嘯 9053
釻 9054
瞰 9055
俤 9056
剿 9057
巓崢 9058
捐 9059
淺 9060
躑躅 9061
鉸 9062
銙 9063
夸 9064
嫩 9065
駿 9066
涎 9067
賴 9068
妍 9069
奕 9070
琪 9071
峠 9072
韵 9073
袙 9074
甌 9075
淙 9076
頴 9077
狷 9078
詈 9079
窖 9080
訃 9081
螭 9082
燎 9083
⑦ 9084
⑧ 9085
⑨ 9086
痿 9087
凪 9088
臚 9089
斷 9090
摹 9091
搨 9092
模 9093
岱 9094
▁マキノ 9095
桎梏 9096
噫 9097
亞 9098
馘 9099
嬬 9100
謨 9101
蛟 9102
鵞 9103
敲 9104
菘 9105
潘 9106
兪樾 9107
峴 9108
澂 9109
覩 9110
掖 9111
驥 9112
畊 9113
畦 9114
珊 9115
畫 9116
嬢 9117
薔薇 9118
肆 9119
曻 9120
ｰ 9121
覯 9122
尓 9123
髱 9124
袞 9125
黻 9126
劭 9127
馮 9128
迢 9129
蹂躙 9130
軫 9131
奎 9132
ＲＥ 9133
豉 9134
籥 9135
儛 9136
觝 9137
嚮 9138
▁元老 9139
攬 9140
澎 9141
骰 9142
棔 9143
Я 9144
п 9145
онскоемор 9146
е 9147
일 9148
본 9149
해 9150
‎ 9151
苫 9152
潯 9153
√ 9154
― 9155
± 9156
檮 9157
瑕疵 9158
仟 9159
俥 9160
瞞 9161
痙攣 9162
囓 9163
ｕ 9164
ｅ 9165
攤 9166
檔 9167
ë 9168
爰 9169
妾 9170
檻 9171
攫 9172
丶 9173
藉 9174
邂逅 9175
奸 9176
痣 9177
悌 9178
衒 9179
⇔ 9180
▁検非違使 9181
齧 9182
鐺 9183
鐔 9184
弯 9185
薤 9186
辣韭 9187
栝 9188
崙 9189
罷 9190
靏 9191
溷 9192
褚 9193
嫐 9194
咥 9195
擽 9196
勺 9197
▁景時 9198
襤褸 9199
蔚 9200
ï 9201
ö 9202
Ï 9203
銜 9204
鬙 9205
倅 9206
烽燧 9207
枚 9208
塒 9209
ヽ 9210
睾 9211
爬 9212
堵 9213
煖 9214
佻 9215
哄 9216
婕 9217
妤 9218
擣 9219
蟲 9220
憔悴 9221
駘 9222
賂 9223
悄 9224
憫 9225
鹽 9226
逵 9227
菁 9228
趯 9229
隹 9230
撇 9231
仄 9232
啼 9233
闋 9234
睢 9235
憾 9236
踪 9237
殲 9238
鐡 9239
繻 9240
躓 9241
剥 9242
肚 9243
豐 9244
儘 9245
褪 9246
恢恢 9247
訝 9248
蜆 9249
簒 9250
芹 9251
晁 9252
獪 9253
曚 9254
莢 9255
醱 9256
Ｍ 9257
ＡＵＲＩ 9258
陝 9259
蘚 9260
幵 9261
殳 9262
鑾 9263
掉 9264
嘶 9265
鶺鴒 9266
甘 9267
荵 9268
\ 9269
癪 9270
鵆 9271
妲 9272
埓 9273
▁安堵 9274
蜥蜴 9275
緘 9276
筰 9277
抒 9278
艪 9279
'' 9280
羞 9281
嬲 9282
蠱 9283
鞜 9284
飄 9285
鰕 9286
逹 9287
靜 9288
𡵢 9289
梛 9290
蜩 9291
霏 9292
掩 9293
坤 9294
鈕 9295
狙 9296
罠 9297
腑 9298
砌 9299
ｓ 9300
諧 9301
訥 9302
醞 9303
醉 9304
衢 9305
繪 9306
蛻 9307
迸 9308
輯 9309
嬶 9310
鑛 9311
眚 9312
蘿 9313
ɕ 9314
ゎ 9315
ũ 9316
躬 9317
゛ 9318
霓 9319
▁皇統 9320
妣 9321
踐 9322
璽 9323
貶 9324
遺 9325
推 9326
曠 9327
媓 9328
忯 9329
諟 9330
苡 9331
懿 9332
熈 9333
愔 9334
拄 9335
阽 9336
竴 9337
姞 9338
＝ 9339
嗷 9340
▁旅団 9341
俔 9342
洽 9343
▁総督 9344
諄 9345
垠 9346
鵄 9347
攘 9348
冢 9349
昵 9350
▁社格 9351
努 9352
增 9353
煇 9354
猜 9355
忻 9356
繼 9357
屬 9358
鑒 9359
窈窕 9360
倨 9361
婬 9362
媱 9363
凞 9364
祺 9365
暲 9366
誥 9367
嫄 9368
扶 9369
璜 9370
寬 9371
塹 9372
僮 9373
賣 9374
鉉 9375
戮 9376
煬 9377
擡 9378
恂 9379
憙 9380
邵 9381
弖 9382
宦 9383
壟 9384
駝 9385
桙 9386
禔 9387
豫 9388
娟 9389
誣 9390
輕 9391
緝 9392
姈 9393
猖獗 9394
禖 9395
僐 9396
僖 9397
斛 9398
懌 9399
姣 9400
匣 9401
莵 9402
猾 9403
馭 9404
蹈鞴 9405
耜 9406
爭 9407
鉏 9408
橿 9409
戔 9410
紂 9411
斟 9412
獵 9413
阱 9414
雞 9415
抄 9416
淤 9417
顙 9418
陞 9419
曷 9420
閇 9421
蒂 9422
梭 9423
豺 9424
篦 9425
姬 9426
袁 9427
唖 9428
晰 9429
俀 9430
癩 9431
說 9432
權 9433
睿 9434
齊 9435
翹 9436
栲 9437
邏 9438
鯯 9439
娜 9440
弑 9441
幷 9442
鷦鷯 9443
厥 9444
濟 9445
譽 9446
瀰 9447
杼 9448
闢 9449
‘ 9450
’ 9451
垌 9452
蜈蚣 9453
戀 9454
荑 9455
莒 9456
Ｐ 9457
聰 9458
跣 9459
赴 9460
蹔 9461
蓁 9462
絁 9463
億 9464
沖 9465
帚 9466
闖 9467
莬 9468
竝 9469
ﾊ 9470
兒 9471
繫 9472
於 9473
兮 9474
麛 9475
悰 9476
邴 9477
鄗 9478
沛 9479
ゞ 9480
釆 9481
欝 9482
娥 9483
幘 9484
拜 9485
絙 9486
杙 9487
豎 9488
纛 9489
餉 9490
墻 9491
褰 9492
酺 9493
豅 9494
或 9495
虻 9496
脉 9497
圖 9498
舖 9499
氐 9500
苻 9501
篶 9502
謌 9503
膽 9504
鵯 9505
嶌 9506
棊 9507
亮 9508
〃 9509
臧 9510
▁叙爵 9511
訌 9512
厩 9513
薺 9514
鞢 9515
竦 9516
駮 9517
廩 9518
莊 9519
暠 9520
＃ 9521
鳰 9522
甞 9523
皷 9524
▁複線 9525
瀋 9526
罧 9527
宕 9528
▁京津 9529
椥 9530
杞 9531
▁歳三 9532
袰 9533
薭 9534
秩 9535
巀辥 9536
蚪 9537
緜 9538
竣 9539
ＦＭ 9540
燐 9541
駱駝 9542
菫 9543
↑ 9544
泓 9545
榿 9546
장 9547
마 9548
霉 9549
冦 9550
絮 9551
菅 9552
繞 9553
爼 9554
栃 9555
瘤 9556
Ω 9557
鎭 9558
나 9559
라 9560
亢 9561
烝 9562
粮 9563
恫 9564
慟哭 9565
≠ 9566
譛 9567
疽 9568
覃 9569
憊 9570
濔 9571
毗 9572
儾 9573
躅 9574
傔 9575
柂 9576
杪 9577
璟 9578
墅 9579
库 9580
霾 9581
㎥ 9582
µ 9583
磴 9584
駙 9585
楸邨 9586
鰺 9587
榧 9588
啻 9589
飮 9590
阡陌 9591
撤 9592
囮 9593
鬂 9594
謄 9595
왜 9596
관 9597
邱 9598
弍 9599
廨 9600
參 9601
貳 9602
沮 9603
蔗 9604
艀 9605
陌 9606
瘰癧 9607
鷁 9608
僻 9609
兢 9610
洌 9611
皃 9612
罡 9613
蠡 9614
卅 9615
枷 9616
僦 9617
舵 9618
簗 9619
伻 9620
蘋 9621
蚩 9622
旌 9623
甄 9624
髀 9625
邢昺 9626
桛 9627
艤 9628
裴駰 9629
黷 9630
匍 9631
闔 9632
埦 9633
垸 9634
慥 9635
醫 9636
顚 9637
摠 9638
羈縻 9639
沘 9640
錡 9641
准 9642
檄 9643
柬埔 9644
寨 9645
銈 9646
兔 9647
繖 9648
胥 9649
哈 9650
倭 9651
洸 9652
查 9653
鎰 9654
璘 9655
鐫 9656
怕 9657
槊 9658
塡 9659
㮶 9660
剳 9661
戍 9662
覡 9663
苓 9664
汪 9665
磊 9666
荃 9667
泠 9668
匱 9669
翩 9670
佞 9671
頴娃 9672
普 9673
喊 9674
躡 9675
擺 9676
侫 9677
看 9678
靈 9679
謬 9680
壻 9681
辭 9682
樓觀 9683
俾 9684
獻 9685
既 9686
僣 9687
孁 9688
笵 9689
黽 9690
冀 9691
靺鞨 9692
呰 9693
扨 9694
亂 9695
琫 9696
鹵 9697
擱 9698
崧 9699
楨 9700
鞏 9701
墺 9702
鋌 9703
鐐 9704
銖 9705
鈞 9706
龠 9707
兩 9708
貮 9709
秬 9710
恙 9711
沒 9712
蹉跌 9713
÷ 9714
蛾 9715
閹 9716
瑤 9717
騏 9718
禹 9719
筑 9720
蠖 9721
沂 9722
■ 9723
媾 9724
輜 9725
邀 9726
剽悍 9727
鄉 9728
塘 9729
譴 9730
驤 9731
秣 9732
濘 9733
韃靼 9734
踰 9735
裨 9736
斫 9737
刪 9738
膣 9739
坩堝 9740
蒋 9741
躋 9742
埔 9743
罕 9744
剌 9745
遑 9746
毎 9747
悆 9748
癇 9749
灣 9750
喆 9751
效 9752
繼續 9753
籙 9754
垝 9755
ﾛ 9756
櫶 9757
覽 9758
蠻 9759
紵 9760
贓 9761
ě 9762
蠶 9763
ج 9764
م 9765
كو 9766
鄧 9767
ヱ 9768
滔 9769
厦 9770
质 9771
单 9772
懋 9773
專 9774
刕 9775
裵 9776
沱 9777
琅 9778
潁 9779
嚶 9780
哮 9781
隍 9782
鑞 9783
緡 9784
縷 9785
æ 9786
褹 9787
劻 9788
灤 9789
敕 9790
訖 9791
狆 9792
畢沅 9793
燮 9794
畯 9795
萢 9796
諚 9797
喙 9798
夲 9799
拿 9800
褫 9801
蔆 9802
芰 9803
愿 9804
蠅 9805
婕妤 9806
檢 9807
凢 9808
稍 9809
驪 9810
翊 9811
稟 9812
箚 9813
礒 9814
繚 9815
峅 9816
亩 9817
擔 9818
愨 9819
辜 9820
繹 9821
匈 9822
阯 9823
雋 9824
Ｅ 9825
昊 9826
천 9827
황 9828
隸 9829
騶 9830
芻 9831
鄒 9832
匕 9833
潢 9834
燿 9835
廄戶 9836
癲 9837
拒 9838
蘐 9839
皋 9840
鏗 9841
涇 9842
貉 9843
撐犂 9844
ＧＨＱ 9845
倡 9846
薇 9847
嵆 9848
蔡邕 9849
弈 9850
擅 9851
澳 9852
乍 9853
竭 9854
嶬 9855
輌 9856
礦 9857
毓 9858
聶 9859
漪 9860
滾 9861
悖 9862
宬 9863
愴 9864
卣 9865
驟 9866
唼 9867
拼 9868
• 9869
韙 9870
濬 9871
軺 9872
ĭ 9873
閩 9874
杰 9875
奕訢 9876
兪 9877
č 9878
Ĵ 9879
璦琿 9880
們 9881
掵 9882
ｃ 9883
ç 9884
剝 9885
囻 9886
琿 9887
帙 9888
樸 9889
暘 9890
灝 9891
冩 9892
窗 9893
傚 9894
殤 9895
艙 9896
覓 9897
翟 9898
禨 9899
繦 9900
⻌ 9901
瀆 9902
屎 9903
唯 9904
醯 9905
熄 9906
簽 9907
餒 9908
荐 9909
鋠 9910
喇叭 9911
朦 9912
儁 9913
頎 9914
两 9915
髣髴 9916
燥 9917
屢 9918
嚴牆 9919
萃 9920
우 9921
정 9922
총 9923
국 9924
棨 9925
潼 9926
彎 9927
囊 9928
陬 9929
槿 9930
澪 9931
偪 9932
揜哢 9933
雊 9934
豈 9935
脣 9936
畀 9937
翦 9938
侔 9939
＼ 9940
籀 9941
吝嗇 9942
蓂 9943
羇 9944
鈦 9945
曩 9946
歟 9947
價 9948
懊 9949
襃 9950
趁 9951
輓 9952
吝 9953
羌 9954
逕 9955
遭 9956
禱 9957
蟷蜋 9958
繦緥 9959
褂 9960
簺 9961
杷 9962
冓 9963
穜 9964
鉇 9965
釿 9966
鐇 9967
鑷 9968
鑊 9969
鍑 9970
匲 9971
鐃鈸 9972
榱 9973
枓 9974
梲 9975
豕 9976
杈 9977
枅 9978
檐 9979
蟾 9980
誰 9981
覈 9982
拂 9983
惶 9984
遲 9985
鸇 9986
柕 9987
泪 9988
磧 9989
羈 9990
蝸 9991
倖 9992
軛 9993
羣 9994
駢儷 9995
幀 9996
眄 9997
迩 9998
墩 9999
鴬 10000
瑚璉 10001
貂 10002
簍 10003
猨 10004
愾 10005
搆 10006
慍 10007
噉 10008
奧 10009
祜 10010
鷄 10011
霑 10012
從 10013
鴃 10014
瑕 10015
縵 10016
頻 10017
鷰 10018
鵐 10019
黥 10020
柢 10021
點 10022
皙 10023
憺 10024
敝 10025
齒 10026
腥 10027
磑 10028
膿 10029
咩 10030
逡 10031
埿 10032
樴 10033
鑄 10034
涕 10035
蛆 10036
磤馭 10037
諅 10038
仭 10039
變 10040
姮娥 10041
髓 10042
韴 10043
讓 10044
弴 10045
膕踵 10046
娵 10047
恆 10048
懣 10049
欹 10050
峭 10051
惘 10052
个 10053
怜悧 10054
蝮 10055
倬 10056
詭 10057
昱 10058
瀾 10059
ＮＥＴ 10060
佼 10061
鵑 10062
膂 10063
懷惲 10064
翛 10065
誾 10066
侭 10067
拇 10068
鬯 10069
嗾 10070
諂 10071
掄 10072
萍 10073
唳 10074
餝 10075
梔 10076
晧 10077
藹 10078
賸 10079
鷙 10080
銹 10081
暾 10082
蔬 10083
眈 10084
廐 10085
絅 10086
疸 10087
撼 10088
圍 10089
簣 10090
尨 10091
黠 10092
殃 10093
諛 10094
痍 10095
苟 10096
禛 10097
淪 10098
諶 10099
恪 10100
儇 10101
歛 10102
胖 10103
沆 10104
楪 10105
倆 10106
燹 10107
彘 10108
凭 10109
暎 10110
罌 10111
枸杞 10112
淞 10113
賁 10114
丿 10115
聽 10116
悳 10117
穗 10118
瓷 10119
懶 10120
舛 10121
脹 10122
喀 10123
愧 10124
廈 10125
竑 10126
媼 10127
陁 10128
錚 10129
熏鑪 10130
眩暈 10131
ＰＲ 10132
昶 10133
晄 10134
媄 10135
矍 10136
穉 10137
闌 10138
褧 10139
勳 10140
隲 10141
浣 10142
敞 10143
禝 10144
甎 10145
楡 10146
垰 10147
茫 10148
轉譽 10149
◯ 10150
畧 10151
擶 10152
徇 10153
犇 10154
嚥 10155
﨑 10156
儔 10157
鷚 10158
蟆 10159
栞 10160
珏 10161
蚶 10162
倩 10163
嫂 10164
圑 10165
豸 10166
龐 10167
葎 10168
鑠 10169
扣 10170
壑 10171
岻 10172
菡萏 10173
娉 10174
槁 10175
粲 10176
泮 10177
慫慂 10178
瘠 10179
忱 10180
柒 10181
跫 10182
獺 10183
遒勁 10184
續 10185
猒 10186
嵓 10187
蝗 10188
駭 10189
虠 10190
飭 10191
棭 10192
鷧 10193
毖 10194
跛 10195
慊 10196
儂 10197
羆 10198
黨 10199
妝 10200
檎 10201
鼾 10202
髟 10203
庾 10204
鏗鏘 10205
咆哮 10206
轂 10207
搔 10208
驩 10209
潞 10210
ぅ 10211
贊 10212
瘁 10213
辧 10214
悵 10215
艸 10216
丰 10217
嶹 10218
潛 10219
龜 10220
槝 10221
侗 10222
炯 10223
呻 10224
蝠 10225
癇癪 10226
痞 10227
舫 10228
囿 10229
愃 10230
囘 10231
絨 10232
鉚 10233
乕 10234
聱 10235
帾 10236
鷗 10237
寉 10238
棕 10239
橒 10240
塢 10241
鶩 10242
蒿蹊 10243
璿 10244
觚 10245
侑 10246
帒 10247
牕 10248
矍鑠 10249
絇 10250
崦 10251
剄 10252
痾 10253
穵 10254
陂 10255
碾磑 10256
懦 10257
莿 10258
贏 10259
瑝 10260
賻 10261
瀨 10262
琥 10263
拖 10264
慇懃 10265
膈 10266
傔仗 10267
涛瀾 10268
倥 10269
傯 10270
戰 10271
尠 10272
嘖 10273
險 10274
刱 10275
鴦 10276
榭 10277
髦 10278
羸 10279
靄 10280
寃 10281
枖 10282
湟 10283
拱 10284
爨 10285
õ 10286
‰ 10287
礴 10288
脞 10289
楝 10290
廸 10291
忩 10292
嵎 10293
勣 10294
營 10295
棉 10296
鞅 10297
危 10298
伜 10299
蟫 10300
樷 10301
莠 10302
菽竇 10303
繆 10304
奛 10305
霄 10306
茆 10307
澥 10308
盦 10309
泐 10310
龔 10311
嬾 10312
晙 10313
屡 10314
葊 10315
鼡 10316
絓 10317
蕫苡 10318
壞 10319
蕙 10320
閒 10321
圣 10322
济 10323
麑 10324
Ｗ 10325
' 10326
莘 10327
鏱 10328
漾 10329
耒 10330
辮 10331
埭 10332
婧 10333
莨菪 10334
芩 10335
歐 10336
誧 10337
颸 10338
畡 10339
矼 10340
蒭 10341
▁icoca 10342
輛 10343
輻輳 10344
鰰 10345
萠 10346
ＰＴＣ 10347
ｽｰﾊﾟｰ 10348
饋 10349
◇ 10350
◆ 10351
∨ 10352
∧ 10353
距 10354
ＷＧＳ 10355
▼ 10356
▲ 10357
▽ 10358
Ｒ 10359
茱萸 10360
駸 10361
霹靂 10362
牋 10363
抓 10364
龗 10365
罔 10366
鈸 10367
璨 10368
夬 10369
鋡 10370
翺 10371
璵 10372
咀 10373
琮 10374
滹沱 10375
沅 10376
蹤 10377
璞 10378
硅 10379
樅 10380
檫 10381
§ 10382
玳瑁 10383
宀 10384
磚 10385
縋 10386
隕 10387
氵 10388
戧 10389
亳 10390
殀 10391
ｂ 10392
瑋 10393
庠 10394
汕 10395
甸 10396
鉎 10397
ｒ 10398
黃 10399
絕 10400
檍 10401
瀲 10402
錀 10403
鏧 10404
佰 10405
橛 10406
瓠 10407
簠簋 10408
輨 10409
蹕 10410
玦 10411
擘 10412
拔 10413
柀 10414
櫲 10415
枛 10416
榁 10417
胙 10418
膰 10419
Ｙ 10420
躄 10421
攣 10422
傴 10423
蚰蜒 10424
媽 10425
襅 10426
袗 10427
緌 10428
璁 10429
乩 10430
㋹ 10431
粢 10432
囶 10433
각 10434
복모 10435
彔 10436
栻 10437
敘 10438
廝 10439
耄 10440
ｲｷﾞﾘｽ 10441
↔ 10442
驃 10443
厮 10444
圦 10445
