<pad> 0
<unk> 1
<s> 2
</s> 3
▁known 4
▁as 5
▁sesshu 6
▁- 7
l 8
rb 9
- 10
▁14 11
20 12
▁15 13
06 14
r 15
▁, 16
▁he 17
▁was 18
▁an 19
▁ink 20
▁painter 21
▁and 22
▁zen 23
▁monk 24
▁active 25
▁in 26
▁the 27
▁muromachi 28
▁period 29
▁latter 30
▁half 31
▁of 32
th 33
▁century 34
▁called 35
▁a 36
▁master 37
▁. 38
▁revolution 39
ized 40
▁japanese 41
▁painting 42
▁given 43
▁posthumous 44
▁name 45
▁`` 46
▁toyo 47
▁or 48
▁ 49
拙 50
宗 51
▁born 52
▁bicchu 53
▁province 54
▁mov 55
ed 56
▁to 57
▁suo 58
▁after 59
▁enter 60
ing 61
▁s 62
sho 63
koku 64
ji 65
▁temple 66
▁kyoto 67
▁later 68
▁accompani 69
▁mission 70
▁ming 71
▁dynasty 72
▁china 73
▁learned 74
▁chinese 75
▁his 76
▁works 77
▁were 78
▁many 79
▁includ 80
▁not 81
▁only 82
style 83
▁landscape 84
▁paintings 85
▁but 86
▁also 87
▁portrait 88
s 89
▁pictures 90
▁flowers 91
▁birds 92
▁bold 93
▁composition 94
▁strong 95
▁brush 96
▁stroke 97
▁constitut 98
▁extremely 99
▁distinctive 100
▁style 101
▁6 102
▁ex 103
tant 104
▁are 105
▁designated 106
▁national 107
▁treasures 108
de 109
▁is 110
▁consider 111
▁be 112
▁extraordinar 113
y 114
▁among 115
▁for 116
▁this 117
▁reason 118
▁there 119
▁great 120
▁art 121
work 122
▁that 123
▁attribut 124
▁him 125
▁such 126
▁folding 127
▁screen 128
▁with 129
▁paint 130
▁on 131
▁them 132
▁even 133
▁expert 134
▁can 135
▁agree 136
▁if 137
▁they 138
▁real 139
ly 140
▁work 141
▁representative 142
▁include 143
▁: 144
▁long 145
▁scroll 146
▁summer 147
▁winter 148
▁view 149
▁amanohashidate 150
▁broken 151
▁e 152
ka 153
dan 154
pi 155
▁fall 156
▁4 157
▁seasons 158
▁disciples 159
▁shu 160
getsu 161
▁so 162
en 163
shun 164
▁aka 165
hama 166
▁present 167
day 168
ja 169
▁city 170
▁okayama 171
▁prefecture 172
▁samurai 173
▁family 174
▁oda 175
▁nearby 176
▁ho 177
fuku 178
▁whil 179
e 180
▁young 181
▁` 182
▁shokoku 183
▁at 184
▁age 185
▁around 186
▁10 187
▁study 188
having 189
▁training 190
▁under 191
to 192
▁shun 193
in 194
▁from 195
bun 196
▁tensho 197
54 198
▁built 199
▁studio 200
▁un 201
an 202
▁yamaguchi 203
▁patron 204
age 205
▁feudal 206
▁lord 207
▁ouchi 208
65 209
▁acquir 210
▁calligraphy 211
▁by 212
▁bon 213
ki 214
▁soseki 215
▁which 216
▁characters 217
▁written 218
▁request 219
▁shin 220
kei 221
▁ryu 222
ko 223
▁write 224
▁certificate 225
▁about 226
▁origin 227
▁it 228
▁believ 229
▁came 230
u 231
▁thought 232
▁until 233
▁time 234
yo 235
▁firm 236
▁source 237
▁indicate 238
▁same 239
▁person 240
68 241
▁sai 242
▁familiar 243
▁himself 244
▁authentic 245
▁studi 246
▁2 247
▁years 248
▁1 249
48 250
1 251
▁travel 252
▁mino 253
▁no 254
▁reliabl 255
▁record 256
▁date 257
▁death 258
▁most 259
▁put 260
▁other 261
▁records 262
▁died 263
02 264
▁addition 265
▁aspects 266
▁life 267
▁remain 268
▁unknown 269
▁interest 270
▁episode 271
▁who 272
▁like 273
d 274
▁did 275
▁want 276
▁read 277
▁sutras 278
▁; 279
▁monks 280
▁tied 281
▁pillar 282
▁building 283
▁enshrin 284
▁buddhist 285
▁statue 286
▁howev 287
er 288
▁when 289
▁saw 290
drew 291
▁rat 292
▁tears 293
▁fell 294
▁floor 295
▁us 296
▁big 297
▁impress 298
▁allowed 299
▁draw 300
▁well 301
▁story 302
▁first 303
▁appeared 304
▁honcho 305
gashi 306
▁compil 307
▁ei 308
no 309
▁kano 310
▁publish 311
▁16 312
93 313
▁edo 314
▁started 315
▁de 316
ified 317
cause 318
▁school 319
▁rule 320
▁circles 321
ven 322
ated 323
▁lords 324
▁have 325
▁said 326
▁wh 327
▁number 328
▁increase 329
▁reflect 330
▁popularity 331
▁puppet 332
▁drama 333
▁/ 334
▁kabuki 335
▁entitl 336
▁gion 337
▁religious 338
▁festival 339
▁created 340
▁performed 341
▁january 342
▁17 343
58 344
▁scene 345
▁kinkaku 346
▁where 347
▁grand 348
aught 349
▁yuki 350
hime 351
▁takes 352
▁role 353
▁famous 354
▁similar 355
▁today 356
▁gav 357
▁birth 358
▁one 359
▁culture 360
▁leading 361
▁historical 362
▁figure 363
▁country 364
▁museum 365
▁mo 366
h 367
ri 368
86 369
▁tokyo 370
95 371
▁sei 372
nen 373
▁aichi 374
96 375
▁private 376
▁collection 377
▁ishibashi 378
▁small 379
▁kegon 380
g 381
▁ga 382
o 383
▁prefectural 384
▁gu 385
i 386
▁xi 387
a 388
▁ox 389
he 390
▁tang 391
▁li 392
▁hu 393
ang 394
▁chu 395
ping 396
▁kai 397
▁yu 398
▁ko 399
setsu 400
▁kane 401
taka 402
▁masuda 403
▁municipal 404
sato 405
▁memorial 406
▁hall 407
▁bishamonten 408
▁sp 409
sh 410
▁masa 411
* 412
▁list 413
▁special 414
▁exhibition 415
▁commemorat 416
ion 417
▁500 418
▁anniversar 419
▁illustrat 420
▁2002 421
▁rai 422
suke 423
▁nu 424
mata 425
▁ron 426
so 427
▁series 428
sha 429
▁march 430
▁isbn 431
84 432
60 433
41 434
▁fan 435
▁yama 436
shita 437
▁genpei 438
se 439
gawa 440
jun 441
▁ikkyu 442
▁daitoku 443
▁branch 444
▁rinzai 445
▁sect 446
▁dur 447
▁character 448
▁stories 449
▁wi 450
tt 451
▁saying 452
▁refer 453
▁section 454
▁i 455
kyu 456
▁some 457
▁page 458
▁tv 459
▁cartoon 460
san 461
▁illegitimate 462
▁child 463
▁emperor 464
▁gokomatsu 465
▁kazu 466
naga 467
▁sugawara 468
▁diary 469
▁higashi 470
bo 471
jo 472
▁kyo 473
▁wrote 474
▁august 475
st 476
94 477
▁secret 478
▁prince 479
body 480
▁world 481
▁know 482
▁according 483
▁documents 484
▁childhood 485
▁sen 486
gi 487
ku 488
maru 489
ken 490
went 491
un 492
shi 493
▁katsu 494
ro 495
▁mu 496
myo 497
▁do 498
go 499
▁took 500
▁order 501
kan 502
▁sho 503
ge 504
▁quick 505
▁developed 506
▁talent 507
▁poetry 508
▁poems 509
▁cho 510
mon 511
ou 512
▁13 513
shu 514
kka 515
▁prais 516
▁through 517
out 518
10 519
▁became 520
▁student 521
▁ken 522
▁changed 523
14 524
▁whe 525
ther 526
▁teacher 527
▁difficult 528
▁determine 529
▁attempt 530
▁suicide 531
15 532
▁high 533
▁priest 534
don 535
▁ka 536
▁received 537
▁answer 538
▁koan 539
zan 540
▁3 541
▁blow 542
▁t 543
ach 544
ous 545
▁path 546
▁return 547
▁safe 548
▁take 549
▁rest 550
▁let 551
▁rain 552
▁wind 553
▁refers 554
▁confusion 555
▁dis 556
tract 557
▁enlightenment 558
▁buddha 559
▁night 560
▁heard 561
▁calling 562
▁crow 563
▁immediately 564
▁en 565
light 566
▁tri 567
▁give 568
▁dharma 569
▁transmission 570
▁refus 571
▁laugh 572
▁fool 573
▁sent 574
▁away 575
▁then 576
▁liv 577
▁c 578
ra 579
z 580
▁writing 581
28 582
▁leav 583
▁behind 584
▁son 585
▁go 586
hana 587
zo 588
▁fushiminomiya 589
▁enthron 590
▁enthronement 591
▁bas 592
▁recommendation 593
▁chronological 594
▁history 595
kai 596
▁actual 597
▁yoshi 598
▁imai 599
zumi 600
▁say 601
▁had 602
▁support 603
▁shogunate 604
▁nothing 605
▁onin 606
▁war 607
74 608
tsu 609
chi 610
mi 611
kado 612
▁install 613
▁chief 614
47 615
though 616
▁live 617
▁lot 618
▁effort 619
▁into 620
▁its 621
▁restoration 622
▁subsidiar 623
ju 624
▁founder 625
▁close 626
▁loved 627
▁people 628
on 629
88 630
▁reported 631
b 632
▁don 633
▁die 634
▁commonly 635
uji 636
▁locat 637
▁taki 638
▁area 639
tanabe 640
▁ruin 641
▁myo 642
▁restored 643
56 644
▁grave 645
▁ji 646
▁manag 647
▁imperial 648
▁household 649
▁agency 650
▁tomb 651
▁lineage 652
▁open 653
▁public 654
▁free 655
hi 656
bi 657
ted 658
c 659
cent 660
ic 661
ities 662
▁following 663
▁anecdotes 664
▁passed 665
▁th 666
rew 667
▁valuable 668
▁texts 669
▁fire 670
▁beside 671
mo 672
x 673
al 674
ity 675
▁things 676
▁forbidden 677
▁buddhism 678
▁drinking 679
▁liquor 680
▁eating 681
▁meat 682
▁ca 683
vo 684
ting 685
▁women 686
▁mistress 687
▁students 688
▁shout 689
ei 690
▁ki 691
▁walk 692
▁town 693
▁peculiar 694
▁attire 695
▁wooden 696
▁sword 697
▁red 698
▁lacquer 699
▁she 700
▁day 701
▁rennyo 702
▁hongan 703
▁friend 704
▁out 705
▁room 706
▁na 707
p 708
▁amitabha 709
upon 710
▁home 711
▁see 712
▁what 713
▁you 714
▁doing 715
▁my 716
▁tools 717
▁trade 718
▁? 719
▁new 720
▁year 721
tuck 722
▁top 723
▁ye 724
ware 725
▁kind 726
▁action 727
▁seem 728
▁strange 729
▁has 730
▁something 731
▁common 732
▁priests 733
▁fu 734
ke 735
▁teaching 736
▁expression 737
▁spirit 738
▁way 739
▁criticiz 740
▁sat 741
iri 742
ze 743
▁decline 744
▁grow 745
▁author 746
ita 747
ian 748
tra 749
▁raise 750
arm 751
▁wearing 752
▁down 753
▁o 754
ification 755
tood 756
▁7 757
▁tsu 758
▁star 759
k 760
▁human 761
▁concern 762
▁rules 763
▁formal 764
▁gain 765
▁sympath 766
▁mass 767
es 768
▁basis 769
▁skill 770
▁calligrapher 771
▁ju 772
▁murata 773
▁writings 774
▁prize 775
▁highly 776
▁practitioner 777
▁tea 778
▁ceremony 779
▁recent 780
▁research 781
▁cast 782
▁doubt 783
▁tales 784
▁being 785
▁continu 786
let 787
▁higashiyama 788
▁yoshimasa 789
▁ashikaga 790
▁wife 791
▁tomi 792
▁hino 793
▁decorative 794
▁pine 795
▁trees 796
▁mi 797
est 798
one 799
▁journey 800
▁toward 801
▁both 802
▁happy 803
ha 804
pp 805
▁mis 806
v 807
▁come 808
▁lead 809
▁aki 810
kaze 811
▁ichi 812
ya 813
▁hyaku 814
sen 815
▁together 816
▁autumn 817
▁b 818
▁worth 819
▁hundred 820
▁thousand 821
▁cherry 822
▁tree 823
▁men 824
▁cypress 825
▁fish 826
▁sea 827
am 828
▁kimono 829
▁map 830
f 831
▁pattern 832
▁miyoshi 833
▁yoshino 834
▁district 835
▁nara 836
▁woman 837
▁storehouse 838
▁bear 839
▁bo 840
ma 841
like 842
mission 843
▁error 844
▁trouble 845
▁times 846
▁haku 847
gen 848
▁ichikawa 849
▁nhk 850
▁publishing 851
▁december 852
▁1970 853
▁books 854
32 855
▁yanagi 856
da 857
▁jin 858
▁1980 859
nd 860
▁edition 861
mu 862
▁mizu 863
kami 864
▁chuo 865
ron 866
▁may 867
▁1997 868
▁break 869
▁ma 870
ness 871
▁kuri 872
ta 873
den 874
▁november 875
▁2005 876
43 877
61 878
25 879
67 880
▁comic 881
kkan 882
be 883
▁hi 884
sashi 885
▁saka 886
guchi 887
▁1975 888
▁28 889
▁1982 890
▁produc 891
▁moving 892
▁now 893
▁animation 894
▁broadcast 895
▁japan 896
▁education 897
▁television 898
▁asahi 899
. 900
va 901
▁sold 902
▁2001 903
ph 904
ip 905
▁novels 906
▁detect 907
ive 908
ichiro 909
▁kujira 910
▁solv 911
▁ri 912
▁road 913
▁dark 914
matsu 915
▁moon 916
▁dramas 917
▁1994 918
▁play 919
▁oku 920
▁variety 921
▁shows 922
▁su 923
pen 924
▁theater 925
▁2008 926
▁cha 927
▁kato 928
▁biography 929
▁recall 930
w 931
it 932
▁little 933
▁made 934
▁youth 935
▁aspect 936
▁especially 937
▁emphasiz 938
▁aim 939
▁children 940
▁feature 941
▁getting 942
▁over 943
▁yoshimitsu 944
▁remark 945
▁account 946
▁state 947
▁names 948
▁temples 949
▁these 950
▁genroku 951
▁era 952
▁200 953
▁deeds 954
▁folk 955
▁substitute 956
▁accurate 957
▁book 958
▁im 959
bu 960
▁desire 961
loved 962
▁adapt 963
ation 964
▁roku 965
▁before 966
▁ever 967
▁going 968
▁class 969
▁amida 970
▁triad 971
▁place 972
▁image 973
▁consist 974
nyorai 975
▁center 976
▁two 977
▁attendants 978
▁kannon 979
satsu 980
oki 981
te 982
▁bodhisattva 983
▁left 984
▁seishi 985
ap 986
▁right 987
▁case 988
▁direction 989
▁seen 990
em 991
ment 992
▁merc 993
▁wisdom 994
▁crown 995
▁display 996
▁ke 997
tu 998
▁sui 999
hei 1000
▁water 1001
▁bottle 1002
▁tell 1003
ase 1004
▁relatively 1005
▁seated 1006
▁knee 1007
▁sides 1008
▁form 1009
▁means 1010
▁invit 1011
▁dead 1012
▁spirits 1013
▁heaven 1014
▁usually 1015
▁ren 1016
dai 1017
▁lotus 1018
flow 1019
shaped 1020
▁pedestal 1021
▁carry 1022
▁exist 1023
▁another 1024
▁formation 1025
▁5 1026
▁statues 1027
▁jizo 1028
▁k 1029
ga 1030
jyu 1031
na 1032
▁major 1033
▁kon 1034
do 1035
yu 1036
son 1037
▁iwate 1038
▁three 1039
▁heian 1040
▁seiryo 1041
▁ninna 1042
▁san 1043
zen 1044
▁jodo 1045
▁ono 1046
▁hyogo 1047
▁kamakura 1048
▁plac 1049
▁horyu 1050
▁lady 1051
▁tachibana 1052
▁reference 1053
▁shinran 1054
▁early 1055
▁recogniz 1056
▁shinshu 1057
▁1876 1058
▁kenshin 1059
▁daishi 1060
▁meiji 1061
▁met 1062
▁honen 1063
▁disciple 1064
▁inherit 1065
▁discipline 1066
▁true 1067
▁religion 1068
▁making 1069
▁all 1070
▁enhanc 1071
▁does 1072
n 1073
▁intended 1074
▁establish 1075
▁own 1076
▁possess 1077
▁construct 1078
▁meeting 1079
▁places 1080
▁nenbutsu 1081
▁dojo 1082
▁various 1083
▁provinces 1084
▁spread 1085
▁group 1086
su 1087
▁establishment 1088
▁sects 1089
▁clear 1090
▁followers 1091
▁established 1092
▁founded 1093
▁12 1094
▁finish 1095
jitsu 1096
gyo 1097
rui 1098
▁shinsho 1099
▁officially 1100
▁seven 1101
▁patriarch 1102
▁select 1103
▁doctrine 1104
▁shomyo 1105
▁indian 1106
▁naga 1107
ba 1108
▁ninth 1109
▁chapter 1110
hon 1111
▁easy 1112
▁practice 1113
▁juni 1114
rai 1115
▁twelve 1116
tan 1117
za 1118
ban 1119
hu 1120
▁muryoju 1121
kyo 1122
▁u 1123
▁gan 1124
co 1125
▁pure 1126
▁land 1127
▁tan 1128
chu 1129
▁commentary 1130
▁butsu 1131
▁ge 1132
▁h 1133
m 1134
▁ta 1135
cho 1136
raku 1137
▁treatise 1138
▁peace 1139
▁jo 1140
▁gen 1141
shin 1142
▁ojo 1143
▁re 1144
birth 1145
▁nin 1146
jaku 1147
▁vow 1148
▁single 1149
▁shotoku 1150
▁rever 1151
▁wakoku 1152
▁worship 1153
car 1154
▁bosatsu 1155
▁seventeen 1156
art 1157
cle 1158
▁constitution 1159
▁set 1160
▁preach 1161
ak 1162
ni 1163
▁generic 1164
ally 1165
▁bus 1166
ryo 1167
▁dai 1168
▁significant 1169
▁sutra 1170
ient 1171
▁will 1172
▁faith 1173
▁shoin 1174
▁meaning 1175
▁belief 1176
▁recit 1177
▁express 1178
▁feeling 1179
▁gratitude 1180
▁mentioned 1181
▁context 1182
▁every 1183
▁happen 1184
▁due 1185
▁viewpoint 1186
tari 1187
▁salv 1188
▁benevolen 1189
ce 1190
▁creature 1191
ate 1192
ppo 1193
▁necessari 1194
▁den 1195
hose 1196
▁try 1197
▁attain 1198
▁thems 1199
elves 1200
▁choose 1201
▁power 1202
butsu 1203
▁idea 1204
kuni 1205
▁shoki 1206
▁unique 1207
▁think 1208
▁organized 1209
lways 1210
▁evil 1211
▁never 1212
▁pa 1213
ical 1214
▁ra 1215
▁than 1216
▁good 1217
▁still 1218
▁believe 1219
▁could 1220
▁extension 1221
self 1222
at 1223
▁mahayana 1224
▁goes 1225
▁beyond 1226
ct 1227
▁differences 1228
▁between 1229
▁ages 1230
▁below 1231
▁east 1232
▁asian 1233
▁rec 1234
▁dates 1235
▁lunar 1236
▁calendar 1237
▁show 1238
▁able 1239
▁identify 1240
▁mother 1241
kko 1242
▁nyo 1243
▁hachiman 1244
taro 1245
▁yoshiie 1246
= 1247
▁minamoto 1248
▁seiwa 1249
▁genji 1250
▁clan 1251
▁1181 1252
▁9 1253
uc 1254
▁priesthood 1255
▁abbot 1256
▁tendai 1257
zasu 1258
▁monastery 1259
▁shoren 1260
▁han 1261
▁serv 1262
▁20 1263
▁mt 1264
▁hiei 1265
▁realiz 1266
▁limit 1267
▁self 1268
power 1269
▁spring 1270
01 1271
▁29 1272
▁purpose 1273
▁praying 1274
▁coming 1275
▁generations 1276
ho 1277
▁nakagyo 1278
▁seclud 1279
▁100 1280
▁days 1281
▁serve 1282
▁earnest 1283
▁your 1284
▁follow 1285
▁prop 1286
tic 1287
▁dream 1288
▁dawn 1289
▁broke 1290
▁visit 1291
mizu 1292
▁maruyama 1293
69 1294
▁thatched 1295
▁hut 1296
▁okazaki 1297
ten 1298
▁sakyo 1299
▁listen 1300
▁decided 1301
▁become 1302
▁exclusive 1303
▁shak 1304
▁hard 1305
▁gradually 1306
▁earn 1307
▁respect 1308
▁april 1309
05 1310
▁becom 1311
▁permitted 1312
▁make 1313
▁copy 1314
▁privilege 1315
▁reserve 1316
▁few 1317
▁ask 1318
▁change 1319
▁got 1320
▁married 1321
▁tama 1322
▁daughter 1323
▁kanezane 1324
▁kujo 1325
▁allow 1326
▁exil 1327
▁criminal 1328
▁marry 1329
▁interpretation 1330
▁marriage 1331
▁generally 1332
▁speak 1333
▁description 1334
▁events 1335
▁god 1336
▁kaku 1337
▁hand 1338
written 1339
▁copies 1340
▁oracle 1341
▁rokkaku 1342
26 1343
▁west 1344
▁version 1345
▁february 1346
07 1347
▁protest 1348
▁kofuku 1349
▁suppress 1350
▁jun 1351
sai 1352
▁executed 1353
▁8 1354
▁banish 1355
▁incident 1356
▁hon 1357
▁depriv 1358
▁their 1359
▁non 1360
▁moto 1361
hiko 1362
▁fuji 1363
zane 1364
▁tosa 1365
▁kochi 1366
▁echigo 1367
▁kokufu 1368
▁niigata 1369
▁warrior 1370
▁tame 1371
nori 1372
▁baby 1373
▁exile 1374
11 1375
▁court 1376
▁issued 1377
▁pardon 1378
▁25 1379
12 1380
▁80 1381
▁again 1382
▁partly 1383
▁settl 1384
▁hitachi 1385
▁teachings 1386
▁vigorous 1387
▁missionar 1388
▁kanto 1389
▁region 1390
▁last 1391
pent 1392
▁rough 1393
▁draft 1394
▁main 1395
ada 1396
▁accompany 1397
▁her 1398
▁24 1399
▁twenty 1400
four 1401
▁shimotsuke 1402
▁surviv 1403
34 1404
▁declar 1405
▁ban 1406
62 1407
63 1408
gan 1409
▁devote 1410
▁here 1411
ies 1412
ter 1413
pre 1414
t 1415
rose 1416
75 1417
▁completed 1418
▁revis 1419
▁supplement 1420
50 1421
▁yui 1422
▁mon 1423
▁preserv 1424
▁mori 1425
oka 1426
sei 1427
51 1428
▁letter 1429
if 1430
▁dispute 1431
mune 1432
52 1433
53 1434
ran 1435
▁grandson 1436
▁devoted 1437
▁wrong 1438
▁senju 1439
▁proper 1440
▁caus 1441
▁turmoil 1442
kept 1443
ami 1444
▁mutsu 1445
▁large 1446
▁younge 1447
▁care 1448
▁hometown 1449
▁returned 1450
▁relatives 1451
▁lands 1452
▁nyu 1453
▁ni 1454
▁gates 1455
▁entrance 1456
▁exit 1457
▁fukui 1458
▁would 1459
own 1460
▁dat 1461
▁second 1462
▁nyorai 1463
57 1464
▁notes 1465
▁dainihon 1466
▁zoku 1467
▁taishi 1468
▁longer 1469
▁mei 1470
▁shozo 1471
▁sanjo 1472
▁letters 1473
▁mat 1474
kaku 1475
▁gosho 1476
soku 1477
▁explanation 1478
po 1479
▁oshi 1480
koji 1481
▁minami 1482
▁madenokoji 1483
▁side 1484
▁kadono 1485
▁annex 1486
▁shimogyo 1487
▁ward 1488
▁body 1489
▁brother 1490
▁others 1491
shes 1492
▁inter 1493
▁otani 1494
▁north 1495
▁tori 1496
▁since 1497
▁status 1498
▁nei 1499
▁lay 1500
man 1501
▁ritual 1502
▁annual 1503
take 1504
nyo 1505
▁cremat 1506
▁held 1507
nin 1508
▁south 1509
byo 1510
▁nishi 1511
▁ima 1512
kuma 1513
▁21 1514
▁kosho 1515
▁belonging 1516
▁part 1517
▁carri 1518
▁enshrined 1519
▁post 1520
▁enryaku 1521
▁oppos 1522
▁taken 1523
▁destroy 1524
▁con 1525
gre 1526
▁saito 1527
▁kan 1528
▁abbreviation 1529
▁title 1530
▁poem 1531
▁volume 1532
▁gyo 1533
▁120 1534
▁lines 1535
▁each 1536
▁line 1537
▁short 1538
▁abbreviat 1539
toku 1540
▁periods 1541
ogi 1542
▁inscrib 1543
▁scrolls 1544
▁holy 1545
▁comment 1546
▁relat 1547
▁lament 1548
▁diver 1549
▁kura 1550
▁shiro 1551
▁michi 1552
▁white 1553
▁movie 1554
▁shochiku 1555
▁corporation 1556
▁1987 1557
▁director 1558
▁hashi 1559
▁ha 1560
▁shonin 1561
▁bridge 1562
▁legend 1563
▁st 1564
min 1565
▁honzon 1566
▁funa 1567
yumi 1568
▁sw 1569
or 1570
▁father 1571
uma 1572
▁toki 1573
▁uncle 1574
▁kangaku 1575
▁genko 1576
▁eizan 1577
mp 1578
▁ajari 1579
▁ordain 1580
▁11 1581
▁18 1582
▁old 1583
ryu 1584
▁sakamoto 1585
▁otsu 1586
▁used 1587
▁kanji 1588
▁truth 1589
▁kanmu 1590
▁meditat 1591
▁beginning 1592
▁words 1593
▁found 1594
▁continue 1595
ever 1596
ve 1597
▁regardles 1598
▁length 1599
▁wish 1600
▁matter 1601
▁how 1602
▁namu 1603
▁nen 1604
▁selection 1605
▁sencha 1606
▁passage 1607
▁original 1608
▁sacred 1609
▁compilation 1610
▁dog 1611
▁propagat 1612
▁settsu 1613
▁back 1614
reki 1615
▁next 1616
▁elder 1617
▁succeed 1618
▁sub 1619
tle 1620
▁shoku 1621
▁ben 1622
27 1623
▁damaged 1624
▁heavily 1625
▁separation 1626
roku 1627
▁per 1628
cut 1629
▁suspect 1630
▁robber 1631
▁treasure 1632
▁hossho 1633
▁stole 1634
▁attacked 1635
▁banned 1636
▁mausoleum 1637
▁iki 1638
▁accepted 1639
▁uzumasa 1640
yama 1641
▁shi 1642
▁four 1643
▁chinzei 1644
▁middle 1645
▁oppress 1646
▁stop 1647
▁welcom 1648
▁hojo 1649
▁base 1650
gaya 1651
▁more 1652
over 1653
▁ryo 1654
▁influence 1655
▁komyo 1656
▁nanboku 1657
▁fujita 1658
gei 1659
▁shoso 1660
hata 1661
com 1662
▁insist 1663
▁five 1664
fold 1665
▁succession 1666
▁genealogy 1667
▁integrat 1668
▁organization 1669
▁zo 1670
tei 1671
▁chika 1672
tada 1673
▁matsudaira 1674
▁foundation 1675
▁ieyasu 1676
▁tokugawa 1677
▁descendant 1678
▁protect 1679
▁chion 1680
▁government 1681
▁hat 1682
▁independently 1683
▁domain 1684
▁system 1685
▁hai 1686
shaku 1687
▁tetsu 1688
gai 1689
▁fuku 1690
ck 1691
▁modernization 1692
▁unifi 1693
▁led 1694
▁prototype 1695
▁responsibl 1696
▁nai 1697
kyoku 1698
▁separated 1699
▁fukakusa 1700
▁sha 1701
▁reform 1702
▁movement 1703
▁characteristics 1704
▁note 1705
▁third 1706
me 1707
able 1708
mai 1709
▁document 1710
▁reply 1711
▁official 1712
▁song 1713
▁village 1714
▁light 1715
▁reach 1716
▁mind 1717
▁originat 1718
gatsu 1719
▁sites 1720
▁head 1721
▁nagaoka 1722
▁kyogoku 1723
▁w 1724
j 1725
kuro 1726
dani 1727
▁park 1728
16 1729
wa 1730
~ 1731
ben 1732
00 1733
04 1734
03 1735
▁fukuoka 1736
5 1737
ne 1738
▁nagano 1739
▁nagoya 1740
▁shojo 1741
6 1742
▁bu 1743
kkyo 1744
▁university 1745
▁tokai 1746
▁gaku 1747
▁junior 1748
& 1749
▁senior 1750
▁shiba 1751
▁former 1752
▁sister 1753
▁ue 1754
nomiya 1755
▁osaka 1756
▁kumamoto 1757
▁kyu 1758
▁shingon 1759
▁kukai 1760
▁kobo 1761
▁da 1762
▁mandala 1763
mitsu 1764
▁mikkyo 1765
▁esoteric 1766
▁kei 1767
▁qing 1768
ong 1769
▁chan 1770
▁mean 1771
whil 1772
▁saicho 1773
▁command 1774
▁simultaneously 1775
▁final 1776
▁superior 1777
▁included 1778
▁founding 1779
▁koyasan 1780
▁kongo 1781
23 1782
▁fundamental 1783
▁deep 1784
▁charge 1785
▁worked 1786
ction 1787
▁schools 1788
年分度者 1789
refore 1790
▁tend 1791
▁independent 1792
temple 1793
▁control 1794
▁defeat 1795
▁conflict 1796
▁lost 1797
▁abandon 1798
▁provincial 1799
▁officers 1800
▁reasons 1801
▁situation 1802
▁mid 1803
heian 1804
▁recover 1805
▁fujiwara 1806
▁michinaga 1807
▁climb 1808
▁pilgrimage 1809
▁shrine 1810
▁mountain 1811
▁sekkan 1812
▁families 1813
▁regents 1814
▁nobles 1815
▁subsequently 1816
▁financial 1817
ability 1818
▁economic 1819
sistance 1820
▁regent 1821
▁split 1822
▁valu 1823
▁shishi 1824
▁difference 1825
事 1826
相 1827
▁implement 1828
▁manner 1829
▁ascetic 1830
▁itself 1831
▁end 1832
▁eleven 1833
▁additionally 1834
vi 1835
▁promote 1836
▁resign 1837
▁retired 1838
▁negoro 1839
▁wakayama 1840
本 1841
寺 1842
方 1843
▁fight 1844
▁against 1845
▁inside 1846
院 1847
90 1848
▁relocat 1849
加持 1850
法 1851
身説 1852
▁dainichi 1853
▁ascend 1854
cy 1855
▁burned 1856
▁hideyoshi 1857
▁toyotomi 1858
▁1585 1859
▁consequent 1860
dera 1861
▁1601 1862
▁rebuil 1863
▁chi 1864
▁precincts 1865
▁neo 1866
▁shichijo 1867
▁northern 1868
▁southern 1869
▁courts 1870
▁kenpo 1871
fu 1872
gaku 1873
東 1874
不 1875
二 1876
門 1877
教学 1878
chika 1879
地加持説 1880
▁bakufu 1881
▁measure 1882
▁counter 1883
▁act 1884
▁daigo 1885
gata 1886
関東 1887
真 1888
言 1889
古 1890
義 1891
度 1892
▁effect 1893
▁result 1894
▁observation 1895
▁promot 1896
▁shintoism 1897
us 1898
▁suffer 1899
▁damage 1900
▁regard 1901
▁matters 1902
▁forced 1903
▁wealth 1904
▁confiscat 1905
▁involved 1906
▁abolished 1907
▁choku 1908
▁emperors 1909
▁pray 1910
▁monzeki 1911
▁prohibited 1912
▁experience 1913
▁management 1914
▁secular 1915
▁admir 1916
▁tenth 1917
▁ship 1918
toshi 1919
▁essential 1920
▁obtain 1921
▁scriptures 1922
▁altar 1923
▁pieces 1924
▁picture 1925
brought 1926
35 1927
21 1928
▁demise 1929
▁award 1930
▁hold 1931
▁eight 1932
▁forefather 1933
▁occurred 1934
▁india 1935
▁convey 1936
▁often 1937
▁drawn 1938
▁enshrine 1939
▁orthodox 1940
sa 1941
tta 1942
▁introduced 1943
▁remov 1944
▁figures 1945
▁added 1946
▁essence 1947
▁immediate 1948
▁pupil 1949
▁thus 1950
▁initiat 1951
▁western 1952
▁merchant 1953
▁translat 1954
▁opened 1955
▁kanjo 1956
▁makes 1957
▁symbol 1958
▁gesture 1959
▁finger 1960
▁up 1961
▁astronomy 1962
▁mathematics 1963
▁dictat 1964
▁cloth 1965
▁clerical 1966
▁vajra 1967
pro 1968
ng 1969
▁pe 1970
▁ro 1971
ary 1972
▁mitsu 1973
gon 1974
▁entit 1975
▁univers 1976
▁absolute 1977
▁academic 1978
▁paper 1979
▁shaku 1980
▁important 1981
▁learning 1982
▁word 1983
修 1984
▁manners 1985
行 1986
▁rite 1987
観 1988
▁sign 1989
印契 1990
▁theory 1991
▁understanding 1992
▁any 1993
▁simply 1994
less 1995
▁activity 1996
▁explain 1997
▁import 1998
ance 1999
▁compar 2000
▁wheel 2001
▁car 2002
▁we 2003
▁should 2004
▁learn 2005
密 2006
▁popular 2007
▁yakushi 2008
▁hiro 2009
sawa 2010
▁six 2011
▁ya 2012
taku 2013
▁konpon 2014
▁basic 2015
▁ultimate 2016
▁36 2017
▁exceed 2018
▁deriv 2019
▁definition 2020
▁nakano 2021
▁distinguished 2022
▁rites 2023
公 2024
請 2025
の 2026
shichi 2027
nichi 2028
▁prayer 2029
東密 2030
▁characteriz 2031
▁value 2032
▁gi 2033
儀軌 2034
▁lies 2035
ike 2036
▁pond 2037
▁saga 2038
▁ukyo 2039
▁broad 2040
▁sense 2041
▁divided 2042
▁narrow 2043
▁hoku 2044
▁hoju 2045
▁simplified 2046
▁kanpyo 2047
▁uda 2048
信 2049
証 2050
▁instruction 2051
▁yamashina 2052
▁site 2053
▁zui 2054
tsuji 2055
善通 2056
派 2057
大 2058
山 2059
随心 2060
▁formerly 2061
▁cases 2062
▁shobo 2063
▁originator 2064
元 2065
祖 2066
流祖 2067
▁sanpo 2068
▁kajuji 2069
han 2070
▁wide 2071
▁thirteenth 2072
▁reli 2073
▁event 2074
▁thing 2075
▁highest 2076
▁existence 2077
gun 2078
act 2079
▁organizations 2080
▁1939 2081
▁except 2082
▁risshu 2083
▁integrated 2084
Ⅱ 2085
▁50 2086
▁association 2087
▁june 2088
▁1958 2089
▁communicat 2090
▁cultivat 2091
▁mutual 2092
▁friendship 2093
▁cooperation 2094
十 2095
八 2096
▁office 2097
高 2098
野 2099
総 2100
派総 2101
醍醐派総 2102
▁omuro 2103
御 2104
室派総 2105
▁daikaku 2106
覚 2107
泉涌 2108
階派 2109
貴 2110
▁nakayama 2111
▁takarazuka 2112
中 2113
▁kiyo 2114
jin 2115
三 2116
宝 2117
▁suma 2118
須磨 2119
智 2120
豊 2121
新 2122
ai 2123
言律 2124
▁elect 2125
手 2126
替 2127
間観音供 2128
神 2129
供 2130
伴僧 2131
▁persons 2132
gu 2133
天 2134
yaku 2135
増益護摩供 2136
▁kami 2137
咒頭 2138
hari 2139
舎利守 2140
息災護摩供 2141
▁shoten 2142
聖 2143
五 2144
尊供 2145
随行 2146
▁shoji 2147
承仕 2148
▁betto 2149
別当 2150
▁大 2151
小 2152
▁yodo 2153
用度 2154
▁kyoku 2155
局 2156
長 2157
▁several 2158
▁interrupt 2159
▁civil 2160
▁reviv 2161
▁absence 2162
70 2163
▁1871 2164
▁decree 2165
▁petition 2166
▁1883 2167
▁palace 2168
time 2169
▁participant 2170
▁use 2171
▁tai 2172
▁alternate 2173
▁benefit 2174
明 2175
王 2176
開白 2177
▁messenger 2178
▁kara 2179
▁chest 2180
▁inner 2181
日 2182
▁term 2183
▁burn 2184
▁incense 2185
▁front 2186
▁successful 2187
成満 2188
▁suprem 2189
▁articles 2190
具 2191
▁previously 2192
▁service 2193
▁custom 2194
ari 2195
▁staff 2196
▁inauguration 2197
▁tsuru 2198
▁yokohama 2199
▁unlike 2200
▁achieve 2201
▁p 2202
is 2203
▁instead 2204
▁moku 2205
▁literal 2206
▁silent 2207
▁focus 2208
▁mediat 2209
▁soto 2210
▁dogen 2211
▁sung 2212
▁ten 2213
▁deni 2214
ism 2215
▁particular 2216
▁reject 2217
▁told 2218
▁co 2219
▁trigger 2220
▁join 2221
▁nihon 2222
▁daruma 2223
▁groups 2224
▁nirvana 2225
▁proclaim 2226
▁fourth 2227
kin 2228
▁subsequent 2229
seki 2230
▁military 2231
▁political 2232
▁cultural 2233
▁local 2234
▁ruling 2235
▁low 2236
▁warriors 2237
▁traditional 2238
▁shaka 2239
▁fully 2240
▁describe 2241
▁different 2242
不立 2243
文 2244
字 2245
▁chant 2246
▁slogan 2247
▁rights 2248
▁environment 2249
▁heart 2250
▁perfect 2251
▁hannya 2252
▁myoho 2253
▁kanze 2254
▁describ 2255
▁masters 2256
▁edit 2257
▁believer 2258
▁songs 2259
（ 2260
ご詠歌 2261
・ 2262
和 2263
讃 2264
） 2265
▁bai 2266
▁mago 2267
koro 2268
iki 2269
ru 2270
▁lyric 2271
▁music 2272
▁turn 2273
▁superintendent 2274
▁approximate 2275
,000 2276
務総 2277
▁division 2278
▁manager 2279
部 2280
内局 2281
▁cabinet 2282
▁members 2283
▁assembly 2284
議会議員 2285
72 2286
▁seats 2287
▁member 2288
▁areas 2289
id 2290
▁koma 2291
zawa 2292
▁tohoku 2293
▁appoint 2294
▁president 2295
▁taiho 2296
44 2297
shige 2298
▁hata 2299
▁echizen 2300
▁minato 2301
▁daikan 2302
▁kagoshima 2303
▁matsu 2304
bara 2305
▁air 2306
umi 2307
michi 2308
machi 2309
▁wa 2310
jima 2311
▁ishikawa 2312
▁risshi 2313
▁1898 2314
▁location 2315
▁1911 2316
總持 2317
▁reconstruct 2318
▁1905 2319
▁hogen 2320
shiro 2321
mae 2322
▁hokkaido 2323
▁1884 2324
▁independence 2325
▁1951 2326
▁mixture 2327
▁guardian 2328
▁deity 2329
fa 2330
▁pu 2331
▁relationship 2332
ative 2333
▁above 2334
▁kanazawa 2335
▁1886 2336
▁compassion 2337
▁relief 2338
▁extreme 2339
自力他力 2340
▁dedicat 2341
half 2342
▁social 2343
▁welfare 2344
spread 2345
▁declined 2346
▁rapidly 2347
▁1908 2348
▁lack 2349
▁successor 2350
▁takada 2351
▁taisho 2352
▁activities 2353
▁daisho 2354
▁1923 2355
▁retained 2356
▁yasu 2357
tani 2358
▁1954 2359
▁kanagawa 2360
▁withdraw 2361
▁abroad 2362
अवलोकितेश्वर 2363
ś 2364
▁sanskrit 2365
一 2366
尊 2367
尊格 2368
▁faithful 2369
▁ancient 2370
▁particularly 2371
zai 2372
▁ku 2373
sis 2374
▁universal 2375
+ 2376
▁lo 2377
kita 2378
īś 2379
ist 2380
▁translation 2381
▁adopted 2382
▁point 2383
▁goddess 2384
▁la 2385
▁mythology 2386
▁kuma 2387
▁accordingly 2388
▁renge 2389
妙 2390
蓮華 2391
経 2392
観世音菩薩普 2393
品第 2394
世 2395
▁taboo 2396
▁min 2397
▁contemplat 2398
▁fruit 2399
妙果 2400
▁se 2401
施 2402
無 2403
畏者 2404
▁fear 2405
救世 2406
士 2407
▁reliev 2408
▁widely 2409
▁appears 2410
▁attendant 2411
誓 2412
▁shaped 2413
▁asuka 2414
▁linked 2415
▁practical 2416
sui 2417
功 2418
徳 2419
水 2420
▁d 2421
▁lives 2422
▁po 2423
tara 2424
fuda 2425
補怛落迦 2426
摩頼矩咤 2427
国 2428
▁assumed 2429
▁female 2430
▁affection 2431
▁discuss 2432
▁sexual 2433
▁associat 2434
▁nan 2435
変成男 2436
子 2437
▁apparent 2438
▁changes 2439
▁appearance 2440
▁ways 2441
bility 2442
▁understand 2443
普 2444
示現 2445
▁33 2446
▁saigoku 2447
西 2448
箇所 2449
▁sanjusangen 2450
▁stem 2451
▁creation 2452
▁shichi 2453
▁shape 2454
ption 2455
▁portray 2456
▁super 2457
▁face 2458
▁hands 2459
▁achiev 2460
▁forms 2461
▁bi 2462
▁19 2463
▁jinshin 2464
▁22 2465
moku 2466
bashi 2467
▁31 2468
▁kin 2469
aku 2470
▁taisha 2471
▁choja 2472
▁23 2473
nan 2474
▁26 2475
▁32 2476
▁koji 2477
bai 2478
yoshi 2479
▁27 2480
▁30 2481
▁karu 2482
kongo 2483
ichi 2484
men 2485
面観音 2486
▁ba 2487
▁nyoirin 2488
saku 2489
▁1,000 2490
▁kodai 2491
bon 2492
▁fifteen 2493
▁yo 2494
▁ama 2495
▁ru 2496
zu 2497
▁renga 2498
zui 2499
仏 2500
像図彙 2501
83 2502
mei 2503
▁kori 2504
▁hama 2505
guri 2506
▁me 2507
▁toku 2508
oku 2509
▁gas 2510
▁iwa 2511
▁tochigi 2512
▁rin 2513
▁tachi 2514
千 2515
観音立像 2516
▁property 2517
▁oya 2518
▁stone 2519
▁images 2520
▁historic 2521
▁tera 2522
waki 2523
観音及両脇侍像 2524
una 2525
▁shiga 2526
▁ishiyama 2527
▁raku 2528
▁standing 2529
▁kiyomizu 2530
▁pen 2531
ia 2532
観音 2533
,0 2534
躯 2535
▁rokuhara 2536
▁kyotanabe 2537
▁kudara 2538
▁yume 2539
▁kume 2540
▁hokke 2541
▁muro 2542
▁shitenno 2543
▁ikaruga 2544
▁todai 2545
▁kondo 2546
▁properties 2547
▁fiction 2548
▁monkey 2549
▁king 2550
nt 2551
▁model 2552
▁f 2553
hen 2554
▁novel 2555
▁monju 2556
▁appear 2557
▁showing 2558
▁rich 2559
▁imagin 2560
▁obaku 2561
▁evolv 2562
▁modern 2563
▁man 2564
puku 2565
▁uji 2566
▁dynasties 2567
40 2568
▁position 2569
▁fourteen 2570
▁stage 2571
▁identified 2572
▁imp 2573
▁transmitt 2574
▁influenc 2575
▁characteristic 2576
▁background 2577
▁protection 2578
▁extended 2579
45 2580
▁recorded 2581
▁te 2582
▁printed 2583
▁continuous 2584
▁pronunciation 2585
called 2586
▁hina 2587
▁sole 2588
▁ara 2589
▁saint 2590
▁delivered 2591
▁earth 2592
▁bodi 2593
▁nichiren 2594
▁argu 2595
▁discussed 2596
ably 2597
量 2598
寿 2599
▁trace 2600
▁rice 2601
▁object 2602
nobu 2603
▁yamanashi 2604
▁teach 2605
久 2606
遠実成 2607
▁ne 2608
遠 2609
常 2610
住 2611
▁design 2612
▁separately 2613
▁struggl 2614
▁devil 2615
▁indicat 2616
▁example 2617
▁bronze 2618
type 2619
宝尊 2620
塔両尊 2621
▁pagoda 2622
▁enshrines 2623
▁baku 2624
▁goku 2625
▁sun 2626
▁wu 2627
haka 2628
sama 2629
▁network 2630
▁inc 2631
aki 2632
▁sakai 2633
▁daibutsu 2634
▁asia 2635
▁carved 2636
▁rock 2637
▁shomu 2638
▁ritsuryo 2639
▁pursu 2640
▁pi 2641
ty 2642
○ 2643
▁standard 2644
▁program 2645
mori 2646
▁club 2647
▁2007 2648
▁sandai 2649
▁identi 2650
▁scholars 2651
▁controversy 2652
▁very 2653
▁flourished 2654
▁incorporat 2655
▁element 2656
▁soon 2657
▁diplomatic 2658
▁invad 2659
im 2660
▁magic 2661
▁disappear 2662
▁curse 2663
咒 2664
▁lit 2665
▁emerg 2666
ent 2667
▁serious 2668
毘盧遮那 2669
ā 2670
ca 2671
▁flourish 2672
▁late 2673
▁principle 2674
▁nature 2675
身普賢 2676
▁gon 2677
金 2678
剛総持 2679
最勝 2680
初 2681
▁development 2682
▁bring 2683
ana 2684
▁lower 2685
▁best 2686
▁efficien 2687
▁response 2688
▁criticism 2689
▁content 2690
▁invasion 2691
▁destruction 2692
▁precept 2693
▁fragment 2694
▁adher 2695
▁mixed 2696
唐密 2697
西蔵密 2698
▁enchin 2699
▁invocation 2700
land 2701
▁exchange 2702
▁shangh 2703
▁minor 2704
▁autonomous 2705
▁taoism 2706
▁rival 2707
▁favor 2708
▁confucianism 2709
pa 2710
▁mongol 2711
▁opposition 2712
▁moral 2713
the 2714
che 2715
▁remains 2716
▁studies 2717
▁referr 2718
密儀 2719
教 2720
▁full 2721
▁bloom 2722
▁space 2723
量寿 2724
光 2725
▁forth 2726
▁stepp 2727
▁practic 2728
▁living 2729
ara 2730
kara 2731
▁find 2732
▁eighteen 2733
▁hongwan 2734
願 2735
▁grain 2736
▁sand 2737
▁river 2738
▁depend 2739
▁phrase 2740
ish 2741
ence 2742
ible 2743
▁powers 2744
▁near 2745
▁further 2746
more 2747
▁pan 2748
ch 2749
▁rank 2750
▁lu 2751
▁soul 2752
▁hosho 2753
▁originate 2754
如来 2755
▁zu 2756
量寿如来 2757
ti 2758
▁favorite 2759
▁parallel 2760
▁looked 2761
▁transferr 2762
▁tei 2763
zei 2764
垂迹 2765
▁kumano 2766
▁gongen 2767
▁examples 2768
▁hira 2769
iwa 2770
▁kotoku 2771
▁byodo 2772
▁audit 2773
ori 2774
um 2775
▁gokuraku 2776
▁principal 2777
▁qi 2778
xi 2779
▁joruri 2780
▁kizugawa 2781
tai 2782
▁nine 2783
▁ikoma 2784
zushi 2785
▁miroku 2786
▁maitreya 2787
azana 2788
勝等 2789
▁v 2790
▁future 2791
▁tower 2792
wise 2793
▁promis 2794
tama 2795
▁million 2796
上 2797
生 2798
仰 2799
▁korea 2800
▁assert 2801
▁certain 2802
▁precise 2803
▁claim 2804
▁distant 2805
.6 2806
▁bill 2807
.4 2808
.2 2809
taking 2810
▁advance 2811
▁trial 2812
▁less 2813
▁40 2814
▁cm 2815
▁look 2816
▁heavy 2817
下 2818
cha 2819
ology 2820
▁hope 2821
▁sa 2822
▁accord 2823
▁utiliz 2824
side 2825
▁anti 2826
乗 2827
乱 2828
▁wei 2829
▁yuan 2830
▁expected 2831
▁agricultural 2832
▁peaceful 2833
▁harvest 2834
▁eastern 2835
▁along 2836
▁coast 2837
▁pacific 2838
▁ocean 2839
▁odori 2840
▁dance 2841
弥勒踊 2842
り 2843
▁train 2844
▁jiki 2845
▁peasant 2846
▁revolt 2847
▁strongly 2848
観弥勒菩薩 2849
兜率 2850
弥勒 2851
成 2852
▁concept 2853
▁past 2854
▁vi 2855
▁300 2856
▁daijo 2857
弁分別論 2858
現観荘厳論 2859
性弁別論 2860
▁much 2861
堅慧 2862
ミスラ 2863
▁gods 2864
アーディティヤ 2865
群 2866
▁contract 2867
ry 2868
▁civilization 2869
class 2870
▁gree 2871
ミトラース 2872
▁kusa 2873
akira 2874
▁sada 2875
▁assume 2876
θ 2877
▁meant 2878
▁intimate 2879
▁am 2880
ful 2881
▁milk 2882
▁okinawa 2883
ｒ 2884
▁wear 2885
▁mask 2886
半跏思惟像 2887
▁foot 2888
▁soft 2889
▁che 2890
▁gold 2891
and 2892
▁oldest 2893
▁inscription 2894
gasa 2895
▁services 2896
▁sometime 2897
▁stance 2898
▁nominal 2899
▁terms 2900
▁need 2901
▁reading 2902
▁pronounc 2903
▁nam 2904
masu 2905
▁already 2906
▁affect 2907
▁fact 2908
▁details 2909
唱題 2910
し 2911
ょうだ 2912
い 2913
▁call 2914
唱題行 2915
正 2916
ょうぎょう 2917
▁kinds 2918
▁types 2919
▁waterfall 2920
▁fast 2921
▁keep 2922
助行 2923
じょぎょう 2924
▁auxiliar 2925
▁measures 2926
kkai 2927
▁hiki 2928
▁sound 2929
▁extend 2930
kken 2931
▁hoshu 2932
▁nichi 2933
登座 2934
▁process 2935
▁ceremonies 2936
▁require 2937
▁type 2938
▁fictional 2939
▁contrar 2940
fi 2941
▁direct 2942
vity 2943
▁subject 2944
▁might 2945
▁leas 2946
numera 2947
tion 2948
▁clearly 2949
▁implie 2950
▁condition 2951
▁collective 2952
pu 2953
▁flower 2954
▁exclud 2955
華 2956
因果倶時 2957
▁chapters 2958
▁gate 2959
▁honmon 2960
▁sky 2961
▁parts 2962
▁fun 2963
▁states 2964
▁nijo 2965
乗作 2966
▁pass 2967
▁inevitabl 2968
▁semi 2969
▁mono 2970
istic 2971
▁christianity 2972
▁awa 2973
論 2974
▁individual 2975
▁once 2976
gin 2977
▁despi 2978
ial 2979
▁corrupt 2980
▁eternal 2981
▁guide 2982
▁log 2983
▁definite 2984
▁hear 2985
念 2986
解 2987
初随喜 2988
▁subjects 2989
▁range 2990
▁setting 2991
up 2992
末 2993
弘教 2994
付嘱 2995
▁force 2996
▁etc 2997
▁yaku 2998
jutsu 2999
▁myoo 3000
▁par 3001
▁adopt 3002
▁easily 3003
▁burning 3004
▁house 3005
▁poor 3006
▁m 3007
▁ja 3008
cket 3009
▁brilliant 3010
▁excellent 3011
▁physician 3012
▁estimat 3013
▁150 3014
▁suggest 3015
▁faced 3016
▁guess 3017
ura 3018
▁omi 3019
印 3020
添品 3021
ig 3022
ut 3023
▁manchuria 3024
▁korean 3025
▁extensive 3026
▁koku 3027
▁piece 3028
▁plate 3029
▁shosoin 3030
▁lecture 3031
▁okamoto 3032
▁please 3033
▁hectares 3034
▁fields 3035
▁harima 3036
▁paid 3037
▁vol 3038
▁empress 3039
▁suiko 3040
▁gisho 3041
▁fat 3042
▁standpoint 3043
▁guard 3044
▁nation 3045
▁cancel 3046
▁crime 3047
華滅罪 3048
之 3049
ほっけめつざ 3050
て 3051
ら 3052
▁nun 3053
ery 3054
只管打坐 3055
et 3056
▁evidence 3057
▁dy 3058
▁radical 3059
▁writer 3060
ers 3061
▁miya 3062
▁poet 3063
gyu 3064
▁takayama 3065
▁ikki 3066
▁kita 3067
▁ishi 3068
wara 3069
ant 3070
ung 3071
▁army 3072
known 3073
▁ii 3074
▁1945 3075
▁occupation 3076
▁ph 3077
▁results 3078
by 3079
▁centuries 3080
▁countries 3081
▁devotion 3082
▁exercise 3083
▁roughly 3084
ac 3085
ious 3086
憶念 3087
修定 3088
▁stopp 3089
conscious 3090
隨念 3091
▁concentrat 3092
▁specific 3093
見 3094
身 3095
色身 3096
▁j 3097
▁sama 3098
禅定 3099
昧 3100
▁emergenc 3101
▁virtue 3102
▁perform 3103
▁stream 3104
観相念 3105
禅観念 3106
▁mainstream 3107
▁hosso 3108
▁aristocrat 3109
▁architecture 3110
▁recommend 3111
専修念 3112
▁architect 3113
▁arts 3114
▁necessar 3115
▁contribut 3116
▁prevalen 3117
▁yuzu 3118
▁dancing 3119
▁beat 3120
▁drum 3121
▁ring 3122
▁bell 3123
▁ippen 3124
mono 3125
▁shinano 3126
▁saku 3127
▁ikko 3128
▁izumo 3129
▁greater 3130
▁vehicle 3131
▁eventual 3132
38 3133
59 3134
7 3135
▁views 3136
▁substantial 3137
▁daini 3138
▁modifi 3139
▁attached 3140
▁hara 3141
▁absorbed 3142
kashi 3143
▁deem 3144
80 3145
13 3146
▁sake 3147
3 3148
dom 3149
▁confus 3150
▁advocat 3151
▁initially 3152
▁ritsu 3153
▁nanto 3154
ture 3155
▁ichijo 3156
▁debate 3157
▁conducted 3158
▁sanction 3159
▁kaidan 3160
▁substance 3161
▁worri 3162
fect 3163
▁intention 3164
izing 3165
▁whole 3166
▁current 3167
▁summariz 3168
▁morning 3169
▁evening 3170
▁rei 3171
▁step 3172
▁philosophy 3173
we 3174
ci 3175
▁spite 3176
▁target 3177
▁summary 3178
wake 3179
菩提薩埵 3180
菩提 3181
薩埵 3182
hara 3183
菩薩摩訶薩 3184
▁segment 3185
▁structure 3186
▁theories 3187
▁ranks 3188
▁get 3189
▁ippon 3190
▁fifty 3191
first 3192
▁equal 3193
略万 3194
円満 3195
▁forty 3196
▁fine 3197
per 3198
most 3199
▁g 3200
low 3201
▁illuminat 3202
▁upper 3203
地 3204
▁putt 3205
giving 3206
▁holding 3207
▁burden 3208
▁transfer 3209
▁thirty 3210
廻施 3211
▁done 3212
果 3213
▁behavior 3214
▁complete 3215
▁certification 3216
印可 3217
▁dwelling 3218
▁twentieth 3219
▁law 3220
tro 3221
▁tathagata 3222
▁cultivation 3223
▁mental 3224
▁objective 3225
▁concentration 3226
▁outer 3227
▁positions 3228
凡 3229
因 3230
position 3231
▁practices 3232
▁previous 3233
▁working 3234
▁restriction 3235
▁function 3236
▁honorific 3237
▁titles 3238
▁attention 3239
補処 3240
▁opinion 3241
▁pretend 3242
▁editor 3243
仮託説 3244
▁syncretiz 3245
▁shinto 3246
▁escape 3247
菩薩号 3248
▁gyoki 3249
▁article 3250
▁ill 3251
▁funeral 3252
▁ikeda 3253
▁totomi 3254
▁participat 3255
▁collect 3256
▁rusu 3257
shiki 3258
▁descendants 3259
▁inheritance 3260
血脈 3261
▁blood 3262
line 3263
▁kameyama 3264
▁reign 3265
▁jitsu 3266
ight 3267
▁mouth 3268
▁forces 3269
▁scatter 3270
徒 3271
▁araki 3272
▁wada 3273
▁kashima 3274
▁yoko 3275
▁influential 3276
名 3277
帳 3278
絵系図 3279
▁hokuriku 3280
▁fifth 3281
▁ecchu 3282
▁sixth 3283
▁engag 3284
▁kaga 3285
影堂 3286
▁construction 3287
▁pressure 3288
rei 3289
9 3290
▁35 3291
▁far 3292
▁oshu 3293
▁eighth 3294
▁central 3295
▁tsuchi 3296
▁riot 3297
▁severe 3298
▁famine 3299
▁kamo 3300
▁society 3301
▁grass 3302
▁root 3303
▁farmers 3304
▁improved 3305
▁product 3306
▁villages 3307
▁manor 3308
▁create 3309
惣 3310
村 3311
▁respond 3312
ok 3313
▁enthusiastic 3314
▁kinki 3315
碍 3316
ulat 3317
▁soldiers 3318
71 3319
▁escaped 3320
▁avoid 3321
zaki 3322
▁calm 3323
▁aggressive 3324
▁kawachi 3325
▁shodo 3326
78 3327
▁build 3328
▁republic 3329
nai 3330
▁houses 3331
▁visitors 3332
▁gathered 3333
▁largest 3334
89 3335
zi 3336
82 3337
▁september 3338
▁retirement 3339
98 3340
▁sources 3341
▁must 3342
▁closely 3343
▁connect 3344
99 3345
▁worse 3346
▁sengoku 3347
▁daimyo 3348
▁territorial 3349
▁kennyo 3350
▁freedom 3351
▁ruler 3352
▁serving 3353
▁ideolog 3354
▁driv 3355
照如 3356
▁internal 3357
▁problems 3358
▁asakura 3359
▁sagami 3360
▁prohibition 3361
▁rose 3362
▁districts 3363
▁masamoto 3364
▁hosokawa 3365
▁murder 3366
raid 3367
▁stay 3368
▁nagao 3369
▁help 3370
▁harumoto 3371
▁hatakeyama 3372
▁20,000 3373
▁troops 3374
yori 3375
揆 3376
▁conference 3377
▁kage 3378
tora 3379
▁uesugi 3380
▁reconcil 3381
▁maintain 3382
▁route 3383
39 3384
▁conclud 3385
▁treaty 3386
▁resid 3387
▁nobility 3388
▁shimo 3389
坊官 3390
▁mikawa 3391
家 3392
ought 3393
▁ceas 3394
▁shimazu 3395
▁satsuma 3396
▁1868 3397
▁1568 3398
▁nobunaga 3399
▁waki 3400
1581 3401
agi 3402
▁kii 3403
▁buildings 3404
▁castle 3405
zuka 3406
▁izumi 3407
▁donation 3408
▁square 3409
▁meters 3410
91 3411
▁stands 3412
▁1592 3413
▁assignment 3414
▁twelfth 3415
▁donated 3416
▁ibaraki 3417
ough 3418
▁repeated 3419
▁400 3420
▁combination 3421
▁arrang 3422
▁fudo 3423
▁gozan 3424
▁gun 3425
ctively 3426
▁festivals 3427
ue 3428
▁magn 3429
▁outside 3430
▁contest 3431
▁strength 3432
▁kagami 3433
mochi 3434
married 3435
▁priestess 3436
▁though 3437
▁hair 3438
▁cut 3439
▁shoulder 3440
▁girls 3441
▁hairstyle 3442
▁prostitute 3443
▁girl 3444
▁transcription 3445
▁opposite 3446
▁male 3447
▁tradition 3448
apa 3449
▁garment 3450
▁nyudo 3451
▁nyobo 3452
▁soga 3453
▁umako 3454
▁cross 3455
戒 3456
▁sakurai 3457
▁maiden 3458
ster 3459
▁dislik 3460
▁approach 3461
授戒 3462
▁princess 3463
▁shoshi 3464
▁junna 3465
▁platform 3466
▁devastat 3467
▁medieval 3468
▁course 3469
▁bereave 3470
▁husband 3471
▁divorc 3472
▁grown 3473
▁masako 3474
▁yoritomo 3475
▁shogun 3476
▁wield 3477
▁regret 3478
24 3479
▁admitted 3480
▁kana 3481
kura 3482
▁determined 3483
▁divine 3484
▁realm 3485
▁shrines 3486
▁uta 3487
▁banquet 3488
▁pro 3489
▁receive 3490
script 3491
▁nominat 3492
応供 3493
▁ou 3494
▁general 3495
▁level 3496
ship 3497
学位 3498
▁grade 3499
▁consum 3500
有学 3501
うがく 3502
位 3503
▁shika 3504
▁access 3505
▁accomplishments 3506
▁critical 3507
▁repeat 3508
結集 3509
けつじゅう 3510
▁sixteen 3511
▁pin 3512
▁obi 3513
bas 3514
bari 3515
▁600 3516
▁800 3517
▁bad 3518
▁bath 3519
room 3520
▁kari 3521
, 3522
uri 3523
▁shuri 3524
cu 3525
pan 3526
2 3527
▁depict 3528
▁question 3529
bana 3530
4 3531
▁habit 3532
▁kawagoe 3533
▁saitama 3534
▁nari 3535
▁chiba 3536
▁shimane 3537
▁ota 3538
hyo 3539
▁nakatsu 3540
▁oita 3541
▁usa 3542
▁beijing 3543
zhou 3544
as 3545
bei 3546
▁kun 3547
▁10,000 3548
▁commentaries 3549
▁trip 3550
mm 3551
▁classifi 3552
▁pri 3553
▁portion 3554
▁language 3555
▁rang 3556
▁dialect 3557
蔵外 3558
▁1934 3559
▁trans 3560
▁correct 3561
▁respective 3562
▁regions 3563
eastern 3564
▁thailand 3565
▁contents 3566
▁provided 3567
分別 3568
▁kendo 3569
けん度 3570
▁sections 3571
▁di 3572
daka 3573
▁correspond 3574
masa 3575
▁nineteen 3576
▁text 3577
▁london 3578
▁revised 3579
▁volumes 3580
▁1935 3581
19 3582
▁remember 3583
▁older 3584
▁false 3585
▁seventh 3586
トンミサンボータ 3587
シャンイェシェデ 3588
▁kawa 3589
カワペルツェク 3590
チョクロルイゲンツェン 3591
▁classification 3592
92 3593
33 3594
42 3595
▁1936 3596
▁1990 3597
▁project 3598
▁manuscripts 3599
▁discover 3600
▁hid 3601
▁excavation 3602
▁virtual 3603
volume 3604
30 3605
▁roll 3606
蜀 3607
▁neighboring 3608
▁goryeo 3609
▁newly 3610
▁arriv 3611
wide 3612
▁possession 3613
▁nanzen 3614
▁1933 3615
趙 3616
城 3617
蔵 3618
▁1984 3619
▁copi 3620
▁repair 3621
▁prefectures 3622
▁sekke 3623
▁confirm 3624
▁ve 3625
等覚禅 3626
▁publication 3627
万暦版 3628
徑 3629
▁du 3630
▁print 3631
龍蔵 3632
mentioned 3633
卍字藏 3634
▁reprint 3635
▁hatsu 3636
麗初雕 3637
▁wood 3638
▁block 3639
▁battle 3640
麗再雕 3641
36 3642
守其 3643
▁revision 3644
麗 3645
新雕 3646
校 3647
別録 3648
fla 3649
▁authoriz 3650
▁kanei 3651
▁textbook 3652
修身 3653
▁successive 3654
▁reverse 3655
▁1885 3656
校訂 3657
藏經縮刷藏 3658
▁1902 3659
▁1912 3660
uff 3661
切 3662
刊行会 3663
jiro 3664
▁taka 3665
▁watanabe 3666
▁1924 3667
55 3668
▁showa 3669
訳 3670
way 3671
▁careful 3672
0 3673
▁outline 3674
▁factor 3675
76 3676
▁x 3677
▁oji 3678
64 3679
▁appropriate 3680
▁gojo 3681
濁悪世 3682
77 3683
会念 3684
▁enforced 3685
▁tendenc 3686
85 3687
17 3688
▁yorimichi 3689
▁aristocracy 3690
融通念 3691
▁existed 3692
▁formed 3693
ñ 3694
ṛ 3695
心 3696
▁propos 3697
▁shoko 3698
hajime 3699
▁nakamura 3700
▁assum 3701
▁existing 3702
▁manuscript 3703
09 3704
▁fa 3705
▁currently 3706
▁wang 3707
ao 3708
▁monument 3709
▁672 3710
▁rarely 3711
▁additional 3712
▁mark 3713
空即是色受想行識亦復如是 3714
空即是色受想行識等亦復如是 3715
▁interpret 3716
根 3717
観誦 3718
▁uses 3719
▁daily 3720
▁start 3721
gami 3722
saka 3723
war 3724
▁via 3725
▁radio 3726
▁pre 3727
▁praise 3728
▁meal 3729
▁bank 3730
▁reveal 3731
▁primary 3732
rself 3733
▁tane 3734
▁numerous 3735
▁haiku 3736
▁ordinary 3737
空ず 3738
る 3739
▁illness 3740
▁charm 3741
▁hoki 3742
▁haniwa 3743
▁success 3744
▁ruiju 3745
ite 3746
▁concurrently 3747
▁mistake 3748
▁miura 3749
▁outdoor 3750
▁pleasure 3751
▁kissho 3752
▁manju 3753
kichi 3754
妙首 3755
珠菩薩 3756
▁blue 3757
op 3758
▁sharp 3759
con 3760
▁leaves 3761
▁bra 3762
▁realistic 3763
▁shinsen 3764
born 3765
空 3766
▁plays 3767
▁seek 3768
▁worshipp 3769
建州 3770
女 3771
族 3772
▁hung 3773
cal 3774
▁lion 3775
▁symboliz 3776
▁bun 3777
髻 3778
▁qu 3779
▁riding 3780
▁drawing 3781
▁ronin 3782
僧堂 3783
▁deities 3784
▁reside 3785
▁heavenly 3786
gra 3787
▁clause 3788
▁hit 3789
▁pair 3790
▁creat 3791
帝釈 3792
釈 3793
帝 3794
▁kings 3795
福 3796
▁acquaint 3797
▁friends 3798
▁whom 3799
▁minister 3800
▁advice 3801
▁arms 3802
臂像 3803
宝髻 3804
▁dress 3805
▁clothes 3806
▁armor 3807
▁verse 3808
▁script 3809
ure 3810
▁wing 3811
▁gallery 3812
shitsu 3813
zukuri 3814
▁dry 3815
▁technique 3816
▁koshin 3817
▁oto 3818
hai 3819
Ｒ 3820
Ｎ 3821
io 3822
▁medicine 3823
▁bowl 3824
▁contain 3825
syllable 3826
▁initial 3827
▁cur 3828
▁disease 3829
▁provide 3830
▁treat 3831
▁tie 3832
▁normal 3833
▁mud 3834
▁production 3835
▁introduction 3836
▁sanzon 3837
▁nikko 3838
▁gakko 3839
▁situat 3840
▁size 3841
▁afterward 3842
▁month 3843
▁kokubun 3844
▁kichi 3845
▁hoko 3846
▁attract 3847
▁rare 3848
▁presid 3849
▁typical 3850
▁defend 3851
▁sculpture 3852
▁fukushima 3853
kun 3854
▁thanks 3855
temporary 3856
jinja 3857
▁koro 3858
▁send 3859
▁mato 3860
waka 3861
▁coincid 3862
▁bag 3863
▁kuro 3864
▁tani 3865
▁sanbo 3866
▁customs 3867
▁voice 3868
▁remove 3869
▁mata 3870
ag 3871
▁offering 3872
▁thrown 3873
▁achievement 3874
▁dangerous 3875
▁dirt 3876
▁escap 3877
▁cause 3878
▁compris 3879
▁hours 3880
▁zodiac 3881
▁appli 3882
▁heads 3883
▁covering 3884
▁total 3885
of 3886
fensive 3887
▁animals 3888
▁excell 3889
▁corresponding 3890
▁impossible 3891
▁distinguish 3892
▁wall 3893
head 3894
▁circular 3895
▁vary 3896
▁golden 3897
▁momoyama 3898
moto 3899
▁gamo 3900
▁ari 3901
▁awaji 3902
▁riku 3903
▁shiki 3904
▁onmyo 3905
ketsu 3906
▁abe 3907
▁seimei 3908
前 3909
螣蛇火 3910
在巳 3911
主驚恐怖畏 3912
凶将 3913
丁 3914
▁yin 3915
▁southeast 3916
朱雀火 3917
在午 3918
主口舌懸官 3919
▁suzaku 3920
▁horse 3921
▁hei 3922
丙 3923
▁yang 3924
六合 3925
木 3926
在卯 3927
主陰私 3928
合 3929
吉 3930
将 3931
▁hare 3932
乙 3933
前四勾陣土 3934
在辰 3935
主戦闘諍訟 3936
▁dragon 3937
戊 3938
ular 3939
青龍 3940
四 3941
在寅 3942
主銭財慶賀 3943
▁tiger 3944
甲 3945
▁northeast 3946
人 3947
在丑 3948
主福 3949
无成 3950
己 3951
後 3952
后水 3953
在亥 3954
主後 3955
宮 3956
婦 3957
▁wild 3958
▁boar 3959
癸 3960
▁northwest 3961
辛 3962
▁metal 3963
玄 3964
武 3965
在 3966
主亡遺盗賊 3967
use 3968
壬 3969
後四 3970
裳土 3971
在未 3972
主冠帯衣服 3973
▁southwest 3974
白虎 3975
在申 3976
主疾病喪 3977
庚 3978
後六 3979
空土 3980
在戌 3981
主欺殆不 3982
▁onmyodo 3983
▁predecessor 3984
▁myth 3985
▁enemy 3986
ishi 3987
▁leather 3988
▁ogre 3989
邪鬼 3990
▁taima 3991
▁subordinate 3992
▁luck 3993
▁games 3994
muro 3995
▁green 3996
▁umbrella 3997
▁silver 3998
▁jewel 3999
▁observ 4000
▁taku 4001
tori 4002
▁rise 4003
▁dokyo 4004
▁toba 4005
▁chain 4006
鎖甲 4007
ear 4008
▁ebi 4009
海老籠 4010
▁chiten 4011
兜跋 4012
▁tu 4013
刀抜 4014
屠半 4015
gosho 4016
▁adviser 4017
▁shoen 4018
▁bugyo 4019
▁administrator 4020
跡奉行 4021
▁govern 4022
▁assigned 4023
dono 4024
nashi 4025
▁takenouchi 4026
▁double 4027
▁thirteen 4028
▁descent 4029
wan 4030
▁defin 4031
▁combin 4032
▁tokiwa 4033
mura 4034
▁chugu 4035
相律 4036
▁jiju 4037
▁iri 4038
hachiman 4039
▁mura 4040
kumo 4041
▁usu 4042
▁chiyo 4043
▁kurodo 4044
0,000 4045
▁2000 4046
▁governmental 4047
▁legislat 4048
▁administration 4049
▁cris 4050
▁1877 4051
higashi 4052
▁rokujo 4053
▁karasuma 4054
▁core 4055
▁preced 4056
▁sentence 4057
同朋 4058
社 4059
会 4060
▁discussion 4061
▁permit 4062
▁extract 4063
依 4064
ogai 4065
▁tenjin 4066
▁bottom 4067
▁paris 4068
開教区 4069
組 4070
▁decision 4071
making 4072
議会 4073
参議会 4074
▁judicia 4075
▁investigation 4076
monin 4077
審問 4078
▁consent 4079
教区会 4080
教区 4081
徒会 4082
▁representatives 4083
▁administrative 4084
▁executive 4085
▁committee 4086
▁chairm 4087
▁inspector 4088
組会 4089
▁church 4090
▁board 4091
▁investigat 4092
▁inspection 4093
six 4094
聞 4095
宣布 4096
▁domestic 4097
▁overseas 4098
▁community 4099
▁1570 4100
▁opinions 4101
▁host 4102
ie 4103
▁resistance 4104
▁nana 4105
▁horikawa 4106
▁elde 4107
buri 4108
▁delegat 4109
▁july 4110
▁approval 4111
22 4112
▁reinstat 4113
▁turned 4114
▁framework 4115
31 4116
脈 4117
⇒ 4118
▁1333 4119
▁fifteenth 4120
▁tatsu 4121
18 4122
46 4123
▁1889 4124
third 4125
▁1875 4126
▁1925 4127
▁1903 4128
▁1993 4129
▁1996 4130
▁absent 4131
▁1914 4132
08 4133
▁1930 4134
▁institutions 4135
▁adjust 4136
▁policies 4137
▁capital 4138
▁manage 4139
▁entire 4140
▁territory 4141
▁60 4142
▁regional 4143
連区制 4144
▁partner 4145
▁scale 4146
▁kyushu 4147
輪番 4148
port 4149
▁voluntar 4150
▁concerned 4151
▁problem 4152
▁determin 4153
▁suffering 4154
▁rope 4155
▁colored 4156
▁yellow 4157
▁black 4158
▁nama 4159
字咒 4160
dama 4161
▁fierce 4162
暴悪忿怒尊 4163
▁comparison 4164
▁eyes 4165
▁coat 4166
▁stand 4167
▁exten 4168
ograph 4169
ushi 4170
▁jisho 4171
▁anger 4172
▁watch 4173
▁paternal 4174
▁love 4175
▁strict 4176
調伏 4177
▁3,000 4178
▁accept 4179
▁surrounded 4180
▁barrier 4181
▁eat 4182
▁captured 4183
▁stamp 4184
▁uma 4185
▁deal 4186
界 4187
▁wonder 4188
▁repli 4189
▁deeply 4190
new 4191
授 4192
記 4193
▁colors 4194
▁color 4195
ack 4196
▁topknot 4197
▁hachi 4198
葉蓮華 4199
▁too 4200
▁bar 4201
ward 4202
▁clothing 4203
▁soil 4204
▁variation 4205
ization 4206
▁prosperity 4207
▁nami 4208
kiri 4209
▁costume 4210
▁slave 4211
▁guards 4212
juku 4213
que 4214
▁artists 4215
▁specializ 4216
師 4217
▁yoshimori 4218
gara 4219
▁eki 4220
▁invent 4221
ferred 4222
▁felt 4223
▁favorabl 4224
▁bless 4225
を 4226
結ぶ 4227
讃嘆 4228
▁represent 4229
▁tsurugi 4230
不動尊劔 4231
juro 4232
hachi 4233
shima 4234
▁miyagi 4235
▁oyama 4236
▁steel 4237
▁mie 4238
▁tofuku 4239
cchu 4240
▁simple 4241
▁performances 4242
▁burnt 4243
off 4244
colored 4245
▁unit 4246
▁gorinto 4247
▁hierarch 4248
pe 4249
▁luxurious 4250
▁string 4251
▁decorat 4252
▁objects 4253
▁imitat 4254
▁royal 4255
ory 4256
▁monarch 4257
chiken 4258
▁knowledge 4259
▁epic 4260
nu 4261
▁synonym 4262
▁gifu 4263
▁ground 4264
▁ceremonial 4265
▁permanent 4266
▁constant 4267
▁prohibit 4268
▁distinction 4269
▁regulat 4270
▁entry 4271
▁mountains 4272
▁stones 4273
▁border 4274
▁koya 4275
▁stipulat 4276
▁released 4277
▁progress 4278
▁release 4279
▁commandments 4280
mari 4281
▁extra 4282
▁affair 4283
▁adult 4284
▁assault 4285
▁facility 4286
▁sever 4287
▁policy 4288
iness 4289
▁flow 4290
▁flu 4291
▁touch 4292
▁mikoshi 4293
▁palanquin 4294
▁expectation 4295
▁thorough 4296
▁lose 4297
▁monogatari 4298
▁washing 4299
▁shore 4300
▁track 4301
▁accident 4302
▁ensure 4303
▁safety 4304
▁cloister 4305
▁jealous 4306
▁tale 4307
▁haya 4308
chin 4309
giri 4310
bime 4311
▁munakata 4312
taisha 4313
▁oki 4314
▁island 4315
▁kojiki 4316
▁qualification 4317
▁himiko 4318
▁agreed 4319
▁chance 4320
▁talk 4321
▁media 4322
▁tate 4323
▁1872 4324
▁1904 4325
▁dewa 4326
▁ehime 4327
▁starting 4328
▁season 4329
hiro 4330
▁purify 4331
▁matsuri 4332
▁aomori 4333
▁pull 4334
▁float 4335
▁ride 4336
▁pole 4337
▁akita 4338
▁hayashi 4339
kata 4340
▁naginata 4341
▁parade 4342
▁hakata 4343
kasa 4344
▁elementary 4345
▁participate 4346
▁kishiwada 4347
▁danjiri 4348
▁mine 4349
▁pit 4350
▁operations 4351
▁tunnel 4352
▁breweries 4353
▁brew 4354
▁sumo 4355
▁wrestling 4356
▁tournament 4357
▁noh 4358
▁actress 4359
▁nohgaku 4360
▁performers 4361
▁1948 4362
▁intangibl 4363
▁heritage 4364
▁2004 4365
▁cat 4366
▁olympic 4367
▁stadium 4368
▁limited 4369
▁liter 4370
▁physical 4371
▁defect 4372
▁facilities 4373
▁transform 4374
▁features 4375
hood 4376
▁cutting 4377
▁ignor 4378
煩悩 4379
▁sendai 4380
救わで止 4381
ま 4382
んじ 4383
摂化 4384
隆 4385
堂 4386
▁1949 4387
▁confess 4388
▁sanno 4389
▁kyaku 4390
▁diet 4391
▁customers 4392
▁hanging 4393
▁omitt 4394
▁kiri 4395
bachi 4396
▁share 4397
▁wo 4398
▁cap 4399
▁grant 4400
▁save 4401
▁sweet 4402
▁offer 4403
eight 4404
▁fair 4405
▁justice 4406
kawa 4407
▁kansai 4408
world 4409
▁naka 4410
▁resident 4411
▁shira 4412
▁silla 4413
▁rokujizo 4414
au 4415
▁rate 4416
meter 4417
hira 4418
▁hide 4419
▁abundant 4420
▁endeavor 4421
▁wander 4422
acy 4423
▁enormous 4424
▁diminish 4425
cap 4426
▁anecdote 4427
▁weak 4428
▁else 4429
▁ghost 4430
▁fee 4431
▁spot 4432
gaki 4433
▁pour 4434
▁towns 4435
▁streets 4436
将軍 4437
勝軍 4438
▁gyoku 4439
玉 4440
皇 4441
▁violence 4442
斉 4443
唵 4444
訶訶訶 4445
尾娑摩曳 4446
娑婆訶 4447
▁atago 4448
▁ameno 4449
▁sick 4450
▁makeup 4451
▁powder 4452
▁miso 4453
name 4454
▁soybean 4455
▁paste 4456
▁chin 4457
▁shio 4458
▁salt 4459
▁bean 4460
▁neck 4461
biki 4462
▁off 4463
▁wrapped 4464
▁koshi 4465
▁waist 4466
▁seki 4467
▁stops 4468
▁eye 4469
kane 4470
yaki 4471
date 4472
yasu 4473
▁health 4474
obi 4475
ginu 4476
nuki 4477
qui 4478
▁comfort 4479
eat 4480
are 4481
▁bound 4482
imo 4483
▁potato 4484
tsugi 4485
▁katsura 4486
kake 4487
toki 4488
▁kosei 4489
▁sculptor 4490
▁suga 4491
▁mibu 4492
▁kobe 4493
▁enshu 4494
tsuka 4495
忿怒尊 4496
▁bow 4497
▁uncertain 4498
▁entertainment 4499
▁industry 4500
▁facing 4501
kki 4502
▁exact 4503
ダーキニー 4504
tch 4505
▁alternative 4506
▁kama 4507
▁arrow 4508
▁tenma 4509
▁enjoy 4510
▁perspective 4511
▁feel 4512
▁tennoji 4513
▁issues 4514
▁amulet 4515
▁grounds 4516
愛染霊場 4517
▁personal 4518
▁nagahama 4519
▁consecrat 4520
ima 4521
愛染 4522
▁manufacturers 4523
▁konoe 4524
▁mandokoro 4525
近衛 4526
政所 4527
殿 4528
▁yamashiro 4529
▁nikaido 4530
▁za 4531
▁method 4532
▁sitting 4533
座禅 4534
坐 4535
▁harmon 4536
▁breath 4537
▁respectively 4538
▁zabuton 4539
▁flat 4540
▁sit 4541
▁bare 4542
high 4543
▁move 4544
▁legs 4545
▁balance 4546
▁palm 4547
▁thumb 4548
▁natural 4549
▁tip 4550
▁meter 4551
▁roof 4552
▁teeth 4553
▁closed 4554
▁relax 4555
▁straight 4556
▁stomach 4557
▁slightly 4558
▁forward 4559
▁nose 4560
▁naturally 4561
▁available 4562
▁viewing 4563
▁visual 4564
▁spiritual 4565
▁just 4566
▁merit 4567
▁reward 4568
▁medical 4569
▁researchers 4570
清 4571
瀧権現 4572
▁fushimi 4573
滝権現 4574
▁harm 4575
▁snake 4576
.5 4577
▁flying 4578
▁begg 4579
dding 4580
hand 4581
龍 4582
taki 4583
滝 4584
▁descend 4585
▁peak 4586
▁authority 4587
▁judge 4588
▁committ 4589
literati 4590
縛 4591
雙世 4592
雙 4593
静息 4594
遮 4595
平 4596
等 4597
▁yi 4598
▁ancestor 4599
▁race 4600
empt 4601
▁paradise 4602
▁dominat 4603
▁ancestors 4604
▁wore 4605
eath 4606
▁arrest 4607
read 4608
▁judg 4609
▁contemporary 4610
▁skin 4611
▁artistic 4612
▁genealogi 4613
▁bright 4614
elated 4615
閻魔 4616
夜摩 4617
焔摩 4618
▁amalgamat 4619
▁priorit 4620
old 4621
▁naniwa 4622
▁mirror 4623
▁won 4624
▁accomplish 4625
▁diamond 4626
▁renown 4627
▁sojo 4628
▁mentor 4629
▁authorities 4630
▁legitimate 4631
▁attitude 4632
▁accumulat 4633
▁circumstance 4634
▁confid 4635
▁affairs 4636
▁sixty 4637
▁ikegami 4638
▁whereabouts 4639
▁katsuyori 4640
▁takeda 4641
▁kitayama 4642
▁confidence 4643
▁consideration 4644
▁omo 4645
▁expell 4646
▁approv 4647
▁striv 4648
▁legitima 4649
▁koi 4650
▁jurisdiction 4651
▁1957 4652
▁heisei 4653
▁seeing 4654
▁acknowledg 4655
▁consecutive 4656
▁dissolved 4657
▁affiliat 4658
▁attack 4659
▁dismissed 4660
▁precedent 4661
▁legal 4662
▁recently 4663
cation 4664
▁1991 4665
▁headquarters 4666
▁1999 4667
▁sudden 4668
▁penalt 4669
▁bestowed 4670
▁1943 4671
▁count 4672
▁homyo 4673
▁pseudonym 4674
▁kuyo 4675
maro 4676
▁sane 4677
tomi 4678
▁kono 4679
▁takeuchi 4680
▁magazine 4681
goto 4682
▁lifetime 4683
▁poetic 4684
▁reputation 4685
▁failure 4686
▁peninsula 4687
▁finance 4688
▁responsibilit 4689
▁passing 4690
▁aged 4691
▁yomi 4692
▁shimbun 4693
▁1959 4694
▁haikai 4695
▁ware 4696
motsu 4697
▁1938 4698
etsu 4699
▁uchi 4700
▁kobun 4701
▁1920 4702
▁1910 4703
▁1992 4704
▁tenno 4705
śī 4706
ş 4707
▁je 4708
▁susanoo 4709
▁alone 4710
▁resemble 4711
▁quarter 4712
▁yasaka 4713
eki 4714
▁epidemic 4715
▁urban 4716
▁goryo 4717
▁nationwide 4718
mine 4719
▁tsushima 4720
▁disguis 4721
▁lodging 4722
▁occasion 4723
▁cold 4724
▁entertain 4725
▁disclos 4726
▁run 4727
▁predict 4728
▁distribut 4729
▁cards 4730
ock 4731
▁auspicious 4732
▁poison 4733
▁occasions 4734
▁stat 4735
▁kira 4736
ame 4737
▁izu 4738
▁dam 4739
kuri 4740
uka 4741
nishi 4742
ryaku 4743
▁matsuo 4744
▁maizuru 4745
▁hattori 4746
▁sculpt 4747
▁graceful 4748
▁suit 4749
crib 4750
geki 4751
▁spear 4752
▁tenpyo 4753
▁items 4754
▁thunder 4755
▁hoshi 4756
▁arm 4757
悪 4758
悪僧 4759
悪党 4760
▁belonged 4761
▁tall 4762
possible 4763
▁europe 4764
▁category 4765
▁vast 4766
▁estate 4767
▁unstable 4768
▁risk 4769
▁contradict 4770
▁odd 4771
▁job 4772
defense 4773
▁powerful 4774
hold 4775
▁struggle 4776
▁mochihito 4777
▁taira 4778
▁heike 4779
▁dominant 4780
▁exert 4781
▁navy 4782
▁trend 4783
▁warr 4784
▁corps 4785
▁tsuda 4786
▁gunnery 4787
▁subdu 4788
▁expedition 4789
▁kishu 4790
▁suwa 4791
▁shingen 4792
jingu 4793
▁otomo 4794
▁gohojo 4795
▁forfeit 4796
▁clash 4797
▁yamato 4798
▁surrender 4799
▁weapons 4800
▁thereafter 4801
goku 4802
▁chiku 4803
▁demon 4804
▁alive 4805
ume 4806
▁tengu 4807
▁monster 4808
▁occupy 4809
▁circle 4810
▁fo 4811
▁connection 4812
aved 4813
▁guidance 4814
▁generat 4815
▁roles 4816
▁empty 4817
faced 4818
▁sato 4819
ological 4820
ew 4821
▁better 4822
▁spend 4823
▁occur 4824
▁cover 4825
▁fond 4826
▁horses 4827
▁food 4828
▁proceed 4829
▁allocat 4830
▁introduce 4831
▁ryori 4832
▁categoriz 4833
▁cuisine 4834
eaten 4835
▁dishes 4836
▁eggs 4837
▁products 4838
▁equivalent 4839
▁killing 4840
▁supposed 4841
▁drunk 4842
▁vegetables 4843
▁complex 4844
▁cooking 4845
▁techniques 4846
▁foodstuff 4847
▁cook 4848
▁overall 4849
▁field 4850
▁requir 4851
▁necessit 4852
▁storage 4853
▁ferment 4854
▁soy 4855
▁sauce 4856
▁dried 4857
▁natto 4858
fried 4859
▁animal 4860
▁vegetable 4861
▁materials 4862
fish 4863
▁abalone 4864
▁soup 4865
▁fried 4866
▁mushroom 4867
▁meals 4868
▁citizens 4869
▁restaurants 4870
▁provid 4871
▁taiwan 4872
▁specialty 4873
▁ingredients 4874
▁taste 4875
▁seasoning 4876
▁drive 4877
▁satisfie 4878
▁device 4879
▁earthenware 4880
▁stew 4881
▁prepar 4882
▁kitchen 4883
▁table 4884
▁rectangular 4885
▁dish 4886
▁sesame 4887
▁seeds 4888
▁boiled 4889
▁tofu 4890
▁oil 4891
▁leaf 4892
▁intellectual 4893
▁effects 4894
▁shipp 4895
▁nagasaki 4896
▁wine 4897
▁glass 4898
▁dec 4899
▁precious 4900
▁suppli 4901
▁prevail 4902
▁tray 4903
▁guests 4904
▁plain 4905
▁simmer 4906
▁dumpling 4907
▁fill 4908
▁udon 4909
▁wheat 4910
▁noodles 4911
bilities 4912
▁lunch 4913
quite 4914
▁lodg 4915
kubo 4916
▁quarters 4917
▁dinner 4918
▁ones 4919
emon 4920
▁advanced 4921
▁embrac 4922
▁violent 4923
護 4924
善 4925
8 4926
▁violat 4927
隋魔 4928
▁trunk 4929
歓喜 4930
▁mari 4931
▁miniature 4932
浴油 4933
▁beautiful 4934
▁furi 4935
▁candy 4936
▁flour 4937
▁cake 4938
▁beans 4939
▁persimmon 4940
▁material 4941
▁twist 4942
▁edge 4943
▁blossom 4944
▁radish 4945
saki 4946
▁koto 4947
▁hachioji 4948
▁shizuoka 4949
▁kuwana 4950
▁otokuni 4951
▁yamazaki 4952
▁kamigyo 4953
▁tenka 4954
▁toyooka 4955
▁owari 4956
▁roads 4957
aff 4958
▁poverty 4959
▁gathering 4960
▁70 4961
▁pioneer 4962
▁yori 4963
▁shige 4964
▁politics 4965
▁merchants 4966
▁parties 4967
▁fame 4968
▁battlefield 4969
▁signed 4970
▁jointly 4971
ide 4972
▁tsune 4973
▁azuchi 4974
▁diploma 4975
▁negotiations 4976
▁retain 4977
37 4978
bushige 4979
kiyo 4980
▁motonari 4981
▁bungo 4982
▁hashiba 4983
▁plan 4984
▁devis 4985
▁vassal 4986
▁survey 4987
▁bunroku 4988
kage 4989
▁kobayakawa 4990
▁key 4991
hide 4992
▁kikkawa 4993
▁sekigahara 4994
▁1600 4995
nari 4996
▁ishida 4997
▁teru 4998
▁commander 4999
首塚 5000
▁garden 5001
▁hiroshima 5002
▁quot 5003
▁downfall 5004
▁prov 5005
▁engrav 5006
▁kuni 5007
haku 5008
▁october 5009
▁vicinity 5010
drawn 5011
▁mount 5012
▁kata 5013
▁displayed 5014
▁apply 5015
▁hondo 5016
▁layer 5017
▁cord 5018
▁frame 5019
▁slic 5020
▁photograph 5021
▁opening 5022
▁apprais 5023
▁asset 5024
▁tourist 5025
▁makura 5026
▁wake 5027
▁deceased 5028
▁ancestr 5029
▁tablet 5030
▁register 5031
▁looking 5032
▁directly 5033
秘 5034
伽耶成 5035
道 5036
即是 5037
場 5038
▁hito 5039
題目 5040
▁victim 5041
▁ogura 5042
▁hyakunin 5043
▁poets 5044
▁saki 5045
▁tadamichi 5046
▁38 5047
▁kajin 5048
gyoku 5049
▁waka 5050
▁gagaku 5051
謡物 5052
▁rising 5053
▁jokyu 5054
▁ran 5055
▁rebellion 5056
▁jinmu 5057
▁transition 5058
dori 5059
▁appreciat 5060
▁suzuki 5061
▁professor 5062
▁chronicle 5063
▁iwanami 5064
▁1967 5065
▁kokushi 5066
▁koko 5067
▁immortal 5068
▁mune 5069
sada 5070
▁dainagon 5071
▁wet 5072
▁nurse 5073
▁kazan 5074
▁urin 5075
▁murasaki 5076
▁kokin 5077
thology 5078
▁commission 5079
▁emotion 5080
▁anthologies 5081
▁dropp 5082
▁earlier 5083
▁cloud 5084
▁sight 5085
▁snow 5086
ranking 5087
▁revival 5088
▁emergency 5089
▁conservative 5090
▁militar 5091
▁literature 5092
▁demolish 5093
▁divid 5094
▁decreas 5095
▁reconstruction 5096
for 5097
▁honor 5098
▁kodama 5099
▁1953 5100
▁associate 5101
▁institute 5102
▁conditions 5103
▁clean 5104
▁depart 5105
▁destination 5106
▁setsu 5107
▁observed 5108
▁our 5109
▁flesh 5110
▁towards 5111
▁styles 5112
▁differ 5113
ritsu 5114
▁varie 5115
▁prior 5116
▁ordinari 5117
▁outstanding 5118
wo 5119
▁equipment 5120
▁eve 5121
▁gei 5122
▁phonetic 5123
▁expand 5124
▁round 5125
▁decoration 5126
▁nihonshoki 5127
▁chronicles 5128
ade 5129
▁goguryeo 5130
▁myoshin 5131
▁signal 5132
sized 5133
▁iron 5134
▁diameter 5135
▁improve 5136
▁oval 5137
▁coins 5138
▁melt 5139
% 5140
▁horizontal 5141
▁band 5142
▁vertical 5143
▁ike 5144
▁tsuki 5145
▁hang 5146
sect 5147
▁angle 5148
▁exception 5149
▁tsubo 5150
▁evacuat 5151
▁benkei 5152
▁mold 5153
▁replica 5154
▁featur 5155
▁tsurezure 5156
gusa 5157
▁essay 5158
▁ie 5159
tsuna 5160
▁ueno 5161
▁asakusa 5162
▁basho 5163
▁security 5164
▁weight 5165
▁height 5166
▁37 5167
▁1977 5168
▁hida 5169
▁orange 5170
▁musical 5171
▁orchestra 5172
tsuki 5173
▁housing 5174
▁inspir 5175
▁artificial 5176
▁cool 5177
▁masterpiece 5178
▁hirano 5179
▁residence 5180
▁sakanoue 5181
▁tamuramaro 5182
▁solicit 5183
▁motion 5184
▁restore 5185
六別時制度 5186
▁trac 5187
▁classical 5188
▁negative 5189
▁gilt 5190
▁iv 5191
▁noble 5192
▁okura 5193
▁tottori 5194
zoku 5195
▁kishi 5196
▁employ 5197
▁costumes 5198
▁promotion 5199
▁divinit 5200
▁koho 5201
ton 5202
▁godaigo 5203
shogunate 5204
▁kenmu 5205
▁meet 5206
▁counselor 5207
▁license 5208
▁exceptional 5209
▁tenryu 5210
▁imagawa 5211
▁saemon 5212
rank 5213
▁officer 5214
▁suruga 5215
▁maternal 5216
▁grasp 5217
▁marine 5218
▁transport 5219
▁pirates 5220
▁clans 5221
▁vassals 5222
▁shogi 5223
▁educat 5224
▁twice 5225
teru 5226
▁hana 5227
▁sunpu 5228
▁foreign 5229
truck 5230
▁alliance 5231
zuki 5232
zaka 5233
▁slope 5234
▁advantage 5235
▁nobu 5236
▁takechi 5237
▁hostage 5238
▁tsui 5239
part 5240
▁controll 5241
▁commercial 5242
▁reki 5243
聖観音 5244
katsu 5245
▁uniform 5246
▁fulfill 5247
▁hori 5248
▁weapon 5249
▁nyoin 5250
▁breast 5251
▁oka 5252
▁leg 5253
▁gather 5254
▁delivery 5255
Ā 5256
▁memor 5257
▁arashiyama 5258
▁nishikyo 5259
▁boys 5260
▁kodo 5261
▁goyo 5262
▁tahoto 5263
▁bird 5264
▁ozu 5265
▁asceticism 5266
▁bamboo 5267
▁yamagata 5268
▁celebrate 5269
▁search 5270
▁warehouse 5271
▁kim 5272
ngry 5273
▁boiling 5274
▁lift 5275
▁obvious 5276
ire 5277
▁species 5278
buki 5279
▁heir 5280
▁futa 5281
form 5282
▁organiz 5283
▁shakyamuni 5284
▁fragrance 5285
▁soma 5286
▁alcohol 5287
▁belong 5288
▁niju 5289
▁rear 5290
▁victor 5291
▁boy 5292
tsura 5293
▁wound 5294
▁sightseeing 5295
what 5296
ard 5297
▁kake 5298
▁byobu 5299
▁multiple 5300
▁panel 5301
gama 5302
▁cub 5303
▁grandfather 5304
tsune 5305
▁resolv 5306
▁strengthen 5307
▁leadership 5308
▁lesson 5309
▁league 5310
momoyama 5311
▁imina 5312
brother 5313
▁shared 5314
west 5315
▁daisojo 5316
礙 5317
用 5318
ome 5319
five 5320
▁supply 5321
▁column 5322
▁demonstrat 5323
▁cave 5324
29 5325
749 5326
▁pilgrim 5327
▁stick 5328
▁purple 5329
▁tool 5330
▁ball 5331
▁shell 5332
▁shield 5333
tetsu 5334
▁handle 5335
▁arrows 5336
▁gunji 5337
▁emi 5338
▁walking 5339
▁grip 5340
▁willow 5341
▁box 5342
▁seal 5343
宝鏡 5344
宝篋 5345
▁blade 5346
shoku 5347
▁comparative 5348
▁significance 5349
▁rituals 5350
oya 5351
▁conferred 5352
▁regulations 5353
aidaiji 5354
▁press 5355
▁1900 5356
▁stupa 5357
▁mound 5358
▁relics 5359
storey 5360
▁fund 5361
▁store 5362
▁varieties 5363
story 5364
▁gardens 5365
▁inhabit 5366
▁running 5367
▁evaluation 5368
▁evaluat 5369
▁depth 5370
▁45 5371
▁vietnam 5372
▁methods 5373
▁partially 5374
▁tenpo 5375
▁easie 5376
▁conclusion 5377
▁sort 5378
▁fresh 5379
▁gauge 5380
▁cream 5381
▁vari 5382
▁dan 5383
▁kushi 5384
▁relevant 5385
▁shugo 5386
▁histories 5387
▁possibilit 5388
▁rescu 5389
▁flavor 5390
▁link 5391
▁presum 5392
▁academy 5393
▁raised 5394
▁inferior 5395
▁argument 5396
mode 5397
▁accommodat 5398
▁capacity 5399
▁prime 5400
▁mere 5401
illus 5402
▁duties 5403
▁saving 5404
▁renounc 5405
▁enyu 5406
▁tentative 5407
▁remnant 5408
▁usage 5409
▁headquarter 5410
▁merger 5411
▁municipalities 5412
▁county 5413
▁kasa 5414
▁tachikawa 5415
▁attend 5416
▁toshi 5417
▁kusunoki 5418
▁villa 5419
▁trust 5420
▁sponsor 5421
▁issue 5422
▁yoriyuki 5423
▁kanrei 5424
▁shoguna 5425
▁deputy 5426
▁tango 5427
▁reconciliation 5428
▁strip 5429
▁coup 5430
▁leader 5431
▁foster 5432
▁ura 5433
▁legends 5434
▁drink 5435
▁extinguish 5436
▁shadow 5437
▁thin 5438
▁surprise 5439
▁money 5440
▁procedure 5441
grade 5442
▁temporari 5443
▁bigge 5444
▁saeki 5445
sumi 5446
▁campaign 5447
▁1895 5448
興 5449
学 5450
atsu 5451
sue 5452
▁provisional 5453
▁governor 5454
▁koga 5455
▁naidaijin 5456
▁interior 5457
▁murakami 5458
genji 5459
▁celebrat 5460
▁seishu 5461
▁sango 5462
▁lectures 5463
▁exempt 5464
▁circulation 5465
▁gosaga 5466
▁dowager 5467
▁entomb 5468
▁categories 5469
▁utsunomiya 5470
▁syllables 5471
ything 5472
▁forgot 5473
▁mounds 5474
▁increasing 5475
gency 5476
▁declining 5477
▁growing 5478
▁deteriorat 5479
▁add 5480
▁excuse 5481
▁treasury 5482
▁woven 5483
▁pet 5484
▁wrapping 5485
▁trail 5486
▁pick 5487
▁prominent 5488
▁initiative 5489
hisa 5490
▁contrast 5491
▁fortune 5492
▁sanctuary 5493
曼陀羅 5494
曼荼羅 5495
मण्डल 5496
荼 5497
茶 5498
मण्ड 5499
ṇḍ 5500
ल 5501
▁exercis 5502
▁scenery 5503
▁nut 5504
ural 5505
▁swords 5506
▁actions 5507
ṃ 5508
▁purposes 5509
▁concrete 5510
▁patterns 5511
▁kasuga 5512
haya 5513
▁hiyoshi 5514
▁chinju 5515
▁precinct 5516
▁tajima 5517
▁involve 5518
▁shinagawa 5519
zuke 5520
▁pickled 5521
▁daikon 5522
▁tsuna 5523
▁suke 5524
toyo 5525
▁yamana 5526
▁castellan 5527
▁mae 5528
teki 5529
▁birthplace 5530
▁hermitage 5531
▁yoshihide 5532
▁tight 5533
▁laws 5534
▁weaken 5535
▁kuge 5536
▁shohat 5537
▁impos 5538
▁gomizunoo 5539
▁chart 5540
▁shoshidai 5541
▁launch 5542
▁tsugaru 5543
▁ordinance 5544
▁yagyu 5545
▁nao 5546
▁iemitsu 5547
▁audience 5548
▁consult 5549
atory 5550
verse 5551
yet 5552
▁musashi 5553
▁1983 5554
▁1890 5555
▁1899 5556
▁1965 5557
▁sechi 5558
▁1976 5559
▁render 5560
▁meritorious 5561
▁gozoku 5562
66 5563
▁moro 5564
▁relative 5565
▁magnificent 5566
▁laid 5567
▁ensemble 5568
▁enacted 5569
▁oath 5570
▁achievements 5571
▁maintenance 5572
▁repel 5573
▁gunma 5574
数珠 5575
▁composed 5576
▁bundle 5577
▁thread 5578
▁hole 5579
▁rubb 5580
▁frequenc 5581
ude 5582
▁suitable 5583
▁handled 5584
chief 5585
▁tatami 5586
▁tassel 5587
▁wrist 5588
▁loop 5589
▁handed 5590
▁informal 5591
▁54 5592
▁... 5593
顆 5594
珠 5595
consistent 5596
▁smaller 5597
tomo 5598
▁tsuyu 5599
〔 5600
〕 5601
▁tube 5602
▁insert 5603
▁compos 5604
▁maru 5605
▁mikan 5606
oi 5607
▁price 5608
▁cry 5609
▁cheap 5610
▁plastic 5611
▁smok 5612
▁tour 5613
wood 5614
▁bomb 5615
▁cedar 5616
mber 5617
▁sanda 5618
▁cell 5619
▁silk 5620
▁paulownia 5621
▁knot 5622
▁kiku 5623
▁rikyu 5624
▁kemari 5625
▁odo 5626
▁supporters 5627
▁sale 5628
▁vessel 5629
▁phenomenon 5630
▁courtesy 5631
▁hot 5632
▁strings 5633
▁nikka 5634
▁desir 5635
▁port 5636
▁code 5637
▁kashi 5638
musubi 5639
▁pack 5640
▁fixed 5641
▁attach 5642
fusa 5643
▁detail 5644
made 5645
▁shops 5646
▁market 5647
▁replac 5648
▁expensive 5649
ble 5650
珠数 5651
▁changing 5652
▁experienc 5653
▁brief 5654
▁encourage 5655
▁pot 5656
▁loss 5657
bori 5658
▁stretch 5659
kuchi 5660
uchi 5661
▁conquer 5662
▁interfer 5663
▁phoenix 5664
▁pavilion 5665
▁ushi 5666
▁seta 5667
▁kubo 5668
▁classes 5669
▁happi 5670
modern 5671
print 5672
▁arrangement 5673
▁yoshitomo 5674
▁gozen 5675
▁yoshitsune 5676
▁brothers 5677
▁tsubone 5678
▁yorimasa 5679
▁kimi 5680
藤 5681
原 5682
佐室 5683
▁heiji 5684
隆超 5685
隆起 5686
▁1180 5687
pped 5688
▁sasaki 5689
▁refuge 5690
▁shibuya 5691
numa 5692
▁shimousa 5693
▁princes 5694
▁winning 5695
▁kawasaki 5696
▁sanetomo 5697
▁solid 5698
▁yorii 5699
▁dispatch 5700
▁midnight 5701
▁rebel 5702
▁killed 5703
▁tomo 5704
nao 5705
▁surname 5706
阿 5707
廉 5708
荼枳尼 5709
尼 5710
ī 5711
▁spell 5712
▁english 5713
▁derive 5714
▁farming 5715
▁daikokuten 5716
natural 5717
▁kiyomori 5718
▁discontinued 5719
▁fox 5720
▁inari 5721
▁architectural 5722
▁door 5723
▁yomei 5724
▁politician 5725
kazu 5726
▁isshiki 5727
▁robe 5728
▁secretary 5729
▁siege 5730
fying 5731
▁myojin 5732
▁administer 5733
▁punish 5734
▁intervention 5735
gura 5736
▁punishment 5737
▁nikki 5738
▁journal 5739
▁nickname 5740
▁taxation 5741
▁tonsure 5742
▁illegal 5743
▁taxes 5744
▁jianzhe 5745
▁dazaifu 5746
▁tsukushi 5747
▁supervision 5748
▁collaborat 5749
心恵 5750
▁reizei 5751
▁kitano 5752
▁tsukuba 5753
万 5754
安 5755
郷霊得里東林 5756
q 5757
林曽炳 5758
three 5759
潮音洞主 5760
黄檗希運 5761
密雲円悟 5762
獅 5763
巌 5764
▁vacan 5765
▁shoyu 5766
逸然性融 5767
▁judgment 5768
▁ow 5769
▁conduct 5770
▁impact 5771
▁officials 5772
▁occupie 5773
▁posterity 5774
▁eighty 5775
▁farm 5776
▁native 5777
▁america 5778
▁across 5779
▁continent 5780
▁kingdom 5781
▁surface 5782
.3 5783
▁saru 5784
▁lake 5785
yuki 5786
▁kugyo 5787
▁tone 5788
▁masakado 5789
▁scholar 5790
▁afterwards 5791
▁annotation 5792
▁illustrations 5793
▁biographies 5794
▁cit 5795
▁hiragana 5796
▁bunko 5797
▁oriental 5798
▁library 5799
▁calligraphic 5800
▁refined 5801
▁elegant 5802
▁decide 5803
▁recognition 5804
▁remarkabl 5805
▁neglect 5806
▁plot 5807
▁presumabl 5808
七斎 5809
七七斎 5810
預修 5811
逆修 5812
▁shift 5813
▁repose 5814
▁jusan 5815
▁quantit 5816
▁information 5817
▁dramatic 5818
▁stress 5819
▁kawara 5820
▁staying 5821
▁prepared 5822
▁instruct 5823
▁effective 5824
▁49 5825
▁shinko 5826
▁aware 5827
▁akamatsu 5828
▁parents 5829
▁liaison 5830
▁retainer 5831
▁kaki 5832
▁yoshinori 5833
▁ise 5834
▁1467 5835
▁exchang 5836
▁repository 5837
▁net 5838
▁specifi 5839
▁investiture 5840
▁birthday 5841
▁complicated 5842
▁blind 5843
▁throw 5844
▁tutelar 5845
▁profound 5846
▁introduc 5847
▁certifi 5848
▁sokui 5849
▁gotoba 5850
▁gofukakusa 5851
▁1858 5852
▁joi 5853
▁expel 5854
▁barbarians 5855
▁alias 5856
▁commit 5857
▁hitotsubashi 5858
▁surrounding 5859
▁threat 5860
▁takamori 5861
▁saigo 5862
▁persuad 5863
▁purg 5864
▁flee 5865
▁hyuga 5866
▁drown 5867
▁bay 5868
▁okimi 5869
▁seto 5870
▁shizu 5871
▁strait 5872
▁fisherm 5873
▁kanjin 5874
ohashi 5875
▁washed 5876
▁unveil 5877
▁permission 5878
▁disturbance 5879
▁weather 5880
▁contribution 5881
▁millet 5882
▁porridge 5883
▁huge 5884
tsugu 5885
▁biological 5886
▁hokekyo 5887
▁hizen 5888
▁convert 5889
▁opportunit 5890
wear 5891
▁machi 5892
nami 5893
▁transcrib 5894
▁street 5895
▁severely 5896
▁sue 5897
▁shikoku 5898
▁shigehira 5899
▁individuals 5900
▁goshirakawa 5901
▁engineering 5902
▁workers 5903
▁engineer 5904
▁remote 5905
▁separate 5906
▁iga 5907
▁challenge 5908
▁saigyo 5909
▁dust 5910
▁1185 5911
▁joint 5912
▁striking 5913
ahide 5914
▁matsunaga 5915
▁retainers 5916
▁structures 5917
▁kaisan 5918
▁develop 5919
▁structural 5920
▁penetrat 5921
▁pillars 5922
▁artist 5923
▁ranking 5924
▁shoichi 5925
▁honno 5926
▁amagasaki 5927
▁united 5928
▁1874 5929
▁renamed 5930
▁1941 5931
弁才 5932
才 5933
財 5934
弁財 5935
▁science 5936
▁playing 5937
▁biwa 5938
▁flute 5939
▁daijin 5940
▁chancellor 5941
▁koki 5942
▁tsurugaoka 5943
▁indigen 5944
▁mikoto 5945
▁agriculture 5946
▁islands 5947
▁amount 5948
▁merg 5949
辯才 5950
▁stated 5951
辨財 5952
辯 5953
辨 5954
弁 5955
▁itsukushima 5956
▁kashiwa 5957
▁fuse 5958
▁fuka 5959
▁hakone 5960
▁1932 5961
▁graduat 5962
▁programs 5963
ency 5964
▁technology 5965
hiki 5966
uta 5967
pai 5968
▁naru 5969
! 5970
▁1978 5971
omi 5972
▁komatsu 5973
pass 5974
▁narrative 5975
▁tenmu 5976
▁disaster 5977
▁iwashimizu 5978
▁envoy 5979
▁crest 5980
▁sports 5981
▁saturday 5982
▁procession 5983
miya 5984
▁volunteer 5985
▁fashion 5986
▁examin 5987
▁higher 5988
▁examination 5989
▁abolish 5990
▁relationships 5991
▁bureaucrat 5992
▁breed 5993
▁faction 5994
▁career 5995
▁mochi 5996
▁shaved 5997
▁assassinated 5998
▁togoku 5999
▁generation 6000
▁tenchi 6001
▁kado 6002
▁detached 6003
▁emphasis 6004
▁steward 6005
▁maintained 6006
▁prove 6007
▁entrust 6008
▁kojima 6009
▁resulting 6010
▁involv 6011
▁butsudan 6012
▁alter 6013
▁gorgeous 6014
▁rooms 6015
▁edict 6016
▁cooperative 6017
▁utensils 6018
▁musume 6019
▁choshu 6020
▁imitation 6021
▁operat 6022
▁occasional 6023
▁corner 6024
▁witness 6025
▁parishioner 6026
▁accus 6027
▁stabiliz 6028
▁technologi 6029
▁prosper 6030
▁specialist 6031
▁discriminat 6032
▁equipp 6033
▁platforms 6034
▁numbers 6035
▁electric 6036
▁distribution 6037
▁cable 6038
▁lantern 6039
▁gable 6040
▁tile 6041
▁ornament 6042
▁assembl 6043
▁measurement 6044
▁fittings 6045
▁measuring 6046
▁degree 6047
▁width 6048
▁bread 6049
▁fit 6050
▁owner 6051
▁instrument 6052
▁holder 6053
▁purchas 6054
▁container 6055
▁gifts 6056
▁codes 6057
▁dispos 6058
▁purchase 6059
▁relocation 6060
▁gravestone 6061
▁tax 6062
▁item 6063
▁relation 6064
▁address 6065
▁choice 6066
▁strike 6067
▁taisei 6068
▁goro 6069
▁taro 6070
▁rotat 6071
cur 6072
▁receiving 6073
▁regulation 6074
▁unify 6075
▁keicho 6076
▁candidate 6077
▁announced 6078
▁leave 6079
▁confer 6080
▁supervis 6081
▁advisor 6082
▁department 6083
▁assistant 6084
布教区 6085
特別布教区 6086
▁premise 6087
▁operation 6088
▁instructor 6089
▁lowest 6090
非教 6091
▁yagi 6092
▁hoso 6093
水島 6094
彰 6095
bata 6096
漆畑行雄 6097
▁nori 6098
倉教 6099
▁sapporo 6100
審 6101
▁keishin 6102
▁ltd 6103
斎藤栄順 6104
▁ume 6105
梅屋誠岳 6106
▁submit 6107
▁application 6108
▁organ 6109
▁yen 6110
▁speech 6111
▁greeting 6112
▁offices 6113
house 6114
▁notice 6115
▁personnel 6116
▁1916 6117
▁naito 6118
内得 6119
▁ito 6120
▁handwriting 6121
▁analysis 6122
▁secure 6123
bumi 6124
▁apart 6125
▁fil 6126
▁sensu 6127
▁newspaper 6128
▁gai 6129
▁station 6130
▁parent 6131
▁mito 6132
▁kagawa 6133
▁miyazaki 6134
▁celebration 6135
▁equinox 6136
▁tatsuno 6137
▁sunday 6138
▁kofu 6139
▁clock 6140
▁hour 6141
mairi 6142
▁sadaijin 6143
▁udaijin 6144
▁aunt 6145
▁consort 6146
▁shirakawa 6147
▁shugendo 6148
hito 6149
▁gosanjo 6150
▁abdicat 6151
▁throne 6152
▁taruhito 6153
▁dissatisf 6154
▁plann 6155
▁assassinate 6156
▁test 6157
▁assassination 6158
▁divination 6159
▁unclear 6160
▁archaeological 6161
▁loose 6162
▁demand 6163
▁regain 6164
▁1950 6165
▁metropolitan 6166
▁koken 6167
▁confrontation 6168
ists 6169
▁strife 6170
▁1969 6171
▁appeal 6172
▁quasi 6173
▁promulgated 6174
▁1981 6175
▁universities 6176
▁kotsu 6177
▁personality 6178
▁2006 6179
▁nowadays 6180
▁foods 6181
▁prepare 6182
▁infrastructure 6183
▁erect 6184
▁neighborhood 6185
▁ministry 6186
▁1881 6187
▁crossing 6188
▁police 6189
▁traffic 6190
▁1614 6191
▁exhaust 6192
▁ogimachi 6193
▁resist 6194
▁1582 6195
▁honnoji 6196
▁interven 6197
▁quarrel 6198
▁accelerat 6199
▁centraliz 6200
▁kyokai 6201
▁card 6202
▁koshu 6203
▁seminar 6204
叶 6205
▁submitt 6206
▁blank 6207
▁honjo 6208
▁raid 6209
▁topography 6210
ium 6211
▁conceal 6212
▁excessive 6213
zhi 6214
▁niece 6215
87 6216
▁sennyu 6217
hitsu 6218
▁geisha 6219
▁constable 6220
▁hanazono 6221
▁shochu 6222
▁syllabar 6223
▁dialogue 6224
hikari 6225
▁reappoint 6226
▁natsume 6227
▁conversion 6228
▁intensifi 6229
generation 6230
▁differentiat 6231
▁premises 6232
▁katsuragi 6233
▁okina 6234
naka 6235
▁fellow 6236
osaka 6237
▁french 6238
▁buried 6239
fune 6240
▁hachimangu 6241
▁kore 6242
▁grandchild 6243
▁confin 6244
▁flame 6245
ick 6246
▁humorous 6247
ica 6248
▁innocen 6249
▁posts 6250
▁iku 6251
▁fled 6252
▁honda 6253
▁1867 6254
▁himeji 6255
appointed 6256
▁unification 6257
▁societ 6258
▁labor 6259
▁courage 6260
▁1931 6261
kkei 6262
▁ear 6263
▁consolidat 6264
▁1947 6265
▁180 6266
▁kazusa 6267
▁aizu 6268
▁yoshimi 6269
▁tanaka 6270
▁party 6271
emperor 6272
▁cousin 6273
▁ballad 6274
▁accompaniment 6275
▁instruments 6276
▁sado 6277
▁osa 6278
▁kansei 6279
▁earthen 6280
▁clay 6281
▁straw 6282
▁carving 6283
▁yonago 6284
▁utensil 6285
▁industrial 6286
▁candle 6287
▁kogo 6288
禅ショウ 6289
▁flag 6290
▁copper 6291
▁uchiwa 6292
▁stall 6293
毘炉帽 6294
guruma 6295
▁0 6296
000 6297
▁1615 6298
▁jisha 6299
bugyo 6300
▁magistrate 6301
▁reduced 6302
gashira 6303
▁dealing 6304
▁negotiation 6305
uke 6306
▁registration 6307
▁credi 6308
敬 6309
寂 6310
敬静寂 6311
▁sanyo 6312
▁iwakura 6313
▁commissioner 6314
▁trading 6315
▁bingo 6316
▁shall 6317
▁seclusion 6318
▁reigen 6319
▁hearing 6320
▁cotton 6321
▁maid 6322
▁pregnan 6323
▁lawful 6324
▁distance 6325
▁bore 6326
▁nagato 6327
▁harbor 6328
▁isolat 6329
▁ambition 6330
▁extinct 6331
bunmyaku 6332
▁ikenobo 6333
▁simpli 6334
city 6335
▁kengyo 6336
▁porcelain 6337
▁boku 6338
圜悟墨蹟 6339
▁tenmon 6340
▁fabric 6341
▁fumi 6342
丹 6343
▁fusuma 6344
▁takakura 6345
▁plum 6346
▁seika 6347
▁maeda 6348
▁taiko 6349
▁hyo 6350
▁doors 6351
▁exhibit 6352
▁kuze 6353
▁beauty 6354
▁operated 6355
▁deposit 6356
jyo 6357
▁impurit 6358
▁irregular 6359
▁1998 6360
▁1986 6361
▁sons 6362
▁daughters 6363
▁routes 6364
boku 6365
▁iwami 6366
▁inaba 6367
▁odawara 6368
▁cooperat 6369
▁reclamation 6370
▁tsuba 6371
▁masu 6372
▁higo 6373
▁nanba 6374
▁kinai 6375
worth 6376
▁woodblock 6377
良 6378
忍 6379
仁 6380
▁busho 6381
▁chichibu 6382
▁inform 6383
▁loyal 6384
▁fail 6385
▁kurama 6386
▁decapitat 6387
gawara 6388
▁fortress 6389
▁kanpaku 6390
dokoro 6391
▁1595 6392
▁bizen 6393
▁naishi 6394
▁underground 6395
▁1882 6396
土水供養令 6397
▁1946 6398
立 6399
内 6400
浄覚 6401
玄宝集 6402
maki 6403
▁hunt 6404
▁shooting 6405
▁hunting 6406
▁sh 6407
皮仙 6408
fuyu 6409
▁diplomacy 6410
▁appointment 6411
▁obligation 6412
▁shinzei 6413
▁kasagi 6414
▁report 6415
▁furukawa 6416
▁chikuzen 6417
▁chikugo 6418
▁yamamoto 6419
▁1184 6420
▁iyo 6421
▁sanuki 6422
▁desperate 6423
▁expenses 6424
▁frois 6425
▁christian 6426
▁1573 6427
▁prefix 6428
▁wakashu 6429
▁relations 6430
tenmangu 6431
▁michizane 6432
▁convenience 6433
▁proclamation 6434
tane 6435
▁hachijo 6436
▁walls 6437
▁envoys 6438
▁kobori 6439
▁residential 6440
▁yose 6441
▁gourd 6442
▁sugi 6443
▁sliding 6444
▁tokonoma 6445
▁alcove 6446
▁window 6447
qua 6448
▁layout 6449
▁corridor 6450
▁confucius 6451
▁archives 6452
▁captain 6453
▁monochrom 6454
▁hawk 6455
▁utaawase 6456
▁designation 6457
▁preservation 6458
▁1966 6459
tatsu 6460
▁jugoino 6461
▁jugoinoge 6462
▁tanba 6463
▁transportation 6464
▁minutes 6465
▁shimizu 6466
▁shugakuin 6467
▁railway 6468
▁00 6469
period 6470
▁muraji 6471
▁obey 6472
▁frequently 6473
▁assist 6474
▁income 6475
▁revenue 6476
▁haru 6477
▁yoshiaki 6478
▁1575 6479
▁regular 6480
▁hideyori 6481
▁kodan 6482
▁completion 6483
fushimi 6484
▁azai 6485
▁kitashirakawa 6486
▁overthrow 6487
▁recruit 6488
zong 6489
▁presence 6490
▁chosen 6491
▁geographical 6492
▁curtain 6493
▁instance 6494
▁exterior 6495
▁ukai 6496
▁performing 6497
▁daigaku 6498
▁manyoshu 6499
▁forest 6500
▁glean 6501
▁tanka 6502
▁kosode 6503
▁shijo 6504
▁engi 6505
buchi 6506
▁1179 6507
▁1183 6508
▁yoshinaka 6509
kagami 6510
▁taiheiki 6511
▁bak 6512
▁specter 6513
▁kuwa 6514
nouchi 6515
▁rumor 6516
▁venge 6517
▁complain 6518
▁convince 6519
eri 6520
▁danjo 6521
▁patrol 6522
▁kabane 6523
▁hereditar 6524
▁shoryo 6525
▁prose 6526
▁nephew 6527
▁enem 6528
▁korechika 6529
▁demot 6530
▁dazai 6531
▁message 6532
▁daiei 6533
▁subjugat 6534
▁kiso 6535
▁toshinari 6536
goe 6537
▁drift 6538
▁ryukyu 6539
▁reestablish 6540
▁udaiben 6541
▁controller 6542
imperial 6543
▁invest 6544
閦 6545
▁machine 6546
▁match 6547
▁catalog 6548
august 6549
▁takauji 6550
▁fix 6551
▁yoshiko 6552
▁tsukasa 6553
▁valley 6554
▁week 6555
▁schedule 6556
koshi 6557
solar 6558
▁ashina 6559
▁allegiance 6560
▁nii 6561
▁wakasa 6562
▁1598 6563
▁proof 6564
▁nyogo 6565
▁atsu 6566
▁pillow 6567
▁pay 6568
▁debut 6569
▁nakahara 6570
grandchild 6571
oshi 6572
▁erupt 6573
▁custod 6574
▁omiya 6575
▁> 6576
< 6577
▁furu 6578
▁kanin 6579
▁tada 6580
致遠 6581
▁montoku 6582
月 6583
蔵房 6584
▁sangi 6585
▁councillor 6586
▁provision 6587
▁uemon 6588
▁ohara 6589
▁genpa 6590
▁concubine 6591
▁hikone 6592
▁chujo 6593
▁seventy 6594
year 6595
▁mansion 6596
▁frequent 6597
▁takatsuki 6598
▁plant 6599
谷口 6600
▁confucian 6601
玄慧 6602
玄恵 6603
▁classics 6604
▁collapse 6605
▁1156 6606
hashi 6607
▁miyake 6608
▁blossoms 6609
▁jump 6610
▁suspended 6611
▁kyoho 6612
慶 6613
梵奯 6614
奯 6615
南勝房 6616
南証房 6617
泉 6618
橋 6619
与 6620
寛秀 6621
▁guild 6622
▁boundary 6623
▁folklore 6624
▁valid 6625
▁workshop 6626
▁yukiie 6627
▁dormitory 6628
▁deport 6629
▁kiyosu 6630
▁dut 6631
▁km 6632
▁wait 6633
▁arrival 6634
▁koryo 6635
▁rokuro 6636
▁prescrib 6637
等会 6638
塔頭 6639
塔頭顕 6640
、 6641
勇猛 6642
実教 6643
行運 6644
▁obama 6645
済 6646
新印 6647
▁stored 6648
▁disturb 6649
▁miki 6650
saburo 6651
▁1917 6652
浄 6653
弥陀 6654
▁makino 6655
▁yura 6656
▁kozuke 6657
玄悟 6658
房 6659
▁graveyard 6660
教禅 6661
▁sessho 6662
仙館軒 6663
仙館 6664
▁shonagon 6665
▁interchange 6666
▁sanetaka 6667
▁sanjonishi 6668
▁inaugurated 6669
海昌 6670
▁saiin 6671
▁miyazu 6672
▁furious 6673
▁carriage 6674
▁1000 6675
▁oe 6676
▁seasonal 6677
▁spots 6678
▁ukiyoe 6679
▁lamp 6680
matsuri 6681
▁players 6682
▁photo 6683
bayashi 6684
▁ueda 6685
▁aoi 6686
▁chugoku 6687
玄瑞 6688
瑞 6689
▁manufacturing 6690
▁yosa 6691
▁hill 6692
▁yamada 6693
▁profit 6694
▁currency 6695
堂寮 6696
弘 6697
禅 6698
宏覚禅 6699
▁yoshida 6700
▁imadegawa 6701
静心 6702
▁shogoi 6703
▁onna 6704
▁1964 6705
▁kagura 6706
▁ogasawara 6707
▁buzen 6708
▁retreat 6709
▁ichinomiya 6710
▁momo 6711
深円 6712
精進 6713
▁prompt 6714
▁sakaya 6715
▁shop 6716
▁inland 6717
▁kawai 6718
▁councilor 6719
▁shosho 6720
▁nakagawa 6721
▁yorinaga 6722
▁ayabe 6723
▁kiyohara 6724
ritomo 6725
▁comprehensive 6726
▁conventional 6727
▁tangibl 6728
▁hence 6729
▁quiet 6730
▁glory 6731
▁servants 6732
▁restrict 6733
▁quit 6734
▁apprentice 6735
▁regime 6736
▁drastic 6737
▁guarantee 6738
▁sufficient 6739
▁sought 6740
▁compromise 6741
▁tsuchimikado 6742
祖洞 6743
▁kanroji 6744
▁disorder 6745
▁katsumoto 6746
▁siblings 6747
▁ginkaku 6748
▁eliminat 6749
daijin 6750
▁competition 6751
▁chokusen 6752
▁rakugo 6753
▁urg 6754
籌室玄勝 6755
▁storm 6756
▁mina 6757
▁tadayoshi 6758
▁feud 6759
不放 6760
▁katagiri 6761
▁blam 6762
▁doyo 6763
▁acced 6764
朶 6765
重艮叟 6766
oji 6767
▁matsuda 6768
gimi 6769
▁shima 6770
▁hagi 6771
▁christ 6772
▁ruins 6773
book 6774
▁polit 6775
▁prison 6776
▁1888 6777
▁1892 6778
▁1973 6779
▁1887 6780
▁komei 6781
▁1891 6782
▁1893 6783
▁1894 6784
▁1897 6785
▁1901 6786
▁1909 6787
▁doctor 6788
▁prosperous 6789
漆園 6790
▁scen 6791
▁roshi 6792
▁seppuku 6793
▁disembowel 6794
wait 6795
▁takatsukasa 6796
▁takumi 6797
nokami 6798
▁asano 6799
▁pretext 6800
▁domains 6801
,500 6802
▁singing 6803
▁buckwheat 6804
▁deliver 6805
▁soba 6806
▁topic 6807
▁conversation 6808
▁sasa 6809
▁restaurant 6810
▁stuff 6811
▁jam 6812
▁kazanin 6813
体 6814
▁mogami 6815
▁goyozei 6816
▁widow 6817
▁fuchu 6818
▁debt 6819
▁inoue 6820
▁katayama 6821
▁luxur 6822
▁arrive 6823
▁taxi 6824
duction 6825
▁payment 6826
▁borrow 6827
▁collateral 6828
▁execution 6829
▁helmet 6830
▁confinement 6831
▁dictionary 6832
▁slander 6833
▁business 6834
▁lawsuit 6835
down 6836
▁purification 6837
▁coffin 6838
bukuro 6839
dashi 6840
▁impression 6841
▁signature 6842
▁branches 6843
ise 6844
▁timber 6845
▁etiquette 6846
南 6847
具会 6848
処 6849
▁remind 6850
▁compli 6851
▁goshui 6852
▁contact 6853
▁nitta 6854
agaru 6855
▁fare 6856
▁1.8 6857
▁polish 6858
▁1918 6859
ept 6860
▁toyokuni 6861
▁admission 6862
▁postcard 6863
▁win 6864
▁circ 6865
▁flood 6866
▁earthquake 6867
▁bitter 6868
kasu 6869
▁disadvantage 6870
▁communication 6871
▁unusual 6872
▁wave 6873
▁spoke 6874
▁forget 6875
▁le 6876
tte 6877
▁prevent 6878
▁sleep 6879
▁preparation 6880
▁positive 6881
禪 6882
定 6883
▁konin 6884
confucianism 6885
▁genre 6886
広慧 6887
漣 6888
瑯琊慧覚 6889
▁kokyu 6890
▁kido 6891
破庵派 6892
潙 6893
霊裕 6894
▁korin 6895
殊応 6896
印了 6897
梅 6898
英 6899
曹 6900
慧霞 6901
守澄 6902
石 6903
献蘊 6904
自得慧暉 6905
▁cow 6906
林泉従倫 6907
章 6908
minute 6909
永 6910
潜 6911
雲 6912
居 6913
霊隠 6914
勝 6915
▁tempo 6916
▁rapid 6917
▁expansion 6918
▁shakuhachi 6919
孫張参 6920
輪 6921
▁tayu 6922
▁alleged 6923
chome 6924
▁abura 6925
▁seii 6926
▁taishogun 6927
▁subdue 6928
▁misfortune 6929
▁classic 6930
▁1960 6931
nushi 6932
▁okami 6933
▁sumiyoshi 6934
▁chamber 6935
▁kyogen 6936
▁senbon 6937
▁1869 6938
▁probab 6939
▁1849 6940
▁nagara 6941
▁giant 6942
▁kaya 6943
▁uprising 6944
▁centimeter 6945
▁thick 6946
water 6947
▁burial 6948
▁kawaramachi 6949
▁shino 6950
▁betray 6951
▁behead 6952
▁seinan 6953
▁negotiat 6954
▁acting 6955
▁adjacent 6956
▁collaps 6957
▁carpenter 6958
tsuho 6959
▁arima 6960
▁1995 6961
▁conflicts 6962
▁soke 6963
law 6964
▁yamauchi 6965
hidetsugu 6966
湘南 6967
化 6968
航普済禅 6969
▁reforms 6970
▁hirata 6971
▁tenri 6972
▁mushanokoji 6973
▁1928 6974
▁sagano 6975
▁company 6976
▁matsumoto 6977
▁1962 6978
▁mayor 6979
▁1985 6980
▁1988 6981
é 6982
▁daibu 6983
▁broadcasting 6984
▁sakura 6985
▁buke 6986
▁masayuki 6987
▁elevated 6988
▁switch 6989
▁skills 6990
▁gift 6991
▁kimura 6992
▁steep 6993
▁preface 6994
▁sell 6995
▁taiga 6996
▁1979 6997
▁kabu 6998
▁ochi 6999
▁ogi 7000
▁34 7001
▁capabilit 7002
▁ceiling 7003
宣 7004
▁trains 7005
▁dignit 7006
losing 7007
▁farewell 7008
▁sutoku 7009
▁reorganiz 7010
助 7011
▁performance 7012
▁koyo 7013
養 7014
顕 7015
佛 7016
已心 7017
▁mitsui 7018
▁nengu 7019
▁diaries 7020
▁2003 7021
▁historiograph 7022
▁distinct 7023
坊庫裏 7024
▁tsuke 7025
▁earliest 7026
▁irimoya 7027
▁goods 7028
銅 7029
関禅 7030
骨蔵器 7031
銅骨蔵器 7032
錫外筒 7033
glaze 7034
▁ceramic 7035
▁kaido 7036
▁keihan 7037
▁jr 7038
▁sovereign 7039
▁komachi 7040
▁guest 7041
▁ukita 7042
▁conspir 7043
▁appreciation 7044
紙 7045
墨書永 7046
智覚寿禅 7047
垂誡 7048
幅 7049
墨書聖 7050
忌斎幹縁疏 7051
玉誉 7052
▁cemetery 7053
▁teramachi 7054
▁shibukawa 7055
四萬 7056
覚円 7057
別 7058
随身 7059
▁arisugawa 7060
▁hiko 7061
zaemon 7062
▁okubo 7063
拝匠 7064
▁winner 7065
四町 7066
霊跡 7067
▁agreement 7068
▁sleeves 7069
▁complet 7070
haps 7071
▁abolishment 7072
▁makoto 7073
入定 7074
千百 7075
年 7076
遠忌 7077
要 7078
如苑 7079
導 7080
level 7081
▁professional 7082
▁seat 7083
▁scenes 7084
▁arch 7085
▁kame 7086
▁reinforced 7087
▁tokushima 7088
▁jingu 7089
▁kashihara 7090
▁fusa 7091
▁brocade 7092
字焼 7093
▁bonfire 7094
▁yoshihisa 7095
▁kamigamo 7096
ikazuchi 7097
▁desert 7098
▁1878 7099
▁stock 7100
▁sheet 7101
▁tuning 7102
▁zither 7103
▁hasegawa 7104
▁niwa 7105
▁data 7106
haru 7107
▁subway 7108
▁urasenke 7109
▁worsen 7110
▁imprison 7111
▁shelter 7112
▁overwhelm 7113
▁postpone 7114
▁springs 7115
▁possibl 7116
▁vain 7117
▁printing 7118
▁profession 7119
▁prints 7120
▁adoption 7121
▁japonica 7122
▁mai 7123
▁tiles 7124
stori 7125
▁charcoal 7126
▁humid 7127
▁moment 7128
▁economy 7129
▁kameoka 7130
▁heizei 7131
▁harunobu 7132
bune 7133
▁kitakinki 7134
▁railways 7135
▁ningyo 7136
▁doll 7137
▁fishing 7138
▁dolls 7139
▁princesses 7140
▁reception 7141
▁sumi 7142
▁1926 7143
▁vot 7144
▁locations 7145
▁mimasaka 7146
▁graduate 7147
▁council 7148
▁mourn 7149
▁1972 7150
▁oishi 7151
▁dug 7152
▁yamanouchi 7153
▁factory 7154
▁1944 7155
▁scrap 7156
▁unfortunate 7157
▁bullet 7158
▁yoshimune 7159
▁1927 7160
▁renovat 7161
▁nishiki 7162
▁nakamikado 7163
▁tawara 7164
▁secur 7165
▁kusu 7166
▁ebisu 7167
▁row 7168
▁kilometers 7169
▁dairi 7170
▁danger 7171
▁indigo 7172
onsen 7173
▁hashimoto 7174
硯 7175
▁1922 7176
▁splendid 7177
▁conserv 7178
▁zone 7179
▁1940 7180
▁federation 7181
▁1919 7182
▁1879 7183
▁clerk 7184
▁pale 7185
▁indispensable 7186
gake 7187
▁bunka 7188
▁kenkyu 7189
▁1963 7190
gari 7191
▁kinem 7192
▁film 7193
tachi 7194
▁sanin 7195
mble 7196
▁norinaga 7197
▁fief 7198
▁enlarg 7199
▁takashima 7200
kitada 7201
sister 7202
heishi 7203
▁remarri 7204
▁treatment 7205
▁egg 7206
▁considerabl 7207
convenient 7208
▁allott 7209
▁courtier 7210
▁queen 7211
▁cri 7212
▁resembl 7213
▁shikibu 7214
▁paragraph 7215
▁mishima 7216
▁zeami 7217
▁kawakami 7218
▁yard 7219
▁shite 7220
▁actor 7221
▁griev 7222
▁grat 7223
▁expect 7224
海 7225
愚 7226
利与麿 7227
琢亭 7228
瑛含 7229
▁compet 7230
庫裏 7231
庫裡 7232
裡 7233
裏 7234
▁torii 7235
▁kumagai 7236
▁jiro 7237
▁college 7238
▁hankyu 7239
▁institution 7240
▁monopoliz 7241
▁moronao 7242
western 7243
▁suburb 7244
.1 7245
▁delicate 7246
▁craft 7247
lsb 7248
rsb 7249
▁1952 7250
▁1859 7251
▁haiden 7252
▁mitsuhide 7253
▁akechi 7254
▁1579 7255
▁medal 7256
ç 7257
▁onsen 7258
▁resources 7259
▁tomomi 7260
▁gouda 7261
▁intersection 7262
bushi 7263
▁couple 7264
▁250 7265
▁critic 7266
▁shinbun 7267
▁kinmei 7268
raged 7269
▁ogawa 7270
▁campus 7271
▁demachiyanagi 7272
▁tsutsui 7273
▁camp 7274
▁fighting 7275
▁hydr 7276
▁tokaido 7277
▁buses 7278
▁oyamazaki 7279
▁monet 7280
▁sorrow 7281
▁summon 7282
▁boat 7283
▁narrat 7284
▁akashi 7285
▁bushi 7286
▁cities 7287
▁wrestler 7288
▁matches 7289
suki 7290
▁landlord 7291
kameyama 7292
▁daytime 7293
▁toilet 7294
▁ladies 7295
▁kintetsu 7296
▁ariwara 7297
▁narihira 7298
▁kinugasa 7299
▁1968 7300
▁kawabata 7301
▁monjo 7302
ave 7303
▁sonobe 7304
▁nantan 7305
▁terminal 7306
▁yawata 7307
▁international 7308
▁1989 7309
▁convention 7310
▁protocol 7311
▁joko 7312
▁jimyoin 7313
▁ridge 7314
▁bark 7315
▁nakajima 7316
▁saionji 7317
▁germany 7318
▁european 7319
▁hawaii 7320
▁resignation 7321
▁miyako 7322
▁tenkoku 7323
graphic 7324
▁1955 7325
▁communit 7326
遣 7327
迎 7328
▁worn 7329
▁eboshi 7330
back 7331
▁ginger 7332
▁dipp 7333
▁multi 7334
▁statesman 7335
pei 7336
▁goto 7337
russo 7338
japanese 7339
▁peers 7340
▁mainland 7341
general 7342
▁empire 7343
▁zaibatsu 7344
▁clique 7345
▁guns 7346
▁restart 7347
▁yotsu 7348
▁tozai 7349
▁1907 7350
ily 7351
▁iemoto 7352
▁union 7353
▁1974 7354
▁oh 7355
▁nishikyogoku 7356
▁shita 7357
kusa 7358
board 7359
▁amino 7360
▁bureau 7361
▁kinoshita 7362
澤 7363
暉宣 7364
▁1863 7365
▁1864 7366
▁chas 7367
goro 7368
▁feather 7369
chaya 7370
▁servant 7371
▁chrysanthemum 7372
▁session 7373
▁fisc 7374
▁percent 7375
▁settlement 7376
▁shimabara 7377
▁proposal 7378
▁tune 7379
▁melody 7380
▁afternoon 7381
▁castles 7382
後慈眼 7383
▁warfare 7384
▁speed 7385
▁territories 7386
▁motonaga 7387
▁swordplay 7388
▁martial 7389
築 7390
通護 7391
悟 7392
where 7393
▁assumption 7394
▁align 7395
▁trap 7396
▁mysterious 7397
▁blend 7398
▁label 7399
▁holiday 7400
▁plants 7401
▁oi 7402
▁courtesan 7403
▁kusatsu 7404
▁unexpected 7405
nojo 7406
ū 7407
▁missing 7408
支婁迦讖 7409
ó 7410
è 7411
after 7412
▁zhu 7413
▁component 7414
力 7415
他力 7416
力用 7417
▁ethnic 7418
yang 7419
遥 7420
谷 7421
西秦陵 7422
往 7423
論注 7424
論註 7425
▁tribute 7426
▁occurrence 7427
縁 7428
ｐ 7429
▁statement 7430
mage 7431
satisfaction 7432
▁moat 7433
▁oaza 7434
▁soak 7435
極 7436
楽 7437
湛蕨 7438
▁atmosphere 7439
▁climate 7440
浄土 7441
悉是報身 7442
▁genuine 7443
耳智通 7444
漏尽智通 7445
選択称 7446
往相 7447
業 7448
求 7449
身願 7450
摂浄土願 7451
土願 7452
surance 7453
▁compound 7454
▁oblig 7455
摩提 7456
摩地 7457
▁requirement 7458
▁stead 7459
▁comrades 7460
▁explor 7461
▁gakushuin 7462
gakko 7463
▁shinpachi 7464
▁excavat 7465
▁1913 7466
▁scandal 7467
▁1921 7468
▁hospital 7469
▁maki 7470
是 7471
分陀利華 7472
結誡 7473
▁suzuka 7474
awa 7475
▁sleeve 7476
▁basket 7477
▁sash 7478
▁spare 7479
▁onwards 7480
▁yoshinari 7481
▁reinforcement 7482
▁takahashi 7483
▁engishiki 7484
▁procedures 7485
廃 7486
毀釈 7487
排 7488
棄釈 7489
稀釈 7490
▁peerage 7491
▁marquis 7492
▁50,000 7493
▁encounter 7494
▁compulsor 7495
▁atsuta 7496
▁troop 7497
▁miscellaneous 7498
▁exploit 7499
▁loan 7500
▁ficti 7501
tious 7502
▁produce 7503
▁2,000 7504
▁jingikan 7505
nosuke 7506
▁gokenin 7507
▁ryoshu 7508
▁tandai 7509
▁1906 7510
ley 7511
▁neighbor 7512
▁chamberlain 7513
▁strategi 7514
病筮鈔 7515
▁sales 7516
▁boom 7517
▁buy 7518
mother 7519
▁situations 7520
▁average 7521
▁salary 7522
▁selling 7523
▁encyclopedia 7524
▁team 7525
▁defense 7526
． 7527
▁nippon 7528
▁telephone 7529
▁regiment 7530
▁discharg 7531
▁1929 7532
▁colleague 7533
▁citizen 7534
如教主 7535
剛身 7536
住救鳳 7537
▁grind 7538
▁passe 7539
▁descendent 7540
▁baekje 7541
▁crack 7542
▁irrigation 7543
▁chikurin 7544
▁pottery 7545
▁improvement 7546
south 7547
▁miwa 7548
決定往 7549
六 7550
▁conspiracy 7551
▁omura 7552
妙了 7553
為 7554
yanagi 7555
▁hachiro 7556
zaburo 7557
▁brown 7558
▁warm 7559
▁padd 7560
▁retail 7561
▁kuroda 7562
願我身浄如香爐 7563
願我心如智慧火 7564
念念焚焼戒定香 7565
供養 7566
世佛 7567
心敬礼 7568
住僧 7569
奉請 7570
入 7571
散華 7572
奉請釈迦如来 7573
奉請弥陀如来 7574
奉請観音勢至諸 7575
菩薩 7576
我昔所 7577
造 7578
諸悪業 7579
皆由 7580
始貪瞋癡 7581
従身語意 7582
所 7583
切我今皆懺悔 7584
我れ昔 7585
む 7586
か 7587
よ 7588
もろもろ 7589
悪業 7590
あくごう 7591
は 7592
皆 7593
始 7594
貪瞋癡 7595
と 7596
んじんち 7597
に 7598
由 7599
身語意 7600
んご 7601
ず 7602
な 7603
切我今 7604
っさ 7605
われ 7606
み 7607
懺悔 7608
さんげ 7609
た 7610
つ 7611
▁interval 7612
● 7613
▁moderate 7614
△ 7615
▁cup 7616
▁suspicious 7617
徧照 7618
世界 7619
衆 7620
摂取不捨 7621
膸縁還 7622
普散香華心送 7623
慈心遙護念 7624
同 7625
相勧尽須来 7626
誓願 7627
定散等回向 7628
速証 7629
▁quality 7630
▁sardine 7631
▁oni 7632
▁tanabata 7633
▁chestnut 7634
▁crop 7635
▁catch 7636
▁whale 7637
▁energy 7638
▁steam 7639
mitama 7640
綜藝種智 7641
綜芸種智 7642
▁liberal 7643
Ś 7644
Śī 7645
ṣṭ 7646
▁stations 7647
剛 7648
如是世尊願樂欲聞 7649
佛言菩提心爲因 7650
悲爲根 7651
便爲究竟 7652
祕密主云何菩提 7653
謂如實知自心 7654
祕密主是 7655
耨 7656
多 7657
羅 7658
藐 7659
乃至彼 7660
少分 7661
有可得 7662
何以故 7663
虚空相是菩提 7664
知解者 7665
亦 7666
開曉 7667
相故 7668
祕密主諸 7669
謂虚空相 7670
題目各団体 7671
▁closing 7672
▁ritsumeikan 7673
▁1971 7674
持鉢 7675
自鉢 7676
▁vice 7677
▁loud 7678
▁kuji 7679
hongi 7680
▁narichika 7681
▁smooth 7682
▁plott 7683
▁kikuchi 7684
▁tadamasa 7685
▁osumi 7686
島陰 7687
集 7688
島隠漁唱 7689
▁residences 7690
▁schedul 7691
▁matsuura 7692
▁ships 7693
▁suspicion 7694
▁vivid 7695
▁daijokan 7696
▁confront 7697
萬 7698
▁approx 7699
abi 7700
▁enabl 7701
▁sphere 7702
▁fushin 7703
灌頂歴 7704
灌頂 7705
▁visibl 7706
▁jitsuroku 7707
▁hakase 7708
▁phenomena 7709
▁farmer 7710
▁sushi 7711
▁raw 7712
応 7713
▁steal 7714
▁amago 7715
▁lock 7716
▁expulsion 7717
▁foreigners 7718
等象斎 7719
▁yatsushiro 7720
観霊 7721
# 7722
▁isolation 7723
▁1862 7724
鎚地球略説 7725
視実等象論 7726
▁conquest 7727
▁kobu 7728
▁hime 7729
▁governors 7730
移徙 7731
徙移 7732
▁1860 7733
洪嶽 7734
楞迦窟 7735
不可往 7736
▁yukichi 7737
▁fukuzawa 7738
▁american 7739
葆雨堂 7740
照冰堂 7741
熊 7742
田 7743
▁fuki 7744
吹 7745
黙印 7746
▁expos 7747
支那俗語 7748
臨済慧照禅 7749
語録疏瀹 7750
少林 7751
眼蔵拈錍 7752
▁tumulus 7753
▁dismantl 7754
慶玄 7755
▁sakon 7756
▁lieutenant 7757
▁forgiven 7758
▁guilt 7759
不可思議 7760
帰 7761
命 7762
尽 7763
great 7764
grandson 7765
▁ryakk 7766
▁harsh 7767
鐘 7768
房少輔 7769
枝重 7770
有 7771
香 7772
川 7773
工允 7774
隣善 7775
枝軒 7776
淵龍 7777
水雲集 7778
宇 7779
都 7780
近 7781
行顕 7782
▁prestig 7783
厳寛 7784
紹 7785
灯 7786
関 7787
慧玄 7788
応灯関 7789
圀 7790
麿 7791
刀丸 7792
興親 7793
慶海 7794
実 7795
伊 7796
寛 7797
toge 7798
▁mononobe 7799
▁yaki 7800
▁munemori 7801
▁solution 7802
▁carp 7803
▁masamune 7804
▁togu 7805
▁mineral 7806
764 7807
▁heijo 7808
▁kose 7809
ato 7810
▁keifuku 7811
政遍 7812
▁combat 7813
temper 7814
智弘済禅 7815
boshi 7816
▁hesitat 7817
▁sino 7818
▁honmaru 7819
唯忍 7820
瓔珞羯摩 7821
▁nomura 7822
▁sekishu 7823
▁kizu 7824
▁disinherit 7825
▁tsuruga 7826
scale 7827
慧性 7828
▁dispers 7829
▁tsuka 7830
▁satake 7831
▁teppo 7832
桃花房 7833
桃華坊 7834
▁yotsutsuji 7835
▁sawa 7836
▁congratulat 7837
▁kill 7838
nagon 7839
面影 7840
うつらぬ 7841
き 7842
も 7843
け 7844
心や花 7845
鏡 7846
らん 7847
▁ice 7848
秋風は涼 7849
く吹 7850
ぬ彦星 7851
むすび 7852
紐は今や 7853
くらん 7854
花 7855
らば咲 7856
ぬ 7857
ずゑも 7858
じら 7859
べ 7860
雪降 7861
▁phase 7862
▁gin 7863
▁kaneie 7864
▁credit 7865
nabe 7866
▁potential 7867
▁boast 7868
▁ferry 7869
▁besieg 7870
▁fuyu 7871
▁yoshitaka 7872
▁absorb 7873
▁provok 7874
▁reaction 7875
▁intermedia 7876
govern 7877
fumi 7878
▁wedding 7879
▁british 7880
▁france 7881
▁takano 7882
▁review 7883
▁1937 7884
▁storyteller 7885
▁ribbon 7886
sode 7887
▁performer 7888
▁stir 7889
bito 7890
▁tokuso 7891
蓮聖 7892
蓮性 7893
▁shugodai 7894
▁expense 7895
▁chushingura 7896
▁1915 7897
▁1942 7898
▁okuma 7899
盆燈籠 7900
盆灯ろう 7901
盆灯篭 7902
piece 7903
▁sprinkl 7904
▁cost 7905
\ 7906
▁stalls 7907
▁restrain 7908
▁shortage 7909
▁2009 7910
碧録 7911
▁push 7912
▁skirt 7913
awase 7914
▁check 7915
▁qualifi 7916
康兼 7917
▁rush 7918
▁cylindrical 7919
▁kataoka 7920
深甚微妙 7921
百千万劫難遭遇 7922
aratame 7923
▁francis 7924
avier 7925
▁demesne 7926
▁1873 7927
▁enforce 7928
tsuke 7929
▁motif 7930
▁basin 7931
▁historian 7932
tate 7933
呪 7934
▁ratio 7935
マーナッタ 7936
▁gregori 7937
▁1870 7938
▁hakodate 7939
▁inspect 7940
▁1896 7941
乗如 7942
乘如 7943
▁adachi 7944
▁yonezawa 7945
▁locomotive 7946
mawari 7947
▁preliminar 7948
▁embroider 7949
▁wisteria 7950
▁internet 7951
▁shot 7952
▁faculty 7953
▁tokudaiji 7954
▁units 7955
▁1961 7956
▁1956 7957
▁hollow 7958
円照 7959
ラマ 7960
延寿 7961
恵 7962
慈 7963
慈悲 7964
悲 7965
梵行品 7966
▁mention 7967
▁shigemori 7968
▁score 7969
▁departure 7970
▁eleg 7971
kari 7972
落慶 7973
落 7974
落成 7975
表 7976
変え 7977
。 7978
接心 7979
攝 7980
摂 7981
当摂心在心 7982
bound 7983
余年未顕 7984
円窓 7985
國 7986
▁townspeople 7987
▁belt 7988
▁deliberat 7989
▁chunagon 7990
councilor 7991
仲快 7992
▁matur 7993
現澤 7994
▁jushii 7995
▁election 7996
â 7997
ility 7998
place 7999
結学 8000
press 8001
要当説 8002
権 8003
修利 8004
修理 8005
歴劫迂廻 8006
迂回 8007
相品 8008
横難 8009
横死 8010
横 8011
枉 8012
track 8013
逸れ 8014
横病 8015
▁digest 8016
▁stipend 8017
釋 8018
鸞 8019
如 8020
釋尼 8021
▁plus 8022
▁smell 8023
黒夜 8024
暗夜 8025
次黒夜 8026
此即閻羅侍后也 8027
▁fue 8028
資材珍宝伏蔵 8029
通 8030
年妙薬 8031
▁clinic 8032
bashira 8033
▁jingi 8034
仲 8035
親眤 8036
曽 8037
定使 8038
▁population 8039
▁dango 8040
▁nobuyoshi 8041
▁1221 8042
▁capture 8043
▁battalion 8044
▁grilled 8045
▁yoshitoki 8046
▁emaki 8047
▁junii 8048
.8 8049
因還 8050
▁casual 8051
忽披帖 8052
忽披枉書 8053
忽恵帖 8054
忽披恵書礼 8055
engraving 8056
quality 8057
廿年 8058
廿六 8059
▁outbreak 8060
状 8061
帖 8062
▁yoro 8063
▁provisions 8064
▁nihongi 8065
▁701 8066
▁autonomy 8067
▁strategy 8068
▁soun 8069
▁nakamaro 8070
▁opponent 8071
▁conjectur 8072
▁taika 8073
▁kotai 8074
▁proprietor 8075
▁peasants 8076
▁businesses 8077
▁resort 8078
▁wakisaka 8079
▁roju 8080
▁delay 8081
盂蘭盆 8082
烏藍婆拏 8083
烏藍婆那 8084
▁ethics 8085
頓教最 8086
乘摩訶般若波羅蜜經六祖惠能 8087
於韶州 8088
梵 8089
壇經 8090
何処有塵埃 8091
六祖 8092
寶壇經 8093
▁task 8094
▁clap 8095
菩提達磨 8096
बोधिधर्म 8097
ú 8098
í 8099
á 8100
達磨 8101
達摩 8102
ダーマ 8103
▁iii 8104
ithic 8105
▁ainu 8106
▁chopsticks 8107
▁gambling 8108
▁game 8109
▁holidays 8110
mawashi 8111
▁roman 8112
▁usual 8113
▁vocal 8114
▁kazoku 8115
▁kumi 8116
▁seiz 8117
▁discount 8118
▁yield 8119
▁jito 8120
▁kofun 8121
▁cruel 8122
▁environmental 8123
▁announcement 8124
▁spa 8125
point 8126
▁rhythm 8127
教主 8128
釈迦如来 8129
▁brand 8130
▁crowd 8131
▁shibata 8132
▁concert 8133
▁kobayashi 8134
manship 8135
▁gentle 8136
喰 8137
口 8138
▁tracks 8139
▁ezo 8140
關 8141
狗 8142
性 8143
趙州 8144
▁oba 8145
唐 8146
蔵取經詩話 8147
卍 8148
▁mizuno 8149
shikimoku 8150
▁facilitat 8151
▁aforemention 8152
▁soldier 8153
▁battles 8154
▁bando 8155
▁heat 8156
柴 8157
柴燈護摩 8158
斉燈護摩 8159
_ 8160
▁russia 8161
iberi 8162
▁commenc 8163
▁sovereignty 8164
▁genealogical 8165
▁yusoku 8166
kojitsu 8167
台 8168
▁bit 8169
▁yoshitada 8170
▁comparabl 8171
▁artisan 8172
▁vocational 8173
play 8174
express 8175
▁agent 8176
▁statistics 8177
昭 8178
照 8179
▁nakatomi 8180
▁moriya 8181
▁umayado 8182
▁usurp 8183
▁stable 8184
▁tokusei 8185
▁dajokan 8186
▁amendment 8187
宿曜 8188
火羅九曜 8189
七曜星辰別行 8190
▁leap 8191
算 8192
珍賀 8193
慶算 8194
北斗降臨 8195
▁kiritsubo 8196
▁hikaru 8197
प्रत्येक 8198
बुद्ध 8199
辟支 8200
独覚 8201
行独覚 8202
麟角喩独覚 8203
角 8204
麒麟 8205
声聞 8206
種 8207
種字 8208
▁raising 8209
鬼 8210
母 8211
▁bureaucracy 8212
▁assassin 8213
▁slash 8214
時衆 8215
時 8216
俗時衆等 8217
各發 8218
▁patriot 8219
弌 8220
弥 8221
▁matsuyama 8222
ｗ 8223
▁hanshin 8224
歎異抄 8225
歎異鈔 8226
word 8227
相衆 8228
華厳衆 8229
▁takamatsu 8230
▁planning 8231
▁forestry 8232
▁grudge 8233
▁junnin 8234
何耶掲梨婆 8235
▁yoshinobu 8236
▁aveng 8237
▁sassa 8238
▁viscount 8239
▁shinobu 8240
gaoka 8241
▁resource 8242
▁maxim 8243
－ 8244
▁circulat 8245
▁unchanged 8246
景 8247
傳燈録 8248
伝灯録 8249
敬初 8250
九峯 8251
虔 8252
育 8253
弘通 8254
豊出版 8255
司 8256
民 8257
甯 8258
kaido 8259
▁aoyama 8260
▁natsu 8261
▁1880 8262
▁relay 8263
▁liquid 8264
▁glue 8265
見蓮 8266
兼蓮 8267
direct 8268
浄柱 8269
霽崙超永 8270
▁sequel 8271
智炬 8272
慧炬 8273
南嶽惟勁 8274
地府 8275
抜度儀 8276
剛杵 8277
如保 8278
telling 8279
▁azuma 8280
定恵 8281
定慧 8282
貞恵 8283
▁kamatari 8284
▁kuruma 8285
▁fuhito 8286
▁minbu 8287
哲 8288
徹 8289
▁yokai 8290
▁sequence 8291
▁koka 8292
▁kamigata 8293
稷 8294
▁novelist 8295
▁brewing 8296
修羅 8297
素羅 8298
蘇羅 8299
須羅 8300
素洛 8301
須倫 8302
須輪 8303
障 8304
執 8305
layer 8306
身相 8307
絲種種 8308
綺書 8309
wakeikazuchi 8310
tsuhiko 8311
▁ujigami 8312
mikoto 8313
▁ninigi 8314
枝 8315
▁kanpei 8316
▁sakata 8317
▁umeda 8318
▁yanagawa 8319
▁tanabe 8320
▁subjugation 8321
▁punitive 8322
▁tactic 8323
▁30,000 8324
檀林 8325
談林 8326
▁biwako 8327
▁tamura 8328
▁nava 8329
▁satomi 8330
▁paekche 8331
▁curve 8332
▁katata 8333
▁ukiyo 8334
▁expressway 8335
剛不空 8336
摩耶 8337
▁external 8338
▁preparator 8339
▁jn 8340
▁speculat 8341
▁reproduc 8342
▁reproduction 8343
▁decisive 8344
▁sketch 8345
▁pigment 8346
▁dutch 8347
▁carbon 8348
▁hozon 8349
▁scientific 8350
▁chemical 8351
▁kokuga 8352
▁creativ 8353
▁lumber 8354
▁iwata 8355
肖 8356
シン 8357
侯景 8358
▁keitai 8359
▁bidatsu 8360
▁miko 8361
典 8362
智珪 8363
量壽經優婆提舍願 8364
偈 8365
▁knife 8366
▁manufacture 8367
九品 8368
品 8369
▁brave 8370
▁budget 8371
.7 8372
量議鈔 8373
▁shock 8374
▁beach 8375
▁drain 8376
▁hayato 8377
▁load 8378
▁railroad 8379
▁tsutsumi 8380
▁injur 8381
梅屋念 8382
▁chronology 8383
▁ninomaru 8384
▁shimada 8385
▁oike 8386
▁fudai 8387
▁oribe 8388
▁horseback 8389
▁1865 8390
▁1866 8391
▁hatamoto 8392
▁wakadoshi 8393
▁nagai 8394
gumi 8395
▁feast 8396
▁alli 8397
凸 8398
▁yagura 8399
▁turtle 8400
▁crane 8401
▁partition 8402
▁doshisha 8403
▁lattice 8404
▁ukon 8405
▁shinden 8406
▁parliamentar 8407
▁democratic 8408
▁aesthetic 8409
▁akasaka 8410
▁technical 8411
▁website 8412
▁issuance 8413
▁automatic 8414
▁ticket 8415
▁operator 8416
▁katamachi 8417
keihan 8418
▁shohei 8419
関帝廟 8420
शरीर 8421
▁vinegar 8422
刹 8423
伽藍 8424
僧伽藍摩 8425
僧伽藍 8426
सँघाराम 8427
衆園 8428
僧園 8429
▁priv 8430
浮屠祠 8431
呉志 8432
笮融 8433
銅槃 8434
鑪盤 8435
’ 8436
¥ 8437
▁operate 8438
▁fukuchiyama 8439
▁mineyama 8440
▁tadaoki 8441
▁armies 8442
▁advanc 8443
▁tenshu 8444
maizuru 8445
▁shinsengumi 8446
▁serizawa 8447
▁neutral 8448
▁overlook 8449
▁brick 8450
： 8451
▁manual 8452
▁kosa 8453
▁joseon 8454
海辺巌 8455
▁shamisen 8456
▁cormorant 8457
▁zeze 8458
線刻 8459
尊鏡像 8460
銅千躰 8461
弥陀懸 8462
松竹双雀葦 8463
桐竹鳳凰鏡 8464
求聞持根 8465
像 8466
井 8467
▁unearth 8468
▁yayoi 8469
▁kuruwa 8470
追 8471
▁turret 8472
▁hotel 8473
▁fudoki 8474
▁laboratory 8475
▁nakasen 8476
▁lanes 8477
▁highway 8478
▁takaragaike 8479
▁shinkansen 8480
▁tram 8481
▁flank 8482
▁elaborat 8483
▁sukiya 8484
▁teahouse 8485
▁sophisticated 8486
▁eaves 8487
kazari 8488
▁majest 8489
▁strategic 8490
▁mototsun 8491
▁yusai 8492
▁commerce 8493
▁yoshimura 8494
nokuni 8495
▁weaving 8496
▁kiln 8497
² 8498
▁freight 8499
▁canal 8500
疏水百選 8501
▁channel 8502
stream 8503
▁shimogamo 8504
▁souvenir 8505
▁overnight 8506
illa 8507
▁handicraft 8508
mark 8509
▁graduation 8510
▁athletic 8511
▁textile 8512
▁ministries 8513
▁plaza 8514
▁privately 8515
▁kuzu 8516
▁matsui 8517
▁medium 8518
▁rent 8519
▁coin 8520
▁vendor 8521
▁companies 8522
▁beverage 8523
▁menu 8524
ella 8525
▁bacteria 8526
▁upgrad 8527
▁industries 8528
▁movies 8529
▁actors 8530
▁films 8531
▁eiga 8532
▁manga 8533
▁keeper 8534
▁hirakata 8535
▁utsu 8536
senke 8537
▁omote 8538
trip 8539
プリーズ号 8540
▁typhoon 8541
▁fence 8542
交流博物館 8543
▁captur 8544
▁ownership 8545
▁tourism 8546
擬西洋 8547
海仙 8548
▁batter 8549
▁seafood 8550
食鮮処 8551
れす 8552
砂 8553
魚 8554
▁cars 8555
▁coffee 8556
半 8557
森 8558
▁kitaoji 8559
擬宝珠 8560
葱帽 8561
葱坊主 8562
▁ktr 8563
▁admiral 8564
舞鶴 8565
崎浜観 8566
協会 8567
dayu 8568
舞鶴観 8569
舞鶴市産業振興室 8570
ち 8571
魅力づく 8572
グル 8573
プ 8574
湖 8575
蘇洞 8576
▁jinya 8577
▁suburban 8578
▁farmland 8579
▁sasayama 8580
▁kuninomiyatsuko 8581
▁nagaya 8582
舞鶴海軍軍需 8583
地区 8584
▁warship 8585
▁depot 8586
バルト 8587
園 8588
寒椿 8589
グレー 8590
柳 8591
漁 8592
少 8593
秋 8594
烟景 8595
▁saburo 8596
満州 8597
踊 8598
戸港 8599
朝陽 8600
夢幻 8601
刻 8602
▁fukei 8603
栗 8604
口風景 8605
自画像 8606
按摩さん 8607
夏 8608
待 8609
晴 8610
春 8611
太 8612
夫 8613
港 8614
塩 8615
青衣 8616
叢 8617
芥 8618
紅蜀 8619
画室 8620
客 8621
牛 8622
娘 8623
裳 8624
あ 8625
英さん 8626
浴後 8627
さん 8628
こ 8629
葛庵 8630
蓮 8631
那智滝 8632
竜 8633
庭 8634
馬 8635
洗う 8636
朝顔 8637
牀 8638
水郷欲雨 8639
mugi 8640
麦 8641
流れ 8642
筍 8643
ピアノ 8644
海驢 8645
園裡即興 8646
浄心 8647
菊 8648
白梅 8649
観画 8650
翠巒飛鷺 8651
飛 8652
図 8653
草 8654
霽 8655
鶏頭 8656
▁wholesale 8657
▁resum 8658
霞 8659
庵 8660
群鵜 8661
溪竹新霽 8662
壺 8663
窯 8664
▁wakamiya 8665
▁hotta 8666
▁cycle 8667
物忌 8668
始祭 8669
▁kunai 8670
▁kyudo 8671
zakura 8672
▁theatre 8673
京 8674
シアター 8675
夢 8676
ら覚めた夢 8677
壁抜け男 8678
ふた 8679
ロッテ 8680
ユタ 8681
ふ 8682
ぎ 8683
仲間たち 8684
▁kumiyama 8685
▁bicycle 8686
森鴎外 8687
鴎 8688
區 8689
▁racing 8690
▁cavalry 8691
▁pipe 8692
▁elevator 8693
▁amusement 8694
福智 8695
▁kutsuki 8696
福知 8697
松 8698
住宅 8699
丹波 8700
活衣館 8701
輪卒塔婆 8702
輪解脱 8703
卒塔婆 8704
▁chicken 8705
▁improv 8706
▁ryoma 8707
▁reclaim 8708
▁swimming 8709
▁chushojima 8710
乗閤 8711
持 8712
滴水庵 8713
亭 8714
▁jomon 8715
▁oban 8716
▁weekday 8717
スケート 8718
▁steamed 8719
▁netherlands 8720
▁tsukigase 8721
▁compensat 8722
▁sadaie 8723
▁umekoji 8724
湖底コンサート 8725
▁sakuma 8726
▁championship 8727
▁emblem 8728
▁brita 8729
▁whisk 8730
▁confectionery 8731
▁shuttle 8732
▁uhyoe 8733
渓 8734
彰化 8735
台南 8736
雄 8737
旗 8738
▁marutamachi 8739
ground 8740
▁ramen 8741
▁noodle 8742
▁pitch 8743
▁baseball 8744
▁maiko 8745
▁taga 8746
喜 8747
郎 8748
▁lid 8749
永谷 8750
円翁顕彰会 8751
junoto 8752
重塔 8753
重 8754
塔 8755
▁tumuli 8756
kofun 8757
▁monmu 8758
▁kusakabe 8759
▁chieftain 8760
▁cinema 8761
▁tobacco 8762
▁diesel 8763
▁passenger 8764
▁commuter 8765
▁harada 8766
▁nishioji 8767
▁mobile 8768
▁keyhole 8769
▁kamon 8770
▁comb 8771
▁airport 8772
▁shopp 8773
zume 8774
▁revenge 8775
▁transaction 8776
▁garrison 8777
▁haori 8778
槙島 8779
填島 8780
▁yoshihiro 8781
應 8782
▁yoshichika 8783
▁tozama 8784
▁boshin 8785
▁kizokuin 8786
tanbabashi 8787
▁ginza 8788
▁grill 8789
▁muko 8790
垂魚 8791
駱峰 8792
財団 8793
華財団 8794
碧雲荘 8795
猛虎 8796
▁cluster 8797
楼 8798
樓 8799
閣 8800
楼閣 8801
▁demonstration 8802
▁supermarket 8803
▁takasugi 8804
▁kokujin 8805
屋 8806
▁kanemichi 8807
Ｆ 8808
▁shoot 8809
▁chigusa 8810
▁momiji 8811
→ 8812
▁england 8813
町 8814
町屋 8815
店屋 8816
▁eel 8817
仕舞った店 8818
守 8819
主 8820
closure 8821
▁juice 8822
▁uwajima 8823
▁progressive 8824
復 8825
▁craftsmen 8826
材 8827
fertiliz 8828
▁cash 8829
▁consumption 8830
▁calculat 8831
mikuriya 8832
— 8833
妻 8834
端 8835
▁sashimi 8836
卯建 8837
宇立 8838
produc 8839
▁sakhalin 8840
▁temperature 8841
▁storytelling 8842
ì 8843
▁terminat 8844
▁oshima 8845
▁karafuto 8846
uesugi 8847
〒 8848
▁skewer 8849
▁crab 8850
▁emishi 8851
▁bonito 8852
鰹 8853
堅緒 8854
堅魚 8855
勝男 8856
葛尾 8857
▁jusanmi 8858
郭 8859
▁sanada 8860
▁honden 8861
▁murashig 8862
▁kagekatsu 8863
▁announc 8864
ｌ 8865
ｔ 8866
礼 8867
細 8868
出 8869
栄綱 8870
綱 8871
有馬民 8872
福形荘 8873
‐ 8874
蟹沢 8875
▁mm 8876
▁staging 8877
土 8878
▁knead 8879
籠 8880
皮籠 8881
交合 8882
后 8883
磐座 8884
形 8885
宝形 8886
▁profile 8887
主水 8888
‘ 8889
▁kokudaka 8890
▁wrap 8891
ｋ 8892
▁kibi 8893
裳層 8894
虎口 8895
船崗 8896
▁masayoshi 8897
▁ninmyo 8898
▁fukuhara 8899
▁overlapp 8900
杮 8901
柿 8902
▁fiber 8903
交叉合掌型 8904
▁aroma 8905
芸荘 8906
岐荘 8907
荘 8908
南荘 8909
北荘 8910
東荘 8911
西荘 8912
河 8913
厨 8914
▁brewery 8915
ｈ 8916
▁texture 8917
▁recaptur 8918
▁konoefu 8919
▁sakone 8920
▁genpuku 8921
▁ukone 8922
servant 8923
▁teishi 8924
▁yokooji 8925
▁karo 8926
▁yukinaga 8927
▁konishi 8928
▁wives 8929
玄蓄 8930
玄蓄谷 8931
矢倉 8932
矢蔵 8933
▁reluctant 8934
着見櫓 8935
見櫓 8936
▁squad 8937
keep 8938
▁warlord 8939
▁implicated 8940
▁experiment 8941
岡松 8942
▁inukai 8943
† 8944
▁amateur 8945
▁unprecedented 8946
▁broth 8947
▁kelp 8948
▁manzai 8949
▁troupe 8950
▁snack 8951
▁pollution 8952
▁archery 8953
tenjingawa 8954
▁punch 8955
▁distill 8956
▁malt 8957
▁barrel 8958
▁fermentation 8959
▁arrowhead 8960
▁magatam 8961
▁russian 8962
▁ambassador 8963
▁spanish 8964
▁german 8965
▁theatrical 8966
柵 8967
此 8968
河襟帯 8969
自然作 8970
背 8971
▁keishi 8972
▁cannon 8973
市 8974
堡 8975
▁equestrian 8976
▁checkpoint 8977
à 8978
仲珠 8979
▁isonokami 8980
愁撫塚 8981
舞踊塚 8982
▁yields 8983
℃ 8984
％ 8985
前半分 8986
向 8987
へ 8988
ŏ 8989
▁kaoru 8990
▁unequal 8991
▁treaties 8992
▁abolition 8993
▁conscription 8994
gahara 8995
▁oama 8996
ccession 8997
▁misasagi 8998
▁anaho 8999
広帯冠 9000
▁makimuku 9001
string 9002
▁iruka 9003
▁mobiliz 9004
▁astronomical 9005
▁1590 9006
▁saigu 9007
▁amaterasu 9008
▁omikami 9009
▁himemiko 9010
▁miyasudokoro 9011
▁akiko 9012
▁escort 9013
浮見堂 9014
浮 9015
▁stabb 9016
▁uneme 9017
▁nasu 9018
▁miyatsuko 9019
給羊 9020
羊 9021
鮮 9022
朝鮮 9023
勢 9024
唐橋 9025
瀬 9026
▁takeru 9027
▁sukune 9028
青 9029
畑式土器 9030
▁weigh 9031
▁yamatai 9032
▁shonai 9033
ウワナベ古墳 9034
奈邊古墳 9035
▁mint 9036
▁beef 9037
▁kamaboko 9038
▁ninja 9039
▁hakama 9040
□ 9041
丙午 9042
作 9043
支 9044
刀百練 9045
応星宿 9046
避不祥 9047
▁acid 9048
宝篋印心咒 9049
▁micro 9050
▁jushiinoge 9051
▁yasumaro 9052
左琴 9053
右書 9054
墾 9055
治 9056
▁smallpox 9057
風灰古墳 9058
甲牛年 9059
龍角 9060
° 9061
▁chigyo 9062
▁infantry 9063
▁commut 9064
頭塔 9065
▁hyobu 9066
▁baron 9067
ã 9068
ạ 9069
▁player 9070
矢鱈 9071
▁hyakki 9072
▁protagonist 9073
▁loincloth 9074
▁mirin 9075
ｄ 9076
▁pepper 9077
▁cabbage 9078
▁broiled 9079
▁spice 9080
七種唐辛 9081
七色唐辛 9082
▁seaweed 9083
▁laver 9084
▁gyudon 9085
▁confection 9086
▁portuguese 9087
▁recipe 9088
▁sugar 9089
▁starch 9090
▁ingredient 9091
▁tatsuta 9092
▁roast 9093
▁yeast 9094
▁pork 9095
▁pickles 9096
立花 9097
立華 9098
憂流迦 9099
▁tactics 9100
見冰 9101
▁syrup 9102
賞 9103
紫葉漬け 9104
柴漬 9105
刀 9106
▁craftsman 9107
芯 9108
銑 9109
舌 9110
焼刃 9111
▁yuryaku 9112
▁export 9113
▁commodit 9114
▁ashigaru 9115
▁kuki 9116
shimichi 9117
▁yabusame 9118
dissolution 9119
▁archer 9120
▁shimonoseki 9121
▁passengers 9122
▁protein 9123
▁froze 9124
▁tempura 9125
▁kazunomiya 9126
ｚ 9127
▁umewaka 9128
▁jiuta 9129
能面 9130
▁sarugaku 9131
▁dengaku 9132
gakari 9133
兜飾 9134
▁shizoku 9135
表紋 9136
那須 9137
紋 9138
別紋 9139
控紋 9140
花菱紋 9141
贈紋 9142
同紋衆 9143
西園 9144
実季 9145
路 9146
hakuseki 9147
蓋 9148
旗幕 9149
勤持 9150
重菊 9151
▁koban 9152
▁brid 9153
枠 9154
外 9155
単数 9156
組識 9157
形容 9158
付属 9159
剣 9160
蔓 9161
変形 9162
擬態 9163
車 9164
扇 9165
蝶 9166
鶴 9167
桐 9168
結 9169
浮線 9170
外郭 9171
不発酵茶 9172
漬物茶 9173
あふぎ 9174
あふぐ 9175
▁bale 9176
摺 9177
畳扇 9178
聞香 9179
筯 9180
竹 9181
▁falcon 9182
▁yakamochi 9183
鷹坊 9184
浦恒 9185
伝助 9186
礼射 9187
四半的 9188
射 9189
歩射 9190
堂射 9191
行射 9192
有職故実 9193
矢合せ 9194
体配 9195
矢 9196
遊射 9197
楊弓 9198
奉射 9199
魏志倭 9200
伝 9201
▁clam 9202
笠 9203
反 9204
秀次 9205
尚 9206
朝 9207
豊秀流 9208
射覚 9209
▁bunjin 9210
▁konnyaku 9211
▁pung 9212
保 9213
monme 9214
tokugawa 9215
▁yoshitane 9216
舞娘 9217
▁tabi 9218
▁deploy 9219
▁susano 9220
▁yatsuhashi 9221
つ橋 9222
ッ橋 9223
ひ 9224
おど 9225
ど 9226
▁dough 9227
▁okita 9228
▁jujutsu 9229
忍甲 9230
鹿脅 9231
脅 9232
威 9233
鹿威 9234
▁currenc 9235
▁vending 9236
践阼 9237
践 9238
阼 9239
▁masahiro 9240
▁vanguard 9241
▁boil 9242
▁salmon 9243
▁shrimp 9244
▁squid 9245
灯篭 9246
節 9247
屋棒 9248
gaeshi 9249
糸 9250
絲 9251
▁tametomo 9252
▁toneri 9253
▁teika 9254
shiie 9255
北 9256
鉄漿 9257
▁somen 9258
麩羅 9259
婦羅 9260
▁topping 9261
▁curry 9262
▁mackerel 9263
▁karaoke 9264
襖 9265
衾所 9266
衾 9267
▁ukifune 9268
帳代 9269
室礼 9270
舗設 9271
内簾 9272
衾障 9273
襖障 9274
▁torinoko 9275
釈浄 9276
秀静 9277
奉納 9278
札 9279
▁binding 9280
竪 9281
地唐紙 9282
桐雲 9283
ら紙 9284
毛晋 9285
幣 9286
幣帛 9287
戸 9288
▁hitomaro 9289
絵 9290
倭絵 9291
画 9292
や 9293
夾紵 9294
塞 9295
▁pedigree 9296
▁dynastic 9297
代 9298
▁kinmochi 9299
▁platoon 9300
錆 9301
矢伏射馬 9302
▁fundoshi 9303
▁takemikazuchi 9304
رایجین 9305
▁ienari 9306
▁chawan 9307
▁global 9308
美 9309
雅 9310
▁bento 9311
府漬物協同組合 9312
▁collar 9313
懸帯 9314
掛帯 9315
巓崢 9316
燁々流 9317
茶禮 9318
布 9319
包 9320
簪 9321
牙 9322
旡 9323
曰 9324
釵 9325
鈿 9326
挿す 9327
花挿 9328
髪飾 9329
櫛 9330
苦死 9331
叉 9332
Ｅ 9333
▁nakatsukasa 9334
bakama 9335
▁interrogat 9336
▁unmanne 9337
▁keihoku 9338
▁maneuver 9339
拾両後藤 9340
▁tameyoshi 9341
▁replacement 9342
饗祭 9343
饗 9344
▁hyobusho 9345
▁timetable 9346
节 9347
@ 9348
▁hamamatsu 9349
▁strap 9350
▁izanagi 9351
▁nabeshima 9352
土器投げ 9353
瓦投げ 9354
▁till 9355
林 9356
津 9357
水動閑 9358
閑 9359
漢 9360
動閑 9361
片 9362
左衛 9363
休盛 9364
▁mizoguchi 9365
▁kikugoro 9366
▁ganjiro 9367
▁gidayu 9368
▁playwright 9369
▁onoe 9370
▁sawamura 9371
▁banner 9372
巫 9373
舞 9374
千總 9375
千切 9376
總 9377
總左衛 9378
松囃 9379
松拍 9380
干菓 9381
乾菓 9382
▁headship 9383
博 9384
九 9385
才次 9386
‎ 9387
① 9388
② 9389
③ 9390
④ 9391
⑤ 9392
⑥ 9393
▁octopus 9394
▁ushioni 9395
鏑矢 9396
蕪矢 9397
蟇目 9398
引目 9399
頭 9400
矢頭 9401
覇 9402
台織 9403
間 9404
▁shizuka 9405
＆ 9406
sauce 9407
株式会 9408
イノダコーヒ 9409
イノダコーヒー 9410
▁omelet 9411
▁yoshinaga 9412
則 9413
朝恩 9414
れば 9415
たじけ 9416
く悦 9417
此よ 9418
ければ 9419
説 9420
影 9421
静 9422
虎 9423
甘 9424
▁rescript 9425
氷 9426
▁takoyaki 9427
赤福 9428
▁pound 9429
芒果冰 9430
冰館 9431
雪花冰 9432
冰 9433
寶冰 9434
宝氷 9435
刀削冰 9436
氷水 9437
果実氷水 9438
節句 9439
節供 9440
千陽 9441
千亜紀 9442
蜜柑 9443
▁chemistry 9444
▁sankyoku 9445
萬才 9446
萬歳 9447
漫才 9448
歌留 9449
加留 9450
嘉留 9451
骨牌 9452
七夕 9453
棚機 9454
棚幡 9455
精霊棚 9456
幡 9457
▁calculation 9458
◎ 9459
永樂通寳 9460
hokusai 9461
▁yoshitoshi 9462
▁sugoroku 9463
黄 9464
硫化黄 9465
▁karate 9466
カラテ 9467
▁counterattack 9468
足柄 9469
芦柄 9470
食 9471
強 9472
zake 9473
μ 9474
端麗 9475
淡麗 9476
芳醇 9477
芳純 9478
芳潤 9479
豊醇 9480
▁okuninushi 9481
華佐 9482
耶 9483
姫 9484
佐 9485
夜毘売 9486
花開耶 9487
佐牙弥豆男 9488
佐牙弥豆 9489
酒弥豆男 9490
酒弥豆 9491
酒美豆男 9492
酒美豆 9493
腐 9494
▁katsuobushi 9495
okonomiyaki 9496
麹醤 9497
豆府 9498
▁cutlet 9499
式 9500
阪焼 9501
▁privatiz 9502
賀 9503
迎春 9504
あけ 9505
おめで 9506
うござ 9507
す 9508
謹賀新年 9509
恭賀新年 9510
賀春 9511
恭賀新春 9512
敬頌新禧 9513
頌春 9514
謹んで新春 9515
お慶び 9516
申 9517
げ 9518
謹んで新年 9519
ご祝辞 9520
初春 9521
宋 9522
佑年間 9523
新年賀節 9524
往往使用傭仆持 9525
刺代往 9526
▁ekiben 9527
▁onigiri 9528
駅弁 9529
デ最初ノ駅弁サンドウィッチ 9530
鐡路飯盒 9531
排骨飯 9532
う 9533
▁meteorological 9534
お坊髪 9535
▁brigade 9536
▁yamanaka 9537
ï 9538
ē 9539
' 9540
七草 9541
七種 9542
餅粥 9543
望粥 9544
七 9545
綫條香 9546
盤状香 9547
竹枝香 9548
衛 9549
• 9550
▁itagaki 9551
昆布 9552
こんぶ 9553
コンブ 9554
龍紋 9555
▁drove 9556
若布 9557
稚海藻 9558
裙蔕菜 9559
便當 9560
便 9561
弁え 9562
そ 9563
え 9564
当 9565
辨當 9566
辨當箱 9567
弁当 9568
干 9569
飯 9570
ほ 9571
糒 9572
汁 9573
付 9574
▁keihanshin 9575
豆漿 9576
醸 9577
適 9578
酒 9579
適性 9580
亀ノ尾 9581
ふ先 9582
▁katsudon 9583
ô 9584
喜利 9585
limited 9586
男 9587
九ノ 9588
くノ 9589
格技場 9590
挌技場 9591
▁aikido 9592
鹿島 9593
香取 9594
揚げ 9595
散切 9596
斬切 9597
千斬切 9598
慚愧 9599
残毀 9600
毀 9601
残 9602
芳飯 9603
菜飯 9604
両 9605
分 9606
ジャヤ 9607
ムールティ 9608
ラーマ 9609
式咖哩飯 9610
珈竰 9611
咖哩 9612
磯辺 9613
磯 9614
辺 9615
▁haihan 9616
▁yumiya 9617
ゆがけ 9618
弽 9619
弓懸 9620
弓掛け 9621
色的 9622
▁crushing 9623
死 9624
α 9625
柚 9626
ò 9627
香橙 9628
柚酢 9629
酢 9630
ろう 9631
▁kurosawa 9632
琴 9633
箏 9634
￥ 9635
弦 9636
絃 9637
▁tramway 9638
烹雑 9639
屠蘇 9640
蘇 9641
猿 9642
散樂 9643
申樂 9644
▁wafuku 9645
▁constitutional 9646
幸 9647
箭霊 9648
弓矢 9649
弓箭 9650
的 9651
射交わ 9652
▁matchlock 9653
箭 9654
霊 9655
銀的 9656
破魔弓 9657
浜弓 9658
幸彦 9659
佐知彦 9660
若 9661
雅彦 9662
パスパタ 9663
弱 9664
弓 9665
赤 9666
合気 9667
篠澤佐 9668
右衛 9669
因幡守 9670
篠澤 9671
ヤキトリ 9672
焼 9673
鳥 9674
餅 9675
鬼遣ら 9676
鬼儺 9677
左 9678
▁enroll 9679
▁konparu 9680
弓胎弓 9681
弭 9682
奴籐 9683
等籐 9684
団扇 9685
団 9686
雪花菜 9687
▁naganori 9688
茗荷 9689
冥加 9690
鯉幟 9691
幟 9692
菖蒲 9693
柏 9694
槲 9695
▁puffer 9696
雁擬 9697
懐 9698
料理 9699
会席料理 9700
被褐懐玉 9701
▁spearhead 9702
離剣 9703
▁origami 9704
裏剣 9705
内裏 9706
羊羹 9707
羹 9708
岡 9709
善右衛 9710
露 9711
商 9712
露店商 9713
▁katsui 9714
会席 9715
夏越 9716
越 9717
ころ 9718
ん 9719
瓊脂 9720
詩歌管弦者遐齢延年 9721
也 9722
▁minakuchi 9723
竹輪 9724
半片 9725
半弁 9726
鱧餅 9727
▁geography 9728
香具 9729
弥四 9730
湯葉 9731
湯波 9732
ǔ 9733
投流 9734
刀流 9735
米糖 9736
餅糖 9737
糖花 9738
鑑 9739
望 9740
忘 9741
鼻緒 9742
花緒 9743
▁kinosaki 9744
駄 9745
▁sukeroku 9746
幽庵焼 9747
柚庵焼 9748
祐庵焼 9749
利休揚げ 9750
利 9751
膾 9752
膾炙 9753
炙 9754
鱠 9755
魚膾 9756
肉膾 9757
もろみ 9758
醪 9759
諸味 9760
É 9761
倭 9762
Каша 9763
ž 9764
ă 9765
淡雪 9766
泡雪 9767
わ雪 9768
淡雪羹 9769
出花 9770
出端 9771
愚童随筆 9772
専芳 9773
▁fleet 9774
ë 9775
▁tekka 9776
卵 9777
座 9778
粋 9779
意気 9780
▁oinomikado 9781
伸 9782
烏賊 9783
熨斗烏賊 9784
熨斗 9785
漿醤 9786
醤油 9787
漿油 9788
油 9789
醤 9790
主醤 9791
簀立 9792
スタテ 9793
味噌汁立簀取 9794
俄 9795
仁輪加 9796
歌 9797
加 9798
歌垣 9799
歌掛 9800
懸 9801
嬥歌 9802
灯籠 9803
流 9804
灯篭流 9805
matsudaira 9806
あわれ 9807
物 9808
哀れ 9809
笥 9810
麻 9811
麻笥 9812
催花 9813
波波 9814
前張以 9815
半出 9816
於催馬 9817
朝闇吹 9818
返催馬 9819
拍 9820
撥 9821
桴 9822
枹 9823
獏 9824
香典 9825
香奠 9826
香料 9827
奠 9828
霊前 9829
壱 9830
弐 9831
参 9832
阡 9833
阡円 9834
壱萬円 9835
千円也 9836
惨 9837
苦 9838
志 9839
忌 9840
満 9841
陰志 9842
陰 9843
偲草 9844
び草 9845
召 9846
感謝 9847
七七 9848
七七忌 9849
代非時 9850
唐衣 9851
新帰 9852
訶 9853
礫 9854
さ 9855
で 9856
すむ千鳥 9857
君が 9858
ば 9859
千代 9860
ぞ鳴く 9861
淡路島 9862
通ふ千鳥 9863
鳴く声 9864
幾夜寝覚めぬ須磨 9865
関守 9866
雲掃 9867
掃晴娘 9868
友寿 9869
源 9870
源介友忠 9871
覚々斎好渦唐 9872
水指 9873
治兵衛友輔 9874
頼重 9875
頼実 9876
九満 9877
幾 9878
益 9879
紹芳 9880
紹心 9881
肴 9882
酒菜 9883
菜 9884
ｘ 9885
蹲踞 9886
煮 9887
め 9888
煮染め 9889
煮締め 9890
ほうじちゃ 9891
焙じ茶 9892
袋竹刀 9893
袋韜 9894
袋撓 9895
枡席 9896
升席 9897
お 9898
ぼ 9899
お絞 9900
絞 9901
ざけ 9902
唎 9903
傳書 9904
醸す 9905
醸む 9906
噛む 9907
樔 9908
栖 9909
▁bodyguard 9910
烈而芳 9911
渡邊 9912
岩次 9913
早 9914
豪雄 9915
アロスパス 9916
メル 9917
アルペラチン 9918
屋六衛 9919
笠福 9920
求肥 9921
牛皮 9922
牛肥 9923
吊 9924
▁bills 9925
面 9926
胴 9927
垂 9928
㎡ 9929
櫓 9930
兵庫 9931
全 9932
風邪 9933
風 9934
邪 9935
壇尻 9936
台尻 9937
段尻 9938
▁tsurayuki 9939
絡繰 9940
機巧 9941
機関 9942
唐繰 9943
爆竹 9944
Ｃ 9945
茶櫃 9946
櫃 9947
稲荷寿司 9948
稲荷鮨 9949
嶋 9950
弓懸け 9951
飾 9952
荘厳 9953
軸飾 9954
軸荘 9955
壺飾 9956
壺荘 9957
茶筅飾 9958
茶筅荘 9959
寿留 9960
内喜 9961
留 9962
招財利市 9963
迎春接福 9964
笠懸 9965
笠掛 9966
kihira 9967
鵠 9968
地的 9969
説教節 9970
祭 9971
祀 9972
奉 9973
床世 9974
床 9975
賢者而後 9976
ヶ蔵 9977
葛籠 9978
葛 9979
葛藤 9980
負 9981
亀 9982
柳営 9983
杜 9984
氏 9985
刀自 9986
戸主 9987
刀禰 9988
杜康 9989
頭司 9990
陶 9991
藤次 9992
▁elite 9993
槽 9994
船 9995
南但 9996
南丹 9997
秋鹿 9998
坏 9999
舞妓 10000
うた 10001
唄 10002
毬歌 10003
毬唄 10004
普請 10005
建設 10006
唐音 10007
勧進 10008
招霊 10009
お招霊 10010
残身 10011
残芯 10012
躾 10013
関東煮 10014
巻 10015
黑輪 10016
關東煮 10017
熬点 10018
ǎ 10019
坊 10020
継 10021
達 10022
寿玄 10023
芳玄 10024
統 10025
尾 10026
志能備 10027
苦内 10028
板垣昌秀 10029
沢 10030
彦 10031
破籠 10032
破 10033
つ物 10034
ツ物 10035
者 10036
く 10037
褥 10038
茵 10039
東京錦 10040
東京 10041
四時交加 10042
芳賀 10043
〇 10044
７ 10045
∞ 10046
サンガ 10047
紫 10048
クラブ 10049
紫郊クラブ 10050
▁dismissal 10051
紫郊 10052
僧伽 10053
僧 10054
▁nagashino 10055
携帯す 10056
帯 10057
だ 10058
年玉 10059
ℓ 10060
ù 10061
ế 10062
ê 10063
Đá 10064
س 10065
前座 10066
つ目 10067
ツ目 10068
っ目 10069
ッ目 10070
♭ 10071
穴目 10072
みそ 10073
餫飩 10074
温飩 10075
饂飩 10076
苧環 10077
烏冬麵 10078
烏龍麵 10079
ầ 10080
ὀκτώπους 10081
ĭ 10082
ĕ 10083
紫蘇 10084
シソ 10085
柄鬚 10086
縞蝦 10087
蝦 10088
類聚 10089
雑要抄 10090
勢海老 10091
剣術 10092
刀術 10093
「 10094
た構え 10095
殘らず裁断 10096
除け 10097
其 10098
活 10099
劔 10100
」 10101
術 10102
猪早 10103
井早 10104
胡弓 10105
≒ 10106
詣 10107
衍暦 10108
不等間隔 10109
次差補間 10110
服 10111
洋 10112
着物 10113
着 10114
呉 10115
初令 10116
百姓右襟 10117
衽 10118
袵 10119
地衿 10120
地襟 10121
共衿 10122
共襟 10123
衿 10124
襟 10125
単 10126
単衣 10127
衣 10128
袍 10129
胴服 10130
線麺 10131
演歌 10132
艶歌 10133
怨歌 10134
古賀 10135
古賀政男 10136
夜 10137
妖怪 10138
妖恠 10139
足袋 10140
鞍作止利 10141
鞍作鳥 10142
仙韶曲 10143
仙韶 10144
▁kaieki 10145
吹柄 10146
吹枝 10147
輔曳 10148
▁yugiri 10149
鉦 10150
麗笛 10151
狛笛 10152
笙 10153
簫 10154
笛 10155
磐笛 10156
蘆笛 10157
舂米 10158
おやつ 10159
オヤツ 10160
改定律令違式罪目 10161
色好 10162
逢世雁 10163
声 10164
春画 10165
藻付く 10166
毛 10167
湖筆 10168
蝎虫 10169
粉熟 10170
粉粥 10171
キリシタン版 10172
利支丹版 10173
メキスタ 10174
柚餅 10175
▁totsukawa 10176
拳 10177
早矢仕 10178
餡衣餅 10179
餡 10180
竃 10181
罐 10182
釜 10183
寿司 10184
鮨 10185
鮓 10186
寿斗 10187
壽司 10188
年魚鮓 10189
米魚鮓 10190
貫 10191
お愛想 10192
शालि 10193
馴れ寿司 10194
熟寿司 10195
酒志 10196
須 10197
Ü 10198
蕎麦 10199
投汁そば 10200
茶筅 10201
筅 10202
筌 10203
▁cordon 10204
守破離 10205
離 10206
焼栄螺 10207
浸物 10208
路地 10209
露地 10210
♯ 10211
杢魚 10212
カス 10213
滓 10214
例外対処 10215
加寿利 10216
ō 10217
雪 10218
豊羨 10219
豊綿 10220
録 10221
^ 10222
数奇者 10223
数寄 10224
好 10225
万蔵 10226
Ⅲ 10227
付け 10228
打掛 10229
腰巻 10230
付祝言 10231
附祝言 10232
千秋 10233
千穐 10234
千龝 10235
火 10236
鳥飼 10237
樂 10238
付喪 10239
兵 10240
ごや帯 10241
古屋帯 10242
身欠 10243
磨 10244
禾 10245
系 10246
重織物 10247
鳥足 10248
壽海 10249
寿海 10250
登升 10251
馬印 10252
馬標 10253
馬験 10254
厭離穢土欣求浄土 10255
不及斎 10256
厳 10257
云々斎楊甫 10258
合斎 10259
▁tanuma 10260
茂竹 10261
重府 10262
舟橋希賢 10263
勘 10264
賀直昌 10265
ツマ 10266
香合 10267
香蓋 10268
▁bitchu 10269
喰善知 10270
不式庵 10271
蓮心 10272
順 10273
素蓮 10274
蓮舟 10275
納曽利 10276
納蘇利 10277
相府蓮 10278
想夫憐 10279
被 10280
半被 10281
白溶裔 10282
白容裔 10283
白うね 10284
環 10285
▁taifu 10286
夸 10287
賜緋銀魚袋 10288
賜 10289
借 10290
▁ichinotani 10291
九髪茄 10292
九茄 10293
作物茄 10294
付藻茄 10295
白 10296
百 10297
九髪 10298
狂言回 10299
狂言廻 10300
張星栄 10301
泰 10302
乾茂号 10303
保夫 10304
保宇夫 10305
袖 10306
脩 10307
繁 10308
盛哲 10309
楯節舞 10310
楯伏舞 10311
楯臥舞 10312
休成 10313
揮毫 10314
毫 10315
揮う 10316
知 10317
猟夫 10318
葛函 10319
佐々 10320
甚兵衛浄喜 10321
竈 10322
竈突 10323
竈処 10324
模刻 10325
摹刻 10326
摹 10327
募 10328
倍辰 10329
庶 10330
臺 10331
柄 10332
貨泉 10333
漢委奴 10334
羲 10335
乃 10336
波 10337
乎 10338
止己呂乃 10339
戊辰 10340
戊申 10341
▁hijikata 10342
▁enomoto 10343
▁tsunehisa 10344
▁shizugatake 10345
曜変 10346
耀変 10347
窯変 10348
容変 10349
曜 10350
耀 10351
容 10352
崔嗣復 10353
友尊 10354
不休 10355
首 10356
喜叟 10357
啓 10358
遊巽 10359
寿朴 10360
鏑 10361
祚胤 10362
登喜 10363
牛尾 10364
潮 10365
▁kawanakajima 10366
次 10367
了能 10368
権右衛 10369
意 10370
助虎 10371
然知 10372
使 10373
我 10374
末等 10375
衆聞食 10376
倍止 10377
勝宝九歳 10378
廿 10379
倍留 10380
奈留 10381
頂 10382
尓 10383
受賜 10384
波理 10385
▁benkan 10386
亜 10387
鮎 10388
$ 10389
半纏 10390
服紗 10391
袱紗 10392
莫目 10393
莫牟 10394
捔力 10395
角觝 10396
角力 10397
korea 10398
▁amity 10399
ä 10400
▁treason 10401
雙六 10402
双六 10403
盤双六 10404
Японское 10405
море 10406
일본해 10407
猩猩 10408
猩々 10409
黒猩猩 10410
ö 10411
uterine 10412
▁iratsume 10413
▁jimmu 10414
建 10415
はただ 10416
こむ 10417
みがためは 10418
みがためお 10419
車夫 10420
俥夫 10421
饅頭 10422
万頭 10423
曼頭 10424
瞞頭 10425
蛮頭 10426
千両 10427
花種 10428
ンメ 10429
夜市 10430
路邊攤 10431
牌檔 10432
ü 10433
廓 10434
遊廓 10435
爰通ひ 10436
内番町 10437
▁mochiuji 10438
煎餅 10439
煎 10440
薫火 10441
式雜菜煎餅 10442
仙貝 10443
唐菓 10444
唐板 10445
米菓煎餅 10446
逆櫨 10447
脚 10448
肢 10449
打刀 10450
牡丹餅 10451
夜船 10452
搗 10453
知らず 10454
賛 10455
画賛 10456
薬缶 10457
溷六 10458
蘭亭序 10459
蘭亭叙 10460
叙 10461
序 10462
▁kajiwara 10463
内規台 10464
β 10465
モ 10466
エ 10467
ギ 10468
ビ 10469
ゲ 10470
ベ 10471
ゴ 10472
ゾ 10473
ド 10474
紀 10475
氣 10476
チ 10477
オ 10478
ウ 10479
ア 10480
Ï 10481
コ 10482
増水 10483
雑炊 10484
鳴 10485
由縁 10486
所縁 10487
助六由縁江戸桜 10488
º 10489
江戸前ず 10490
江戸前鮨 10491
江戸前鮓 10492
江戸前寿司 10493
褌 10494
利休饅頭 10495
松風 10496
▁chosokabe 10497
お化け 10498
化け 10499
化け物 10500
化学 10501
夭怪 10502
科学 10503
字化け 10504
船弁慶 10505
舟弁慶 10506
船辯慶 10507
舟辯慶 10508
蹟 10509
佐跡 10510
佐理 10511
跡 10512
『 10513
それぞ 10514
知られ白雪 10515
形見こそ 10516
妹背 10517
情 10518
れ 10519
』 10520
ナラヂュケ 10521
假 10522
忠臣藏 10523
加古 10524
忠臣 10525
又も振 10526
雨 10527
足 10528
足音 10529
闇路 10530
迷わねど 10531
ゆえ 10532
闇 10533
突く杖も 10534
直ぐ 10535
堅親父 10536
はねはわが身 10537
知らず立った 10538
ろよ 10539
逸散 10540
来 10541
猪 10542
これは 10543
らぬ 10544
よぎ 10545
駆け来 10546
猪は 10547
遊ばば祇園あた 10548
色揃え 10549
紫色雁 10550
我開令入給 10551
▁gengobe 10552
側 10553
点 10554
側面 10555
勒 10556
努 10557
趯 10558
鉤 10559
羽 10560
隹 10561
雉 10562
走 10563
策 10564
提 10565
セキ 10566
刺す 10567
掠 10568
撇 10569
啄 10570
磔 10571
捺 10572
詞譜 10573
鶯啼序 10574
満江紅 10575
題 10576
跋 10577
ぶ 10578
傾奇者 10579
歌舞伎者 10580
珍 10581
透 10582
horikawa 10583
僧坊酒 10584
づ 10585
つち 10586
づち 10587
漏 10588
片庇 10589
ここ 10590
刈 10591
取 10592
柴垣 10593
夕顔棚 10594
たよ 10595
あらわれ出でた 10596
秀 10597
網島 10598
網恢恢 10599
傳授 10600
丞相 10601
せ 10602
じ 10603
仕へ 10604
印地 10605
印字 10606
代赫色 10607
隈 10608
狄青演 10609
並行複醱酵 10610
並行複醗酵 10611
竪型精米機 10612
サッカロミセス 10613
セレウヰシェ 10614
酵母 10615
シ幵医殳 10616
医殳 10617
～ 10618
加茂 10619
能 10620
留帖 10621
riyori 10622
▁fujitsubo 10623
▁menoto 10624
贈 10625
亥 10626
自敍帖 10627
▁shorokuino 10628
▁jugoi 10629
暗闘 10630
暗桃 10631
Ⅰ 10632
兵衛 10633
モガ 10634
モダンガール 10635
雄鉦 10636
雌鉦 10637
同逮夜 10638
絹 10639
つぎ 10640
浪漫 10641
松浦 10642
鼓 10643
松浦侯 10644
侯 10645
丁陸六つ 10646
鼓六足 10647
乱拍 10648
千坂 10649
候 10650
鰕 10651
ｘｘ 10652
玄象 10653
凪 10654
薙ぎ 10655
荒れ 10656
起伏 10657
薙 10658
𡵢 10659
楠 10660
梛 10661
那 10662
竹柏 10663
榊 10664
蕩 10665
諾 10666
杵 10667
那岐 10668
那芸 10669
奈 10670
奈癸 10671
奈岐 10672
壽曾我對面 10673
ヶ瀬 10674
ノ瀬 10675
然 10676
巧置 10677
廔々眷み 10678
去 10679
能はざらむ 10680
既 10681
入れば岸壁籬落 10682
際芳雪 10683
霧 10684
較ぶれば尤も絶勝た 10685
封 10686
書 10687
鵜飼 10688
さあちやあわへらんや 10689
やんで 10690
ろす 10691
さんは 10692
すんやお 10693
ちやゑんちや 10694
更裡 10695
照紗窓 10696
我が 10697
む庭前 10698
梧桐尽く揺落 10699
蕭条た 10700
ああ有情も洩れぬ栄枯盛衰 10701
是非も 10702
定めじゃ 10703
でそ 10704
ころは自らが 10705
盛 10706
花や春深 10707
聚 10708
栄華 10709
我ひ 10710
たび笑む 10711
布衣よ 10712
出で 10713
が 10714
余州 10715
掌握あ 10716
閤 10717
何 10718
英雄 10719
嚼米醞酒 10720
飲能至醉 10721
嚼米為酒 10722
飲 10723
亦醉 10724
Ⅳ 10725
Ⅴ 10726
Ⅸ 10727
Ⅵ 10728
浦仕舞 10729
▁colonel 10730
白魚 10731
も霞む 10732
▁bankoku 10733
観世音菩薩 10734
遍照 10735
▁gyobu 10736
▁honinbo 10737
黒眚 10738
ː 10739
ɕ 10740
ũ 10741
洗 10742
草紙洗 10743
豆 10744
又 10745
▁kitabatake 10746
儀 10747
新儀非拠達磨歌 10748
宸 10749
孝親 10750
彦由 10751
祐 10752
▁juichii 10753
紀通 10754
躬仁 10755
實仁 10756
▁shosanmi 10757
広南従四位白象 10758
▁anegakoji 10759
鈍菴慧聡 10760
▁bifukumon 10761
覚珍 10762
邦 10763
楞厳定 10764
室 10765
純仁 10766
李玖 10767
広橋儀 10768
佐々祐條 10769
▁hyobukyo 10770
林斎 10771
渡辺昵 10772
直如覚 10773
繇 10774
孫 10775
茂 10776
融流源 10777
以 10778
增補 10779
▁shogoinoge 10780
▁shonii 10781
同附式 10782
仁主 10783
代要 10784
婬行 10785
媱行 10786
陵所 10787
隨 10788
階 10789
▁jushiinojo 10790
恭隨 10791
西尾兼 10792
町淳 10793
福井登 10794
角有紀 10795
順症 10796
孝 10797
庵察 10798
円堂瑞椿 10799
頼 10800
行助 10801
▁shoshiinoge 10802
▁azechi 10803
万葉集切 10804
詔 10805
言宣 10806
将保親 10807
▁zuryo 10808
▁sahyoe 10809
▁kebiishi 10810
冠直衣 10811
《 10812
》 10813
短 10814
紅 10815
葵 10816
綾 10817
盧舎那 10818
勅 10819
勅書 10820
厳筆徴僧 10821
が戒牒 10822
給ひ 10823
恩勅 10824
賜ふ 10825
楷行草 10826
哭澄 10827
詩 10828
李嶠百詠断簡 10829
資 10830
仙僧 10831
躬 10832
已 10833
母た 10834
詔宣 10835
雄仁 10836
栄雲 10837
祥 10838
聖輔 10839
贄 10840
膳 10841
曇 10842
永照 10843
招 10844
不白 10845
教仁 10846
舟尊梁 10847
尚君 10848
▁sumeramikoto 10849
▁ogimachisanjo 10850
▁ashihara 10851
母以 10852
階堂ガ谷 10853
用堂尼 10854
Ｉ 10855
めでた 10856
ども 10857
賀蘭 10858
相逢う 10859
ささ 10860
以っ 10861
博戯せん 10862
雲井 10863
さは 10864
雲雀 10865
音 10866
みぞ 10867
佐材 10868
佐時 10869
佐頼 10870
佐兼 10871
源佐 10872
源佐親 10873
在式 10874
諳職務 10875
凡在旧典 10876
莫不達練 10877
挙朝重 10878
眞 10879
怡 10880
内親 10881
僐 10882
繕 10883
僖 10884
源兼似 10885
Ａｆｔｅｒ 10886
掲 10887
揚 10888
楊 10889
自 10890
卓峯 10891
冷然 10892
冷泉 10893
海内 10894
腋 10895
丘 10896
干支 10897
相よ 10898
簡 10899
相立 10900
超辰 10901
洞 10902
祝 10903
年条 10904
與 10905
爭禮 10906
不宣朝 10907
而還 10908
君は 10909
せば赤駒 10910
腹這う 10911
陪 10912
▁takamanohara 10913
春過而 10914
夏來 10915
白妙能 10916
衣乾有 10917
香來 10918
足彦忍代別 10919
淤斯呂 10920
比 10921
世孫 10922
観松彦香殖稲尊 10923
訶恵志泥 10924
片岡馬坂 10925
足仲彦 10926
泊瀬幼 10927
谷若建 10928
斯鬼 10929
志紀 10930
活開 10931
建内宿禰 10932
息 10933
宿禰 10934
気 10935
井耳 10936
知保 10937
島連 10938
豊島連 10939
古布 10940
押 10941
莵 10942
宇豆 10943
稻飯 10944
稲氷 10945
彦稲氷 10946
磐衝別 10947
磐撞別 10948
衝別 10949
綺戸辺 10950
弟苅羽 10951
刀弁 10952
衝毘売 10953
磐 10954
波智 10955
櫛別 10956
香彦 10957
振熊 10958
建振熊 10959
難波根 10960
狭穂彦 10961
沙 10962
毘古 10963
狭穂 10964
毘売 10965
佐波遅 10966
売 10967
誉 10968
牟智 10969
佐保 10970
牟 10971
旦波 10972
須美知能宇斯 10973
豊鍬入 10974
豊耜入 10975
豊鉏入 10976
稚 10977
厳稲 10978
毛入 10979
食物 10980
霊が入 10981
瓊敷入彦 10982
瓊敷 10983
印色入 10984
吾 10985
余曾 10986
毘娘 10987
君幸 10988
今 10989
泊瀬列 10990
列 10991
薨去 10992
逝去 10993
万侶 10994
馬来 10995
善包 10996
志帰嶋 10997
斯帰斯麻 10998
渟 10999
倉 11000
珠敷尊 11001
沼 11002
珠敷 11003
珂瑠 11004
軽 11005
閇 11006
越勢能 11007
作歌 11008
此也是能 11009
倭尓四 11010
我戀流 11011
路尓有云 11012
負勢能 11013
鞆乃音為奈利 11014
臣 11015
楯立 11016
思母 11017
意祁 11018
意富祁 11019
億計 11020
弘計 11021
兄去来穂別尊 11022
江 11023
▁nakatsukuni 11024
仁魚 11025
海づく 11026
美努 11027
弥努 11028
美奴 11029
美弩 11030
韓 11031
殺鞍作臣 11032
吾心痛矣 11033
広瀬 11034
風鎮祭 11035
曇稲敷 11036
難波 11037
美濃 11038
兄 11039
智奴 11040
桜井玄 11041
伝雑勘 11042
ノ 11043
孫竝后等 11044
条 11045
所引 11046
穴 11047
孔 11048
鬼前 11049
彦坐 11050
彦今簀 11051
波遅 11052
私斐 11053
茅渟 11054
繫於 11055
吾飼駒當 11056
出兮 11057
駒至今何以為所獲 11058
乎非 11059
宇非 11060
宇斐 11061
意富富杼 11062
袁 11063
杼 11064
意富 11065
意宇 11066
於宇 11067
迦邇米雷 11068
稚筒 11069
若角 11070
麻績 11071
広 11072
麛坂 11073
香坂 11074
忍熊 11075
忍熊別 11076
飯豊青 11077
飯豊 11078
青海 11079
忍海 11080
飯豊青尊 11081
陵 11082
墓 11083
忍壁 11084
忍坂 11085
刑 11086
親 11087
堯 11088
栗隈 11089
栗前 11090
筑紫率 11091
筑紫帥 11092
筑紫 11093
宰 11094
円定 11095
当麻 11096
橘 11097
飛鳥 11098
眉輪 11099
目弱 11100
蒂 11101
重慶 11102
縮見屯倉首 11103
荑媛 11104
荑 11105
草冠 11106
夷 11107
雌鳥 11108
菟 11109
桁 11110
倭迹迹 11111
倭飛羽矢若屋 11112
入媛 11113
碓 11114
牟宜 11115
身毛 11116
諒陰 11117
亮陰 11118
目録 11119
新近問答 11120
旧儀 11121
託基 11122
当耆 11123
当耆内親 11124
泊瀬 11125
冠 11126
冠婚葬祭 11127
西國分 11128
承眞 11129
▁zaichokanjin 11130
男足媛 11131
倍夫 11132
当麻倉 11133
培 11134
増 11135
智岸 11136
姉 11137
従 11138
少従 11139
書吏 11140
少書吏 11141
浄観 11142
桜井 11143
犬 11144
坂合黒彦 11145
蘇我 11146
胤 11147
酺群臣献翫好酒食宴畢賜禄有差 11148
貞熹 11149
豅 11150
龍谷 11151
煕 11152
煕親 11153
▁sojaban 11154
広貴 11155
源有 11156
▁hyojoshu 11157
倍 11158
▁emonfu 11159
條 11160
“ 11161
” 11162
枝音 11163
江音 11164
▁hiromoto 11165
承 11166
基哲 11167
粟飯 11168
藍 11169
粛 11170
哀 11171
百丸 11172
爵 11173
侯爵 11174
男爵 11175
浅井 11176
浅 11177
慶集尼 11178
寿慶 11179
壽慶 11180
弐尼 11181
督 11182
寿忻 11183
左介 11184
章弁 11185
江広 11186
忠興 11187
渡邉 11188
渡 11189
亘鍋 11190
綿鍋 11191
綿奈 11192
綿辺 11193
渡那 11194
渡邁 11195
渡鍋 11196
綿 11197
渡延 11198
邊 11199
渡利 11200
渡里 11201
亘理 11202
亘 11203
渉 11204
理 11205
渡辺源次綱 11206
源次 11207
渡辺契 11208
渡辺薫 11209
織 11210
雲但 11211
南豫史 11212
陸 11213
当午 11214
丹羽 11215
▁reassign 11216
▁uragami 11217
樋爪 11218
爪 11219
河北千町 11220
重岑 11221
菊池 11222
塩松尚 11223
志努 11224
駒 11225
弓束 11226
峯盆 11227
勘兵衛利 11228
古哲 11229
鷹主 11230
当峯 11231
杉 11232
夜岐布 11233
夜支布 11234
養父 11235
江戸 11236
佐伯 11237
伯 11238
谷端 11239
麻気 11240
摩気 11241
胸刺 11242
むざ 11243
无邪志 11244
知知夫 11245
ちちぶ 11246
勅旨牧 11247
府関連遺跡 11248
佐奈 11249
鑽 11250
六所 11251
主祭 11252
学校 11253
市営トロリ 11254
バス 11255
会議 11256
シティエフエム 11257
ハリストス 11258
教会 11259
福音聖堂 11260
級河 11261
琵琶湖 11262
古琵琶湖 11263
烏丸半島港 11264
沖 11265
びわこ 11266
びわこ銀行 11267
びわこ競艇場 11268
びわこ競輪場 11269
びわこ草 11270
びわこ成蹊スポーツ 11271
東びわこ農業協同組合 11272
びわ湖 11273
たんば 11274
賀茂 11275
鴨 11276
▁yodoyabashi 11277
ゼロ 11278
焼窯芸資料館 11279
令制 11280
郷 11281
出鹿郷 11282
余戸郷 11283
皷打郷 11284
前郷 11285
堰 11286
陽さんさんバス 11287
▁kumihama 11288
口枳郷 11289
桂 11290
▁electrifi 11291
料 11292
油座 11293
京区 11294
京圏 11295
央区 11296
岡京使 11297
舞妓物語 11298
shizo 11299
加藤楼 11300
九重 11301
若雲 11302
花雲 11303
禄 11304
観音霊場西 11305
ヶ所阪急沿線出開扉 11306
ネ 11307
鶴線 11308
島 11309
雄島 11310
＞ 11311
乎加乃也 11312
乎乃 11313
也末 11314
留須 11315
鍬靫 11316
於保乎加 11317
加波乃倍 11318
加度乃 11319
波也 11320
留須乃 11321
古利 11322
也佐加 11323
止利倍 11324
於 11325
習静堂 11326
馬橋 11327
布施 11328
桝 11329
別所 11330
荒 11331
池辺郷 11332
有頭郷 11333
横作郷 11334
古烏丸谷 11335
古堀 11336
鷹峯 11337
ﾟ 11338
自性 11339
岩 11340
北河 11341
童 11342
江坂 11343
老 11344
坂 11345
老ノ坂峠 11346
暗 11347
鞍馬 11348
青島 11349
碧 11350
音羽 11351
雲母 11352
埠 11353
埠頭 11354
前島ふ頭 11355
前島埠頭 11356
九鬼ヶ坂 11357
曹司 11358
守館 11359
介館 11360
府 11361
堀 11362
堀ノ内 11363
堀内 11364
邑 11365
邨 11366
新島 11367
屋資料館 11368
但馬 11369
但 11370
黒島 11371
参府 11372
止波 11373
度波 11374
白河 11375
花背峠 11376
花脊峠 11377
幸在祭 11378
礼祭 11379
梅雨 11380
黴雨 11381
毎 11382
倍雨 11383
장마 11384
霖 11385
霉雨 11386
霉 11387
黴 11388
黄梅雨 11389
返 11390
近淡 11391
じょう 11392
新境内地 11393
甘南備 11394
南備 11395
関内 11396
雍尋 11397
州 11398
飛ぶ鳥 11399
近江 11400
鴨鍋 11401
伝教 11402
最澄 11403
雄琴 11404
際ホテル 11405
暖灯館 11406
國華荘 11407
びわ湖花街 11408
ロイヤルホテル雄 11409
里湯昔話雄 11410
湯 11411
芳 11412
善慶 11413
与秋篠 11414
堺相論絵図 11415
辺路 11416
越え 11417
福浦港 11418
那羅 11419
寧 11420
나라 11421
選 11422
撰 11423
誠 11424
試 11425
試衛館 11426
放 11427
般舟 11428
昧去 11429
兄制 11430
摂関 11431
庁 11432
北面 11433
弁官 11434
禁 11435
並 11436
諸 11437
織豊 11438
顕如 11439
牧 11440
戦 11441
伴 11442
連追放令 11443
わび茶 11444
狩 11445
牡丹図 11446
松鷹図 11447
等伯 11448
松林図屏風 11449
水図屏風 11450
南蛮屏風 11451
蒔絵 11452
勅版 11453
草版 11454
物語 11455
曽保物語 11456
葡辞書 11457
千利休 11458
幸若舞 11459
出雲 11460
隆達節 11461
面積み 11462
垣 11463
第 11464
浦 11465
妙喜庵待庵 11466
醍醐 11467
表書 11468
浪 11469
俗論党 11470
政 11471
獄 11472
変 11473
勤 11474
軍防 11475
務局判 11476
被官化 11477
庄 11478
保世持 11479
永全福禄者也 11480
改革 11481
伏見奉行所跡 11482
昵近 11483
▁shitokan 11484
水谷 11485
六波羅 11486
あけちむほん 11487
がさ 11488
ニはらめさせ申 11489
ほん 11490
へ我等よ 11491
へは 11492
どゝ 11493
ハゞ 11494
それハミ 11495
うそ 11496
ハん 11497
存 11498
其ゆへハ 11499
ニはらさせ申 11500
ハ 11501
ゆめ 11502
不申 11503
其折ふ 11504
こさ 11505
びつちうニ 11506
相ニ 11507
それへ 11508
すけニ 11509
あけちこ 11510
由申 11511
たへ 11512
こゝろざ 11513
へバ 11514
おもひ 11515
京へ 11516
我等ハ 11517
へやすさ 11518
じやうらく 11519
ゝ 11520
ゑやすさ 11521
ころも 11522
じゅ 11523
で申 11524
たれぞ 11525
たうくら介 11526
そく 11527
やう共ニ 11528
ぢ 11529
被申 11530
我等其あ 11531
ニつ 11532
たはら 11533
ちへ入申 11534
それ 11535
たへこ 11536
我等ハミ 11537
みほ 11538
ぎわへ 11539
ひが 11540
ニ参 11541
へ出申 11542
其は 11543
わニ 11544
ゝ我等くび 11545
それよ 11546
内へ入 11547
もんハひら 11548
ねずミほど 11549
其くびもち 11550
内へ入申 11551
さだめ 11552
ほろ 11553
くびハうちす 11554
だう 11555
げ入 11556
ひろ 11557
ニも 11558
やば 11559
さげがミ 11560
ろ 11561
我等 11562
らへ申 11563
さむら 11564
うへさ 11565
物め 11566
ハん由 11567
へ共 11568
ハ不存 11569
う蔵介 11570
へわた 11571
ほうこう 11572
衆ハは 11573
たぎぬ 11574
もゝだち 11575
うちへ入申 11576
そこ 11577
くび又 11578
ツ 11579
其物ハ 11580
おく 11581
おびも 11582
刀ぬ 11583
あさぎ 11584
たびら 11585
出申 11586
もはや 11587
ず入申 11588
それヲミ 11589
くずれ申 11590
やつ 11591
げへは 11592
すぎ 11593
其時 11594
共ニくび以 11595
ほうび 11596
くれ被申 11597
ゝ口ざ 11598
坊ニ 11599
蝦夷 11600
蝦狄 11601
狄 11602
はほ 11603
古今 11604
歌集陰 11605
作者次第 11606
堯智 11607
イ 11608
侍 11609
毘羅 11610
禁毘羅 11611
▁tonden 11612
沙塵暴 11613
沙暴 11614
黄砂 11615
黄沙 11616
洲粉塵 11617
黄塵 11618
黄河風 11619
國沙塵暴 11620
황사 11621
黃砂 11622
µ 11623
鄭駙馬宅宴洞 11624
庚午 11625
浦倭乱 11626
監制度 11627
藩校 11628
藩黌 11629
ｒｄｉｎａｎｃｅ 11630
土寇 11631
郡 11632
評 11633
黄慎 11634
朴弘 11635
死我軍尽撤 11636
朝鮮畏倭滋甚 11637
欲與倭通款 11638
又惧開罪 11639
東第 11640
形勝 11641
訓導 11642
口分 11643
政博 11644
受領 11645
婆娑羅 11646
왜관 11647
薺 11648
洞槐井里 11649
塩浦洞 11650
倭館洞 11651
古倭館 11652
土倉 11653
傀儡 11654
堵 11655
京銭 11656
南京 11657
典医 11658
医 11659
遥任 11660
遙任 11661
遥授 11662
遙授 11663
承瑾 11664
桂孫 11665
己地 11666
料給出物 11667
張 11668
宙 11669
類聚鈔 11670
類聚抄 11671
抄 11672
鈔 11673
品治 11674
當麻 11675
以末 11676
摂政 11677
丹後 11678
狼藉 11679
苅 11680
足銭 11681
銭 11682
調陌 11683
アギロールフィング 11684
胡粉 11685
胡 11686
党 11687
出糶 11688
借放 11689
槍 11690
鑓 11691
夫丸 11692
荷宰料 11693
先 11694
衆七 11695
ニノ先 11696
李 11697
吏 11698
妣 11699
筆札華梁 11700
洌 11701
玉云 11702
力折反 11703
寒皃 11704
潔也 11705
イサキヨシ易 11706
折 11707
イサキヨシ 11708
易 11709
イサ 11710
さぎよ 11711
イサギヨシ 11712
スム 11713
サムシ 11714
キヨシ 11715
シ 11716
はげ 11717
我臣 11718
牛鹿 11719
波加麻 11720
古志 11721
占 11722
略決 11723
决 11724
略决 11725
歳次己卯 11726
将加占時 11727
貞応 11728
罡柔 11729
又有范蠡 11730
省不載 11731
右 11732
六卦及九用次第 11733
々 11734
説各不同 11735
又有卅 11736
卦 11737
四卦 11738
或 11739
管載数 11740
内挙 11741
説然 11742
而 11743
煩省 11744
而不載 11745
具存 11746
以智可覧 11747
将加占時視 11748
辰陰陽以立四課 11749
充行 11750
統合 11751
軍 11752
松影是雖 11753
威猛 11754
貞並 11755
結馬 11756
位巳 11757
伻 11758
瓦林 11759
林政頼 11760
且被裁免畢 11761
晴今 11762
澄父也 11763
譲 11764
重并嫡男 11765
依官物負累 11766
司藤 11767
親通朝臣 11768
彼朝臣譲 11769
男親盛朝臣 11770
而依匝瑳北条 11771
由緒 11772
以当 11773
験 11774
所譲給 11775
然者父 11776
譲渡他 11777
畢所也 11778
静謐 11779
毎時 11780
油断あ 11781
らざ 11782
思想 11783
善滋 11784
乗恵 11785
算用状 11786
散用状 11787
依宣行 11788
官符追 11789
慎 11790
埼 11791
崎 11792
埼荘 11793
崎荘 11794
棟梁 11795
棟 11796
梁 11797
雲夢裔沢 11798
南海宝洲 11799
然興雲 11800
ゐ 11801
ゑ 11802
俊如房快誉 11803
円琳坊 11804
仙 11805
白水 11806
黷 11807
司農少卿 11808
紺紙 11809
銀字交書 11810
有志 11811
幡講 11812
箇 11813
銀荘雲龍 11814
銅製 11815
箱 11816
世俗編 11817
呂波字類抄 11818
申状 11819
仲等 11820
らず 11821
傍書 11822
所持 11823
素丁 11824
沙宅万首 11825
年期売 11826
年季売 11827
年紀売 11828
応慎 11829
違例 11830
応重禁制 11831
破損 11832
応慥加修理定額諸 11833
堂舎破損 11834
応重禁制僧俗 11835
故住京及号車宿京舎宅 11836
故任意触穢輩 11837
応重禁制男 11838
俗着服 11839
応重禁制以 11840
銀薄泥画扇火桶及六位用螺鈿鞍 11841
応重禁制六位已 11842
乗車 11843
応重禁制諸司諸衛官 11844
饗宴碁 11845
輩 11846
応重禁制主計主税 11847
寮官 11848
称前分勘 11849
求賂遺抑留諸 11850
Ⅷ 11851
詩四病 11852
諸句体 11853
請禁奢侈 11854
請停売官 11855
請不廃失鴻臚館懐遠 11856
励 11857
寄作 11858
牟礼 11859
恒 11860
鄭舜功 11861
直 11862
楊宜 11863
壱度検 11864
不熟 11865
除 11866
± 11867
蘆 11868
芦 11869
葦 11870
ả 11871
赤坂 11872
万历朝鲜战争 11873
朝鲜壬辰卫 11874
战争 11875
心怨叛 11876
， 11877
與倭同心耳 11878
我民亦曰 11879
倭亦 11880
吾等何必棄 11881
而避也 11882
？ 11883
崔湖 11884
再 11885
恩 11886
趙憲 11887
彦伯 11888
崔慶会 11889
千鎰 11890
貞昌 11891
新塞 11892
烈祖成蹟 11893
円 11894
契壷司 11895
菅 11896
季親 11897
季 11898
▁shionoya 11899
鴻 11900
臚 11901
鴻臚 11902
全霜林 11903
沈 11904
李延孝 11905
島館 11906
賀取 11907
椙 11908
古帳 11909
土橋若 11910
粟 11911
脇庵 11912
智荘厳 11913
重藤 11914
藤内 11915
谷左 11916
井出 11917
右近 11918
蓮池坊 11919
岡衆 11920
湊衆 11921
湯河教春 11922
榎峠 11923
地郷 11924
沙沙貴 11925
君 11926
狭々 11927
志駄 11928
及 11929
およぶ 11930
笈 11931
翁 11932
左頭 11933
つ巴 11934
媛 11935
能瀬 11936
能世 11937
柴垣草紙 11938
柴垣草 11939
土代 11940
土台 11941
卑彌呼 11942
卑 11943
以死 11944
卑弥呼 11945
広く会議 11946
万機 11947
決すべ 11948
決 11949
私 11950
論ず 11951
列侯会議 11952
議輿論 11953
議 11954
綸 11955
行うべ 11956
民心 11957
行ふ 11958
要す 11959
行ふべ 11960
行う 11961
官 11962
途庶民 11963
遂げ 11964
倦 11965
ざら 11966
めんこ 11967
庶民志 11968
欲す 11969
至 11970
迄各其志 11971
旧来 11972
陋習 11973
基づくべ 11974
宇内 11975
従ふへ 11976
智識 11977
求め 11978
基 11979
振起すべ 11980
求め広く 11981
振起すへ 11982
未曾有 11983
変革 11984
為ん 11985
朕 11986
先んじ 11987
定め 11988
万民保全 11989
立ん 11990
たこ 11991
趣旨 11992
協心努力せよ 11993
年号 11994
諱 11995
［ 11996
］ 11997
勅意宏遠 11998
感銘 11999
堪えず 12000
急務 12001
永世 12002
基礎 12003
他 12004
出べ 12005
臣等謹んで叡旨 12006
奉載 12007
黽勉従 12008
冀くは以っ 12009
宸襟 12010
じ奉らん 12011
慶応四年戊辰 12012
総裁 12013
卿諸侯各 12014
毛伐郡 12015
狛族 12016
四禽叶図 12017
相応 12018
Евгений 12019
Алексеев 12020
参勤交代 12021
覲 12022
参覲 12023
参勤 12024
交替 12025
交代 12026
もんめ 12027
匁 12028
目 12029
歩 12030
朱 12031
鋌銀 12032
挺銀 12033
丁銀 12034
取納 12035
与左衛 12036
銀 12037
以南鐐 12038
片換 12039
判 12040
兩 12041
寸 12042
攘 12043
寛永通寳 12044
寳 12045
尺 12046
丈 12047
丈夫 12048
勺 12049
斤 12050
鈞 12051
銖 12052
÷ 12053
即 12054
共引 12055
周 12056
虚亡 12057
速喜 12058
物滅 12059
滅 12060
赤口 12061
＋ 12062
輝虎 12063
輝 12064
侠 12065
遊侠 12066
謀反 12067
謀叛 12068
謀 12069
叛 12070
逆 12071
尋 12072
友卿 12073
七等出仕 12074
表現 12075
変更 12076
レジマン 12077
ễ 12078
白江 12079
講 12080
条約 12081
淸媾 12082
條約 12083
馬關條約 12084
帝位 12085
溥儀 12086
朝廷 12087
砲兵 12088
支廠工兵各 12089
１ 12090
陸軍省第１局 12091
省内各局参謀近衛病 12092
軍馬局 12093
２ 12094
壬申 12095
府県 12096
里 12097
開化 12098
右僕射源朝臣 12099
康 12100
律令 12101
律例 12102
律 12103
令 12104
例 12105
格 12106
格式 12107
腐刑 12108
倭奴 12109
総務 12110
順帝 12111
雞彌 12112
輩雞彌 12113
掌客裴世 12114
等至 12115
億 12116
おも 12117
解けぬ 12118
季秋やうやく 12119
冷 12120
こどころ 12121
如何 12122
想う 12123
悆 12124
らむ 12125
此は即ち 12126
謹み 12127
白す 12128
つぶさ 12129
臣源表 12130
環濠 12131
環壕 12132
▁izanami 12133
臺灣總督府 12134
功学派 12135
辛亥年七 12136
七年戊戌 12137
立在 12138
葛項 12139
垝 12140
意冨 12141
跪 12142
沙鬼 12143
沙鬼獲 12144
刊刀 12145
各 12146
了臣 12147
戊辰年 12148
四年 12149
陽 12150
百錬 12151
七支刀 12152
辟百兵宜供供 12153
異体字 12154
尸 12155
先世 12156
ﾛ 12157
来未有此刀百済 12158
奇 12159
音又は晋 12160
故為 12161
旨 12162
辟百兵宜供供侯 12163
先世以来未有此刀百濟 12164
聖音故為倭 12165
講修官議政府堂 12166
輩雞弥 12167
敬白西 12168
邪靡堆 12169
於邪靡堆 12170
成斤 12171
束 12172
計帳 12173
牌 12174
ě 12175
جمنكو 12176
ツィァパングォ 12177
紀伝体 12178
列伝 12179
后紀 12180
列侯 12181
段 12182
斛 12183
朝臣 12184
曽美 12185
旦臣 12186
使主 12187
邪馬臺國 12188
邪馬壹國 12189
臺與 12190
壹與 12191
巷奇 12192
絶貫 12193
蘇伐 12194
沙梁 12195
彼 12196
鄭檜 12197
逸戸 12198
漸梁 12199
韓岐 12200
台与 12201
目戸切 12202
打係縷亜那 12203
米 12204
æ 12205
尚歯 12206
宰府 12207
陶器 12208
祐筆 12209
址 12210
Ä 12211
西丸 12212
鈴廊 12213
詰 12214
玉沢 12215
藤少卿左衛 12216
水海 12217
絶 12218
忠政 12219
⋯ 12220
黒鍬 12221
畔鍬 12222
各源流 12223
殊 12224
彼れ 12225
此れ 12226
移すべ 12227
屯 12228
宅 12229
イルチンフェ 12230
尹始炳 12231
李容九 12232
이용구 12233
林歌局 12234
総類 12235
百卉 12236
景宋 12237
叢刊 12238
編 12239
重印 12240
桂園 12241
令データ提供システム 12242
令索引 12243
富夲 12244
夲 12245
富 12246
勇隊 12247
虎勇隊 12248
竜勇隊 12249
隊 12250
不動 12251
全海 12252
諸芸能ノ 12253
学問也 12254
タリト雖モ 12255
其ノ器用 12256
キハ 12257
摂関ニ任ゼラレルベカラズ 12258
況ンヤ其ノ外ヲヤ 12259
器用ノ 12260
仁躰 12261
年老ニ及ブト雖モ 12262
辞表有ルベカラズ 12263
但シ 12264
辞表有リト雖モ 12265
再任有ルベキ 12266
ノ官位ハ 12267
当官ノ外タルベキ 12268
改 12269
漢朝年号ノ内 12270
例ヲ以テ相定ムベシ 12271
関白 12272
伝奏並ニ奉行職 12273
等申渡ス儀 12274
ノ輩相背クニ於テハ流罪トナスベキ 12275
紫衣ノ 12276
住持職 12277
先規希有ノ 12278
近年猥リニ勅許ノ 12279
且ツハ臈次ヲ乱シ 12280
且ツハ官 12281
ヲ汚シ 12282
甚ダ然ルベカラズ 12283
向後ニ於テハ 12284
其ノ器用ヲ撰ビ 12285
戒臈相積ミ智者ノ聞ヘ有ラバ 12286
ノ儀申シ沙汰有ルベキ 12287
貴妃 12288
淑妃 12289
德妃 12290
賢妃 12291
昭儀 12292
昭容 12293
昭媛 12294
修儀 12295
修容 12296
修媛 12297
充儀 12298
充容 12299
充媛 12300
婕妤 12301
保林 12302
采 12303
内侍省 12304
徴兵 12305
懲役 12306
芸 12307
芸能 12308
園芸 12309
邇藝速 12310
館 12311
丁頭 12312
菊地節蔵 12313
美代 12314
濯 12315
斗 12316
升 12317
枡 12318
済物浦 12319
視 12320
畝 12321
務省 12322
離別 12323
今般双 12324
以及離 12325
然ル 12326
者其 12327
縁組 12328
共 12329
札如件 12330
廿四 12331
おせ 12332
深厚宿縁浅薄 12333
不有私 12334
雖他え 12335
嫁 12336
言違乱 12337
仍如件 12338
弘化四年 12339
爪印 12340
くど 12341
輸租 12342
租 12343
職分 12344
植 12345
澄 12346
政登 12347
合戦 12348
戦争 12349
− 12350
友愛 12351
線星型 12352
角形 12353
√ 12354
咫 12355
咫鏡 12356
尺鏡 12357
咫烏 12358
尺瓊勾玉 12359
韓併合 12360
朝鮮合併 12361
韓合邦 12362
併合 12363
紫香 12364
阯 12365
唐丞相曲江張先 12366
墨書 12367
贈豊 12368
閤冊封 12369
일본 12370
천황 12371
騶衍 12372
鄒衍 12373
孫発 12374
Ö 12375
火立場 12376
血 12377
打毀 12378
連 12379
姓 12380
早相止連 12381
酒宴 12382
可被催暇景遊 12383
通寳 12384
友 12385
考 12386
自由党 12387
憲政党 12388
立憲政友会 12389
南越 12390
Đạ 12391
制 12392
海東 12393
南蛮北狄自ら来朝す 12394
帝陛 12395
曰く 12396
涇陽 12397
貉龍君 12398
撐犂 12399
混 12400
疆理歴代 12401
寮 12402
ウエツフミ 12403
朝隠 12404
隠 12405
市隠 12406
囲碁 12407
弈 12408
博弈 12409
四絶 12410
官途状 12411
知令 12412
地令 12413
親雲朝諒 12414
恵備 12415
地利及 12416
夏目 12417
隠叢話 12418
甘粕備後守 12419
内図書 12420
仙右衛 12421
曾 12422
桑折図書 12423
伝右衛 12424
彌 12425
介 12426
可申遣 12427
分外 12428
崎内蔵助 12429
桑折東 12430
篭 12431
濱尾漸齋 12432
雑賀 12433
壽悦 12434
亘理右近 12435
虎菊丸 12436
佐スチ以来共 12437
相馬ヨリ 12438
切可仕由必定ニ付而 12439
儀共調 12440
ハゝ 12441
越茂介 12442
被申付 12443
ノ唱モ能々承 12444
乾 12445
魚屋町 12446
舟町 12447
衛視 12448
海内升 12449
路不拾遺 12450
外戸不閉 12451
商旅 12452
宿焉 12453
教案 12454
宋福恒 12455
歴聖図像 12456
起 12457
注 12458
宋会編 12459
賓 12460
七朝聖藻集 12461
版 12462
呉応箕 12463
索紋土器 12464
縄紋土器 12465
縄 12466
土器 12467
召使 12468
少納言侍 12469
土橋種興 12470
鈴 12471
重興 12472
澤房満 12473
ğ 12474
池 12475
唼 12476
恵頓 12477
羅伯特 12478
赫 12479
丁韙 12480
張嘉寧 12481
星軺指掌 12482
便覧 12483
会通 12484
北京崇実館 12485
題其 12486
論邦 12487
自治 12488
自主 12489
論諸 12490
自然 12491
論其自護 12492
論制定律 12493
論各 12494
掌物 12495
時往来 12496
論通使 12497
論商議立約 12498
論交戦条規 12499
論戦始 12500
論敵 12501
交戦 12502
論戦時局外 12503
約章程 12504
伯理璽 12505
統領 12506
海申昌 12507
蔡鍔 12508
広智書局 12509
林啓 12510
閩学会 12511
袁飛 12512
訳書彙編 12513
労麟賜 12514
林学知 12515
堅土 12516
蕃地 12517
務局 12518
恕 12519
老皀館 12520
物者 12521
蘭畢洒林 12522
際 12523
西学書 12524
両截体制 12525
鳳珍 12526
范富庶 12527
阮 12528
阮進 12529
č 12530
γ 12531
Ĵ 12532
図們江 12533
鏃 12534
矢尻 12535
崇 12536
百錬抄 12537
百練抄 12538
百練鏡 12539
練 12540
錬 12541
演説 12542
知説 12543
個 12544
個々 12545
各個 12546
民各個 12547
悦弥 12548
司工 12549
半通印 12550
交満 12551
充侍 12552
遭喪 12553
悪解 12554
寄合所 12555
通路所 12556
葛宝 12557
祇宝 12558
主尊 12559
魂 12560
豊布 12561
囻 12562
登器 12563
開器 12564
不孝 12565
西京 12566
顧 12567
芸閣集古印譜 12568
印藪 12569
秦漢印統 12570
程 12571
程樸 12572
何震印選 12573
呉式芬 12574
薤留珎 12575
芸窗酔銕 12576
別假 12577
定省假 12578
淋假 12579
喪假 12580
私假 12581
Đô 12582
オウトレ 12583
コント 12584
デ 12585
ラ 12586
ツール 12587
ブライト 12588
ゴムイセフ 12589
可夜 12590
直掩備 12591
丁字屋 12592
報 12593
斗米 12594
誥 12595
教霊験 12596
福地岳瀆 12597
内丹術 12598
錬度 12599
篇 12600
内丹 12601
庚申 12602
辛亥 12603
引 12604
回 12605
引廻 12606
利倉 12607
濃 12608
軽歩兵 12609
番 12610
補陀落 12611
補陀洛 12612
普陀落 12613
普陀洛 12614
銭預札 12615
帥升 12616
倭面土國 12617
麻呂 12618
請仮解 12619
請暇解 12620
万役 12621
万若 12622
祁 12623
断獄律 12624
７０８ 12625
夫銭幣 12626
有レ 12627
不レ飽 12628
不レ暖 12629
故穀帛穀不レ可 12630
而銭幣可 12631
百年 12632
銀鋪 12633
兌房 12634
銭荘 12635
銀楼 12636
鍾 12637
鷲 12638
熟 12639
是助 12640
行隆 12641
庸訓 12642
鼓坂荐海 12643
邪馬台 12644
耶馬台 12645
壹与 12646
邪馬 12647
邪馬臺 12648
壹 12649
登 12650
球磨 12651
菊池彦 12652
有棺 12653
槨 12654
到 12655
移 12656
稲 12657
蔵壹两 12658
弘前 12659
窪 12660
能代 12661
湯澤 12662
角舘 12663
榮 12664
甚兵衛 12665
口余 12666
サ 12667
マ 12668
隣 12669
謄 12670
改料 12671
頃 12672
市頃 12673
倭在韓東南 12674
島為 12675
凡百餘國 12676
在帶 12677
東南 12678
島爲國邑 12679
舊百餘國 12680
漢時有朝見者 12681
今使譯所通 12682
島爲國 12683
倭國在百濟新羅東南 12684
水陸 12685
千里 12686
島而 12687
奴 12688
委 12689
可 12690
入鹿 12691
馬鹿 12692
擔 12693
機関委託ニ関スル取極書 12694
우정총국 12695
クレマンセー 12696
韓通 12697
業務合同紀念切 12698
業務合同紀念 12699
郵便 12700
紀念 12701
合同 12702
逓 12703
省第 12704
年報 12705
朝鮮総督府始政紀念 12706
染典 12707
雇 12708
其兵有矛楯 12709
弓竹矢 12710
或以骨為鏃 12711
兵用矛楯 12712
弓短 12713
竹箭或鉄鏃或骨鏃 12714
唐貿易 12715
不私議 12716
曲礼 12717
役 12718
▁tamakazura 12719
▁niou 12720
陬麻 12721
陬磨 12722
未通 12723
乙通 12724
賢 12725
槿 12726
匂兵 12727
卿 12728
匂 12729
寄 12730
宿 12731
晩春 12732
剪枝畸 12733
剪枝 12734
剪 12735
畸 12736
ｊ 12737
ｆ 12738
故 12739
ｓ 12740
東鑑 12741
適有 12742
営 12743
臈 12744
卿宰相弁奉 12745
歟 12746
業鏡 12747
七年 12748
槌撃砕 12749
坦然 12750
頌云 12751
増集続伝燈録妙堪 12752
後代 12753
▁sakonoe 12754
象戯 12755
将棊 12756
不可説 12757
不可説々々々 12758
言語 12759
断 12760
醒酔笑 12761
範 12762
ｖ 12763
馳射 12764
先是 12765
品舎 12766
奉勅修 12767
至是功成奏 12768
紀卅卷系圖 12769
卷 12770
字唯刻 12771
結繩敬佛 12772
於百濟求得佛經始有 12773
百済 12774
交 12775
延喜講 12776
百済新撰 12777
紀合 12778
即位前紀 12779
▁tsukuyomi 12780
お伽草 12781
ぎ草 12782
俳諧 12783
誹諧 12784
枕詞 12785
次詞 12786
枕言 12787
落書露見 12788
冠辞 12789
序詞 12790
諺 12791
うつほ物語 12792
保物語 12793
梁塵 12794
塵 12795
漕 12796
江談抄 12797
行歌 12798
渋谷嘉次 12799
詠 12800
ドウ 12801
得 12802
つつゐづつ 12803
帥 12804
読み不 12805
維 12806
維繁 12807
忠実 12808
忠見 12809
庵主 12810
廬主 12811
匡衡 12812
仲物語 12813
百首歌 12814
百ち 12815
備進 12816
供祭 12817
分米 12818
玉輪庄 12819
崎庄 12820
紀七 12821
腰瀧口 12822
佐藤季 12823
守藤 12824
首藤 12825
老翁 12826
ウラシマ 12827
媛蹈鞴 12828
鈴媛 12829
須気余理 12830
富登 12831
須岐 12832
余斎 12833
鶉翁 12834
淡路庄 12835
丸 12836
尾乃 12837
四垂尾 12838
永夜乎 12839
鴨將宿 12840
薨 12841
卒 12842
ﾙ 12843
崎鐵丸 12844
畠康寿 12845
備 12846
竹内 12847
歌枕 12848
皮留 12849
佐乃皮斯米 12850
刀斯 12851
獲加 12852
支鹵 12853
呂 12854
覧 12855
さが 12856
蚊 12857
蟻 12858
慍 12859
おろ 12860
炊 12861
嗚呼 12862
可愛 12863
蜂音 12864
くく 12865
播磨稲 12866
稲依別 12867
布忍入 12868
備穴戸 12869
殻 12870
建貝児 12871
予別君 12872
弟橘媛 12873
玖玖麻毛理 12874
蘆髪蒲見別 12875
葦噉竈見別 12876
遅 12877
梟帥 12878
美夜受媛 12879
簀媛 12880
佐泥佐斯 12881
佐賀牟能袁怒邇 12882
毛由流肥能 12883
那迦邇 12884
知弖斗 12885
斯岐美波母 12886
嶺 12887
橘后 12888
額 12889
売朝臣額 12890
塵劫来 12891
糸毫不隔 12892
そうろう 12893
そろ 12894
サウラフ 12895
サモラフ 12896
サブラフ 12897
或者 12898
然者 12899
尚又 12900
尤 12901
聊 12902
今以 12903
兼而 12904
有馬 12905
與赤兄知 12906
吾全不知 12907
訓儒麻呂 12908
須麻呂 12909
代欲理 12910
云傳 12911
虚見通 12912
倭國者 12913
言霊能 12914
播布國等 12915
利継 12916
計理 12917
恭 12918
呵責 12919
志貴 12920
芝基 12921
施基 12922
施基親 12923
片岡寛弘 12924
四點万葉集 12925
岩崎峰 12926
岩崎究香 12927
蕉風 12928
万葉集 12929
萬葉集 12930
葉 12931
流藝 12932
与餘刀具倍 12933
敝由 12934
佐夜氣 12935
弖 12936
伎尓 12937
曾乃 12938
去來 12939
伴乃 12940
乃濱松 12941
待戀奴 12942
昼解けば 12943
解け 12944
へ紐 12945
我が背 12946
相寄 12947
夜解けやすけ 12948
流等 12949
奈敝 12950
毛乃 12951
賀西奈尓 12952
与流等可毛 12953
欲流等 12954
也須 12955
草枕 12956
旅 12957
丸寝 12958
紐絶えば 12959
付けろ 12960
これ 12961
針 12962
佐麻 12963
妣乃麻流祢乃 12964
要婆 12965
我弖等 12966
氣呂 12967
許礼乃波流母志 12968
篭毛與 12969
美篭母乳 12970
思毛與 12971
美夫君志持 12972
此岳尓 12973
菜採須兒 12974
告閑 12975
告紗根 12976
虚見 12977
跡乃國者 12978
押奈戸 12979
吾許曽 12980
吾己曽座 12981
我許背齒 12982
告目 12983
呼毛 12984
雄母 12985
鯨魚 12986
鯨 12987
勇魚 12988
不知魚 12989
佐魚 12990
雲谷等遮 12991
与謝 12992
晶 12993
與謝 12994
冷々亭主 12995
如才堂 12996
岐 12997
蛇 12998
俣遠呂智 12999
壇君 13000
束剣 13001
握剣 13002
拳剣 13003
掬剣 13004
豊香節 13005
豊齧 13006
迦具土 13007
加具土 13008
尾羽張 13009
宇気 13010
誓約 13011
淤能碁呂島 13012
磤馭慮島 13013
无々 13014
斎 13015
代七代 13016
素 13017
雲鴨 13018
夜見乃 13019
持有越水 13020
取來而 13021
奉而 13022
越得 13023
旱 13024
有哉 13025
吾思有 13026
異 13027
老落惜 13028
ご 13029
我が思へ 13030
老ゆらく惜 13031
將卷跡念牟 13032
夫者 13033
變水白髪 13034
思はむ 13035
すら 13036
ち水求め 13037
白髪 13038
者不念 13039
變水者 13040
鹿煮藻闕 13041
求而将行 13042
は思はず 13043
ち水は 13044
ゆ 13045
従古 13046
言来流 13047
變若云水曽 13048
尓負瀧 13049
古ゆ 13050
言ひけ 13051
ふ水ぞ 13052
負ふ瀧 13053
訓 13054
云 13055
效此 13056
熊襲 13057
熊曾 13058
勧 13059
懲 13060
書紀 13061
針間 13062
那毘能 13063
印南別嬢 13064
寶 13065
案 13066
紙背 13067
書札礼 13068
星恆 13069
様 13070
詔書 13071
勅旨 13072
符 13073
牒 13074
宣旨 13075
官宣旨 13076
庁宣 13077
綸旨 13078
知状 13079
教書 13080
奉書 13081
直状 13082
印判状 13083
解状 13084
訴陳状 13085
紛失状 13086
請取状 13087
起請 13088
着到状 13089
軍忠状 13090
譲状 13091
売権 13092
借用状 13093
闕字 13094
尚書 13095
産霊尊 13096
霊郡 13097
任 13098
任那 13099
豊臣秀 13100
醍 13101
泰裕松 13102
俊龍 13103
嗣司 13104
継司 13105
嗣次 13106
知魚 13107
ェ 13108
新介 13109
新助 13110
經 13111
尹 13112
稙 13113
がらへば 13114
心も見 13115
ぞは 13116
ほ草あ 13117
裏波 13118
やどすも心あ 13119
出づ 13120
余 13121
でも鏡 13122
思ひ 13123
たづら 13124
身や 13125
達碧 13126
最 13127
峰 13128
※ 13129
酒顛童 13130
朱点童 13131
酒呑童 13132
呑 13133
☆ 13134
貞 13135
忠 13136
行賀 13137
覚恵 13138
行証 13139
行勝 13140
Ｋａｔａ 13141
ｓｕｒｒｅｎｄｅｒ 13142
岩祐夢 13143
功照 13144
北畠親房 13145
万里 13146
路宣房 13147
定房 13148
頼宣 13149
豊臣鶴松 13150
棄 13151
傳 13152
前霜台功 13153
杉景勝 13154
腰 13155
保井 13156
渋 13157
呉春 13158
呉服 13159
永泰 13160
桂巌 13161
瑞彩 13162
耕作 13163
遍界芳彩 13164
香雲満堂 13165
蜷 13166
親順 13167
鹿介 13168
鹿 13169
有快 13170
隆弘 13171
相供衆 13172
通能 13173
蓮花覚 13174
寂覚 13175
東求 13176
空誉 13177
鷹百首 13178
源自性 13179
悠 13180
応円満 13181
禅閣 13182
証岳 13183
顕隆 13184
圓證 13185
覺惠 13186
行雅 13187
行雄 13188
叟 13189
羽柴 13190
＜ 13191
偏 13192
ヨハネ 13193
ニ 13194
ス 13195
レイ 13196
ー 13197
ケ 13198
薩戎 13199
笠合 13200
皆歌読 13201
勢物語 13202
せぬ 13203
ぞ 13204
ｑ 13205
素伝 13206
準 13207
寿丸 13208
寅蔵 13209
寅 13210
里沢禅尼 13211
寿芳 13212
晃盛 13213
浦範時 13214
後龍翔 13215
蕃 13216
薫染 13217
聖夜 13218
憂華 13219
陸前 13220
迫助 13221
世広寿 13222
世広躊 13223
世広般 13224
忠陣 13225
筑後 13226
瑞峯 13227
霊応 13228
然誉春 13229
栄 13230
巌茶話 13231
永享 13232
年北 13233
万句連歌 13234
親当句集 13235
資前 13236
愚紳 13237
植治 13238
影祐 13239
夫判官 13240
塩冶判官 13241
孤竹斎 13242
祀官 13243
科敬言 13244
堤敬 13245
止静心 13246
寂源澄覚 13247
岑晨直 13248
定潭 13249
慶滋 13250
飽永 13251
益友 13252
蔭 13253
性覚 13254
橋渡 13255
顕性 13256
継綱 13257
惟 13258
於可留 13259
梶 13260
授帯剣聴直衣 13261
峻 13262
台岩 13263
謙 13264
釈棟慶 13265
求玉鈔 13266
親覚 13267
覚敒 13268
匀 13269
惟忖 13270
孟 13271
舘 13272
丿恒 13273
丿観 13274
別貫 13275
丿 13276
杏 13277
闡淨 13278
能成 13279
究香 13280
如水軒峯室 13281
標 13282
近藤雄 13283
箋 13284
尚松竹楓園 13285
仙嘯 13286
僊嘯 13287
猪熊慶礼 13288
西谷 13289
政学校 13290
政直 13291
当直 13292
定訳不 13293
ｙ 13294
禅閤 13295
惠介 13296
恵介 13297
應観 13298
永倉 13299
襄 13300
米来留 13301
肌釉 13302
皿 13303
最優秀作 13304
柿釉深鉢 13305
映芳 13306
釋顕 13307
九満崎 13308
作ニ付すすめ 13309
姓東郷 13310
支族系図 13311
聰 13312
聡 13313
盤 13314
熏鑪 13315
迦陵 13316
釋尼絹芳 13317
源致 13318
楊樹希 13319
舟 13320
容膝 13321
晄 13322
晃 13323
詞 13324
市立陶芸試験場 13325
創作陶磁展覧会 13326
鉄辰砂草花図壷 13327
白地草花絵扁壷 13328
祖松丸 13329
者議定 13330
以康 13331
輔 13332
悟妙 13333
印円証 13334
広言 13335
渡辺時 13336
進 13337
西岡是心 13338
雇七 13339
扶持 13340
瀬波郡加治庄荒 13341
妙菊 13342
陣 13343
怡斎 13344
漢倭聯句 13345
万呂 13346
広橋宣 13347
資忠 13348
秀寂 13349
引接 13350
忠能 13351
有業 13352
盛隆 13353
飴屋 13354
飴 13355
米也 13356
尼尊悟 13357
尼理摘 13358
寛算 13359
桓算 13360
堅 13361
秀勝遠 13362
柏尾右馬 13363
柏尾右馬助 13364
柏尾馬 13365
君密々聴聞 13366
倉薬 13367
堂覚 13368
検校 13369
給 13370
観世 13371
夫両座 13372
不定 13373
世毎 13374
如此 13375
熈 13376
妓 13377
祇 13378
性如禅尼承 13379
年壬辰 13380
性如禅尼 13381
穉 13382
親眞 13383
親実 13384
親澄 13385
未刻染筆申時終切定 13386
慧林尼 13387
玄顕 13388
憲親 13389
後引接 13390
尊寂 13391
臣定登 13392
玖 13393
新遍 13394
観助 13395
後是称 13396
貢 13397
隆算 13398
九紫 13399
桑 13400
塔頼房 13401
忌寸 13402
統理 13403
善理 13404
雅尊 13405
教能 13406
補相職 13407
行延 13408
源盛隆 13409
階仲範 13410
右権 13411
庄外護職 13412
具統 13413
具偈 13414
賞雅 13415
具備 13416
通縁 13417
姉言 13418
倉宣季 13419
承恵 13420
内前 13421
前豊 13422
嗣 13423
柏仲 13424
輔通 13425
重勝 13426
基重 13427
六角 13428
庄園 13429
附属 13430
奉られ了はんぬ 13431
所領已 13432
皆悉く内 13433
沙汰あ 13434
ウセテ 13435
ノ所ノ 13436
領 13437
書ノ 13438
ナド松 13439
申サルル旨アリ 13440
桃園 13441
条通重 13442
淑 13443
侍従厨別当 13444
渡辺昇 13445
旧鑑 13446
舊鑒 13447
職鑑 13448
源衆望 13449
父薬 13450
秘密裏 13451
砌 13452
めぐ 13453
河水 13454
住み越 13455
末は絶えじ 13456
ぞ思う 13457
けゆく空 13458
眺むれば 13459
すむ西 13460
朝鑑 13461
好風 13462
朝範 13463
戸口 13464
男成 13465
成範 13466
成憲 13467
書額功 13468
鑰 13469
桐林禅鳳 13470
次第 13471
新屋左衛 13472
古曾 13473
絵所 13474
幸松 13475
誠斎 13476
尚褧舎 13477
松岡仲了 13478
与次 13479
総見 13480
品泰巌 13481
源内 13482
機 13483
任せ 13484
肌骨好 13485
紅粉 13486
塗らず 13487
自ら風流 13488
奥近衆 13489
其疾如風 13490
其徐如林 13491
侵掠如火 13492
不動如 13493
風林火 13494
そぎあれや 13495
乾福 13496
辨助 13497
弁助 13498
岩流 13499
巌流 13500
岸流 13501
岸柳 13502
岩龍 13503
茶桑 13504
崇顕 13505
糟屋 13506
糟谷 13507
粕屋 13508
加須屋 13509
釣狐 13510
貞覺 13511
彌陀佛尊位 13512
内蔵 13513
鬼弥 13514
頼泰 13515
輝政 13516
照政 13517
巴 13518
鞆 13519
鞆絵 13520
夫丞 13521
参康 13522
休 13523
分斎 13524
輝衛 13525
華将 13526
嘉 13527
前作州 13528
守先翁 13529
広島市 13530
永見貞親 13531
広秀 13532
広英 13533
佐江 13534
円成 13535
芝斗 13536
芝蔵 13537
素桐 13538
片岡我當 13539
片岡我当 13540
鐘九 13541
鐘彌 13542
亀鶴菱 13543
征 13544
堯仁坊 13545
照誉 13546
憤恕 13547
空性 13548
即謳 13549
泰仰 13550
前拾遺瑞巌 13551
求馬 13552
談伴衆 13553
於普宇 13554
千九 13555
偽 13556
昨夢斎 13557
龍樹 13558
崇源 13559
前四品羽林次将雲巌円徹 13560
矩 13561
智相 13562
誉馨 13563
樹 13564
前四品玄蓮 13565
定誉 13566
涼 13567
続燈 13568
土橋口屋敷 13569
土橋口 13570
橋外屋敷 13571
土岐頼豊 13572
尹成 13573
轟夕起 13574
轟夕紀 13575
マキノ 13576
マキノ雅弘 13577
マキノ輝 13578
マキノ恵美 13579
マキノ笑 13580
マキノ佐代 13581
左代 13582
岡舎圭 13583
前四位拾遺兼隠州刺史観誉喜広聞証 13584
従四位拾遺補闕前隠州順誉 13585
慈観 13586
岱嶽 13587
従四位拾遺補闕故隠州徇誉観 13588
雑賀孫 13589
孫市 13590
市政 13591
那淵 13592
千若 13593
百濟國 13594
若有賢 13595
者貢 13596
受 13597
以貢 13598
邇 13599
即論語 13600
千字 13601
并 13602
卷付是 13603
即貢進 13604
首等祖 13605
郡西面東鳩林里 13606
兵内紀朝 13607
言盆 13608
空寂 13609
煎茶綺言 13610
凹 13611
嘉右衛 13612
詩仙堂 13613
覆醤集 13614
紀聞 13615
頼朝勲功 13616
ため 13617
満政 13618
西閣 13619
楼誉託 13620
練契 13621
丞 13622
京極 13623
徴 13624
昌 13625
遐年 13626
昭順 13627
発 13628
出祐順 13629
出英鋪 13630
出英陳 13631
通房 13632
華雪 13633
梅嶺指 13634
堀尾可晴 13635
鍋 13636
卜 13637
省華 13638
雲厳 13639
ト 13640
了甫 13641
玄仲 13642
玄沖 13643
九童 13644
寂照 13645
江蘆庵 13646
泰雲 13647
英勝 13648
禅定尼 13649
寛広 13650
仁達 13651
忠晴 13652
秀忠 13653
李香蘭 13654
満男 13655
幸卓 13656
頼功 13657
喬 13658
弟麻呂 13659
鎌菊丸 13660
既成 13661
功庵主 13662
咸章 13663
誾 13664
順輔 13665
普磋 13666
秀利 13667
英厳 13668
爾 13669
俊 13670
叙丸 13671
幸次 13672
千世 13673
うへ 13674
直広壱 13675
倭京 13676
在京 13677
春蘭軒 13678
然翁禅昭禅定 13679
甲由 13680
祖秀 13681
亀谷通尹 13682
樹並 13683
江隆庵 13684
親政 13685
慶範 13686
豪暁 13687
暁 13688
芝 13689
芝陸 13690
東枝 13691
黙叟理現 13692
猶海 13693
隆佐 13694
立佐 13695
尊寿 13696
緑 13697
松緑 13698
松録 13699
昌蒲 13700
置賜晰斎 13701
那古 13702
古屋 13703
岸 13704
玄能 13705
妙謡菊 13706
美夜受 13707
重忠 13708
重広 13709
重定 13710
重貞 13711
九条待 13712
邑婆 13713
豊盛 13714
富民 13715
丞源 13716
貞幹 13717
冬 13718
叔蔵 13719
瑞祥斎 13720
好古 13721
藤井 13722
與禰 13723
景妙円是 13724
黄雀 13725
幸朝 13726
松玉 13727
松朝 13728
春風舎 13729
梅笑 13730
今探題 13731
朽 13732
昌充 13733
岳 13734
華窓林陽 13735
猟場米請取状 13736
崎立場 13737
昇定 13738
幽花亭随筆 13739
檜謡曲書店 13740
檜書店 13741
近代 13742
爾云 13743
妙云 13744
浜崎 13745
催花賞 13746
政近 13747
嗣幹 13748
嗣粲 13749
嗣燦 13750
白瑞 13751
戔 13752
茂兵次 13753
嗣幹画論 13754
孚九 13755
沈南蘋 13756
思思斎 13757
思々斎 13758
河陽 13759
引律 13760
蒿斎 13761
季時 13762
黒稲 13763
巴暁 13764
由香 13765
其鶴 13766
富教会 13767
祐庵 13768
幽 13769
幽庵 13770
柚庵 13771
丸毛 13772
丸茂 13773
遺題 13774
兼々庵 13775
改姓 13776
夾 13777
勘録進 13778
許礼波奈世无尓加 13779
官尓末 13780
末无 13781
末ふ波可利止奈毛お毛ふ 13782
抑刑 13783
史乃 13784
定以出賜 13785
よ可 13786
有年申 13787
摩尼坊 13788
闍梨 13789
観曉 13790
伴閑精 13791
斧 13792
衷 13793
許 13794
隼 13795
佑 13796
純星会 13797
潤星会 13798
政頼 13799
晏翁海 13800
毛利 13801
君臣豊 13802
孫殷昌 13803
右僕射 13804
淵満 13805
福沢諭 13806
福澤諭 13807
時有舎 13808
姓稗 13809
ヽ 13810
礼ヽ年是 13811
ヽ度目誦口ヽ払耳勒心 13812
即ヽ勅語 13813
礼ヽ令誦習帝 13814
継及先代旧辞 13815
東郊 13816
砂沢丙喜治 13817
夏四 13818
丙寅朔戊辰 13819
親肇作憲 13820
七條 13821
裴世 13822
帝問倭 13823
船首 13824
親饌 13825
播磨 13826
風土 13827
鄉里驛 13828
國里 13829
南有作 13830
形如屋 13831
廣 13832
亦如 13833
號曰 13834
傳云 13835
廄戶 13836
弓削 13837
守屋 13838
時存 13839
横井時勝 13840
横井時延 13841
横井時泰 13842
横井時 13843
徂徠 13844
徂來 13845
秀峯哲 13846
連竜 13847
維貞 13848
維禎 13849
興蓮 13850
譽入西 13851
賀内蔵丞 13852
半助 13853
淺井 13854
副知 13855
虞 13856
花顔妙香 13857
英嵓 13858
鬼菫 13859
玉水俊虠 13860
ファスチェス 13861
貞献 13862
穆思斎 13863
享 13864
亨 13865
鷧 13866
九幸翁 13867
全登 13868
フランキ砲 13869
臼杵 13870
舒 13871
頼能 13872
就相 13873
頑固 13874
応卿 13875
Ｗ 13876
與助 13877
与七 13878
児奈 13879
古奈 13880
児 13881
隈麿 13882
主水司 13883
魂で 13884
行く気散じや 13885
お猶 13886
前北斎為 13887
歳 13888
勝景奇覧 13889
堀与 13890
綬章 13891
坪内 13892
逍遥 13893
逍遙 13894
崋 13895
桃雲浄見 13896
お連以 13897
猶 13898
直指 13899
七以 13900
可寿江 13901
森乱丸 13902
森蘭丸 13903
勘重 13904
親見錦 13905
新見錦 13906
粂 13907
隅 13908
新選組隊 13909
近藤勇 13910
勤勉 13911
努力 13912
活動 13913
発展 13914
乙麻呂 13915
ヒュウザン会 13916
フュウザン会 13917
浄譽槐 13918
竹橋 13919
竹喬 13920
秋陽 13921
新冬 13922
亭夢 13923
歌麿 13924
豊頬 13925
頤 13926
沢芦雪 13927
蘆雪 13928
朋 13929
揖 13930
片町 13931
峰千助 13932
鶴峰丑左衛 13933
睡 13934
勝譽 13935
松竜 13936
照梅翁 13937
誉松顔 13938
妹 13939
史 13940
廻 13941
も果 13942
車は火宅 13943
痒西 13944
貞辨 13945
豊順 13946
敬蔵 13947
桐陰 13948
島廣厚 13949
丁目 13950
紅葉館 13951
非守 13952
実守 13953
其四句 13954
華陰 13955
晴蓑めが 13956
問わば 13957
ざ白雲 13958
答へよ 13959
副 13960
親成 13961
親重 13962
賢政 13963
滴 13964
鶴松 13965
昌庵 13966
昌誉 13967
興仁 13968
緒 13969
行軍録 13970
北条 13971
髟玉 13972
苑 13973
将雪渓 13974
純 13975
漬 13976
成潤 13977
周昉 13978
尊敒 13979
定尊 13980
ヘプバーン 13981
ヘップバーン 13982
ヘボン 13983
蘭学 13984
蘭化 13985
張宝 13986
장 13987
보고 13988
張保皐 13989
弓福 13990
弓巴 13991
感 13992
軍使 13993
碧骨県 13994
蘆屋 13995
芦屋 13996
有継 13997
継満 13998
よわ 13999
迷はねば 14000
で物見せん 14001
こそ 14002
幡六 14003
万竜 14004
万龍 14005
萬竜 14006
萬龍 14007
指南 14008
も越度 14009
おちど 14010
らせた 14011
ふ言葉 14012
勝政 14013
傲れ 14014
者も 14015
仲麻呂 14016
仲麿 14017
倍仲麿入唐 14018
校書 14019
左拾遺 14020
左補闕 14021
ヴィン 14022
潞州 14023
銜 14024
還 14025
已珎蒙 14026
壽 14027
赦園 14028
有終 14029
頼基 14030
有松右京進 14031
九峰 14032
南條 14033
碩果 14034
松坡 14035
格丸 14036
格順 14037
井草芳 14038
痴 14039
前忠勝 14040
華香 14041
５ 14042
宅出雲 14043
直輔 14044
革 14045
お倫 14046
冬広 14047
置 14048
仲丸 14049
略書 14050
わた 14051
勝間 14052
修理亮 14053
古足 14054
柔斎 14055
葛井 14056
加々美 14057
勝熊 14058
宥許 14059
オフィシェ 14060
ダ 14061
アカデミー勲章 14062
尾関泉 14063
報恩 14064
秀峯 14065
宏 14066
忠頼 14067
限っ 14068
政府 14069
伏す 14070
種言 14071
亀井暘春 14072
倉持忠行 14073
苟庵 14074
立憲帝政党 14075
政祐 14076
保政雄 14077
馬場 14078
了 14079
加賀 14080
即現 14081
海深叟 14082
敏定 14083
敏広 14084
敏 14085
秀敏 14086
秀晟 14087
周尋 14088
重幹 14089
須賣呂伎能 14090
代佐可延牟等 14091
頭麻奈流 14092
美知 14093
夜麻尓 14094
花佐 14095
甘羅令 14096
某 14097
江戸某 14098
系図 14099
悟庵心省 14100
慶寿 14101
雲峰 14102
千代秋丸 14103
胸形 14104
胸 14105
胸肩 14106
萬侶 14107
託美 14108
荒甲 14109
禅助 14110
索准覚翁 14111
親幹 14112
緑舫 14113
榕庵 14114
菩 14115
尼訶 14116
貞崇仁尊儀 14117
奉刻 14118
辛卯 14119
祈祷 14120
梅窓 14121
唯然 14122
飫富 14123
飯富 14124
壱伎 14125
連博 14126
雄当 14127
誉露雪 14128
竜誉浄 14129
車善七 14130
秦 14131
集開 14132
集蓮 14133
集誓 14134
集囿 14135
集益 14136
集林 14137
集民 14138
集司 14139
集保 14140
乗誓 14141
摩 14142
瀬尾兼康 14143
妹尾兼康 14144
孚 14145
兵助 14146
直温 14147
障岳 14148
波賀朝栄 14149
刃雲輝剣 14150
藤井勇七 14151
陸軍奉行並 14152
古屋佐 14153
박영효 14154
姜ウィ 14155
脇 14156
軌 14157
荒井 14158
新井 14159
瓊 14160
左馬 14161
允 14162
亮 14163
源重次 14164
執弓 14165
忠助 14166
忠介 14167
忠輔 14168
代次 14169
代治 14170
忠誠 14171
刃空浄剣 14172
蔵兼介 14173
内権 14174
混聲 14175
今蝦夷 14176
倭介 14177
父数直卒 14178
猫 14179
薬 14180
黒 14181
万左衛 14182
児島 14183
可慶 14184
紹鷗 14185
紹鴎 14186
風斎 14187
直心 14188
円空慶算 14189
午条百済 14190
敬福 14191
源英 14192
龍雲 14193
雄蓮 14194
誉孤峯源英 14195
陽岩 14196
恵照 14197
峯 14198
咲くやこ 14199
花賞 14200
阪市芸術 14201
化賞 14202
定君 14203
霊感 14204
賢厳 14205
眼 14206
諦 14207
橒嶺 14208
留鋭 14209
留栄 14210
検括酷苛 14211
漢風諡 14212
臨淵 14213
定賢 14214
定固 14215
実参 14216
在焉 14217
伴資 14218
司馬 14219
斯波 14220
斯波雄蔵 14221
成翁 14222
祐君 14223
滋賀右馬允 14224
内廷職 14225
永恭 14226
ラモンド 14227
遣唐使判官 14228
肆 14229
朝臣功麿男牛 14230
観樹 14231
竟空 14232
杏隠 14233
敬庵 14234
蘇巷 14235
茅 14236
教具 14237
足利 14238
東侑 14239
孝憲 14240
芸亭 14241
藝 14242
藝春秋 14243
嘉瓜 14244
浄友 14245
主計 14246
溢 14247
彦博 14248
浄万呂 14249
景政 14250
如厳 14251
ṅ 14252
曙戒軒鞭 14253
礼卿 14254
博勢 14255
雄依 14256
黄書 14257
粳麻呂 14258
側越 14259
加賀爪 14260
加々爪 14261
教組織物語 14262
興立次第 14263
東西分局勢 14264
黒白闘雌雄 14265
坐看輸贏迹 14266
賢愚老此 14267
県犬養 14268
犬養 14269
侶 14270
夜気 14271
朴井雄君 14272
榎井 14273
壮 14274
鞍 14275
首達等 14276
稚桜 14277
若桜 14278
稚櫻 14279
百瀨 14280
望陀 14281
堅泡 14282
岱梁 14283
羅夫 14284
根麻呂 14285
尼麻呂 14286
祢麻呂 14287
禰麻呂 14288
埿 14289
泥 14290
氐 14291
泥土 14292
内青坡 14293
内青圃 14294
内青琥 14295
磐鍬 14296
おほ 14297
百枝 14298
千賀 14299
当摩 14300
鉏 14301
鉏鉤 14302
且 14303
並ぶも 14304
宇佐伎 14305
兎 14306
艸 14307
兔 14308
毘登 14309
布勢 14310
普勢 14311
巨勢 14312
坂合 14313
境 14314
池戸 14315
春沢永恩 14316
半井見孝 14317
丹波親孝 14318
淳 14319
少麻呂 14320
監 14321
英橘 14322
基理 14323
廬井 14324
百井 14325
尾張 14326
尾治 14327
足麻呂 14328
足摩侶 14329
操六 14330
伝左衛 14331
印度支那視察 14332
色弗 14333
色布知 14334
窠 14335
錦 14336
止 14337
‛ 14338
市郡 14339
市評 14340
吹負 14341
男吹負 14342
基景 14343
淳庵 14344
坂額 14345
板額 14346
飯角 14347
浅利知 14348
口述者 14349
古丸 14350
朝陽軒 14351
お六 14352
柴テイ 14353
テイ 14354
喜傳次 14355
老次座連綿 14356
能胤 14357
楓麻呂 14358
楓麿 14359
楓万呂 14360
扶余豊璋 14361
扶余豊 14362
々作 14363
梅倶利伽羅 14364
剣巻龍 14365
彫同作 14366
彫物同作 14367
詮 14368
詮秀 14369
虫 14370
睡眠先 14371
酔眠先 14372
意富美 14373
貝賀左 14374
綿屋善右衛 14375
収 14376
了白 14377
鬼室美成 14378
祗 14379
胡兆新 14380
米庵 14381
米芾 14382
林堂 14383
松井釣古 14384
樸 14385
寧拙 14386
廓巖 14387
納戸 14388
柴任美矩 14389
種章 14390
増寿 14391
丹英 14392
半間庵 14393
蜂賀仁助寿仁 14394
後藤 14395
景隆 14396
百合 14397
百穀 14398
藹 14399
靄 14400
靄厓 14401
景尚 14402
弥彦 14403
彌彦 14404
薩雄 14405
刷雄 14406
薩 14407
彭 14408
実雲 14409
実誉 14410
麻智 14411
満知 14412
穉圭 14413
前備衆 14414
因云碁話 14415
俀 14416
利思北孤 14417
利思 14418
孤 14419
景直 14420
物資政 14421
左玉鈐衛 14422
左鷹揚衛 14423
周故左 14424
威衞 14425
将軍検校左羽林軍贈左玉鈴 14426
将軍燕 14427
黒歯府君 14428
õ 14429
‰ 14430
鋠 14431
辰 14432
顯 14433
麓台 14434
菅泰峨 14435
槃礴脞話 14436
森島 14437
書画品価録 14438
碧梧 14439
暑図 14440
夏図 14441
秋江泛舟図 14442
秋江独釣図 14443
鳥奈 14444
楢 14445
アンポール 14446
保全 14447
兌 14448
忩 14449
勢入 14450
所労以外聞 14451
守護代 14452
勢州 14453
号秀峯肖像 14454
勝介 14455
勝助 14456
毘 14457
ゼラール 14458
指図役頭取 14459
操守 14460
蝶々さん 14461
蝶々夫 14462
お菊さん 14463
北風 14464
松雲 14465
親茂 14466
松堂 14467
永保 14468
如見 14469
恕軒 14470
恕見 14471
臨海 14472
感恩 14473
陽北面 14474
吐蚊 14475
藪雀庵 14476
庄蔵 14477
竜忠 14478
足利成 14479
舎密 14480
賤香 14481
誠直 14482
不昧 14483
蘭園 14484
閑窓自語 14485
欣々栄 14486
森有禮 14487
喜右衛 14488
有恕 14489
有礼 14490
勢貞 14491
幹 14492
楨助 14493
桃可菴 14494
堂頼房 14495
眉寿 14496
数 14497
澹空 14498
九里直忠組 14499
仲治 14500
仲司 14501
星崎貞幹 14502
貞次 14503
九鬼隆周 14504
鯉 14505
壽海老 14506
花柳壽助 14507
政実 14508
米若 14509
米若売 14510
順聖 14511
奥席格 14512
齣谷 14513
蘭馨 14514
弩理使主 14515
舅 14516
Ⅻ 14517
兼 14518
資同 14519
春琢 14520
春齢 14521
応聖 14522
読騒菴 14523
宇作 14524
星 14525
学半塾 14526
物史 14527
曼陀羅稿 14528
印譜 14529
印語簒 14530
読騒菴古印彙 14531
捃印補 14532
史詠 14533
松崎静馬 14534
松崎 14535
陀 14536
俊次 14537
定保 14538
江源 14539
河井 14540
得松 14541
蟫巣 14542
九節丈 14543
六不刻庵 14544
白紅 14545
述 14546
々史 14547
板 14548
圓 14549
郷敏儒 14550
車楼 14551
六体 14552
性豪逸 14553
奇行 14554
墨籍 14555
君岳 14556
龍仲 14557
菽竇処 14558
青蘿主 14559
東海陳 14560
白玉斎 14561
葛烏 14562
葛辰 14563
消間印譜 14564
坂或斎 14565
春老谷 14566
眉 14567
銭少虎 14568
林得建 14569
鎮鼎 14570
遺音 14571
霄 14572
爾祥 14573
夢竜 14574
酔茗軒 14575
水竹丹篆 14576
町史 14577
号藤谷 14578
藤谷庄 14579
藤谷 14580
茂喬 14581
君樹 14582
橘茂喬 14583
綜 14584
通寿 14585
関岡 14586
白茆帖 14587
称樹 14588
壇誉蔵六 14589
潤 14590
芝仙堂 14591
羅漢印譜 14592
結縁 14593
印叢 14594
叔 14595
看雲 14596
琴史 14597
陶古 14598
賞斎 14599
宿谷黙甫 14600
西丸扈従 14601
雪庵 14602
阮西園 14603
龔允譲 14604
百印会 14605
松窠庵釈化雲 14606
施刻 14607
百章 14608
印考 14609
琴伝 14610
竹香 14611
瓦礫放 14612
鍛冶 14613
銘 14614
憲 14615
孫仲澄 14616
周監 14617
書画話 14618
東晙 14619
柳浪 14620
伯潜 14621
洪範孔伝弁 14622
語韋注補 14623
韓非 14624
格物余録 14625
享箒集 14626
直貫 14627
仁卿 14628
檜園 14629
九柳 14630
橋逸 14631
玉江 14632
直英 14633
柴秋邨 14634
洲 14635
浪華画 14636
画禅直逸 14637
余藝 14638
停雲吟草 14639
刀寿丸 14640
冽 14641
尉 14642
色輝季 14643
色直為室 14644
横井時相 14645
傾 14646
仁聞 14647
須賀 14648
管 14649
胤重 14650
茂晴 14651
藤頼 14652
分荘 14653
臼井 14654
須賀胤秀 14655
秀行 14656
彦昭 14657
君燕 14658
禎助 14659
恵風 14660
東市 14661
南谿 14662
陽岳 14663
鎧閣 14664
ひさ 14665
飛佐 14666
ヒサ 14667
ハナ 14668
致 14669
観喜 14670
後敬心 14671
維則 14672
又号町 14673
左府 14674
母衣役 14675
表用 14676
水依評 14677
智冠 14678
黒冠 14679
恵斎 14680
蕙斎 14681
朝霞樓 14682
従善 14683
芳幾 14684
確 14685
広持 14686
麓 14687
河隈 14688
影そ映ふ 14689
古麻呂 14690
Íñ 14691
董 14692
渡圣 14693
济各沙勿略堂 14694
麑 14695
自寛 14696
寿房 14697
朝業 14698
基茂 14699
為茂 14700
基維 14701
司膳員外 14702
献 14703
息州 14704
陳倉尉 14705
魯寧 14706
司憲 14707
右相兼検校 14708
県男 14709
撫 14710
使兼浿江 14711
総管 14712
李世勣 14713
左庶 14714
鶏林 14715
昌左相同固閣鸞台 14716
重辰 14717
紹賢 14718
毎雅 14719
馨 14720
立所 14721
宣盛 14722
益丸 14723
寛敦 14724
性応 14725
通藤 14726
治房 14727
華荘 14728
即心為春 14729
厚 14730
屋寿 14731
槻 14732
季継 14733
豊岡 14734
鷹司 14735
兼基 14736
顕恵 14737
九条 14738
暁心 14739
観照 14740
利季 14741
岑 14742
鹿園空晁 14743
隆煕 14744
鷲尾 14745
富寿 14746
冬忠 14747
随宜 14748
札座役 14749
忠房 14750
実孝 14751
初代 14752
佐藤甚助 14753
寿斎 14754
智祐 14755
飛鳥戸 14756
宿戸 14757
奈登麻呂 14758
奈杼麻呂 14759
奈止丸 14760
奈止麻呂 14761
今出 14762
実尹 14763
不断 14764
政統 14765
階堂 14766
基行 14767
尾埼 14768
紀楫 14769
入間廣成 14770
塩谷 14771
親朝 14772
朝親 14773
涼雲松誉 14774
単簡 14775
簡単 14776
笑談 14777
冗談 14778
非 14779
ひど 14780
ロマン 14781
たくさん 14782
新陳代謝 14783
反射 14784
意識 14785
価値 14786
電力 14787
肩が凝 14788
肩こ 14789
飛鳥井 14790
雅有 14791
泰重 14792
眉延 14793
如考 14794
如皐 14795
優婆塞 14796
岡足 14797
菅仲甫 14798
陳少白 14799
病体剖観示要 14800
病理総論 14801
薬品取扱 14802
心得 14803
医語字典 14804
六科 14805
櫻 14806
桜 14807
寿賀 14808
蘇我韓 14809
馬背 14810
西号 14811
承慶 14812
郡岐礼 14813
白倉 14814
納言藤 14815
貞奥霊 14816
後醍醐 14817
奉移隠岐 14818
時岐礼配流建 14819
年薨 14820
判官貞 14821
称桜待 14822
納言 14823
孫美濃有称 14824
云々 14825
尚勇 14826
猶介 14827
尚介 14828
俊篤 14829
庄宿 14830
保土 14831
翠蘭 14832
蘭漢折衷型医術 14833
狗堂脈論 14834
庄俊圭 14835
勝益 14836
勝次 14837
馬甘 14838
馬養 14839
刀男足 14840
物所 14841
通形 14842
浄足 14843
佐堤麻呂 14844
佐底麻呂 14845
相馬 14846
代勇 14847
栄休 14848
軒 14849
ボッス 14850
アシュ 14851
茶司 14852
語 14853
永岳 14854
永嶽 14855
画史 14856
瓶 14857
粉骨砕身 14858
檉園 14859
蘭斎 14860
秋巖仙史 14861
拙翁 14862
用拙 14863
松芝老 14864
竹茶寮 14865
秀軒檉翁 14866
凡海麁鎌 14867
海蒭蒲 14868
凡海 14869
▁icoca 14870
― 14871
▁outbound 14872
Ф 14873
■ 14874
↔ 14875
西ノ 14876
区急 14877
区間急行 14878
臨 14879
急 14880
鴨東線 14881
東岸 14882
デナ 14883
デオ 14884
デト 14885
ナ 14886
デワ 14887
旧杣街 14888
海縦貫線 14889
【 14890
】 14891
Ｔ 14892
併其功 14893
＝ 14894
指 14895
／ 14896
Ｌｉｎｅ 14897
フチチヨ 14898
フチヨシ 14899
ｃ 14900
Ｓ 14901
Ｓｔａｔｉｏｎ 14902
ｔｏ 14903
← 14904
稲荷新 14905
駅 14906
秦帷 14907
ケ辻町 14908
帷 14909
ノ辻 14910
臨南 14911
急行バス 14912
驛 14913
京福 14914
電鉄 14915
電車で 14916
幹在同 14917
スルー 14918
◆ 14919
◇ 14920
∨ 14921
∧ 14922
｜ 14923
ギーゼライベルン 14924
Ｔｅｒｍｉｎ 14925
Ｌ 14926
烏丸 14927
七条 14928
町通 14929
滑谷 14930
瀋谷 14931
々目路 14932
苦集滅 14933
« 14934
» 14935
逢坂関 14936
相坂関 14937
合坂関 14938
会坂関 14939
疋 14940
鋪 14941
永観堂 14942
永観 14943
西芳 14944
興隆 14945
東北療病 14946
如導堂宇 14947
森青蛙 14948
仙釈 14949
花玄賛 14950
招魂 14951
最初第 14952
修学 14953
ヶ町 14954
会式 14955
白土町 14956
教民俗資料研究所 14957
禅林 14958
実叡 14959
九筆 14960
宀 14961
遠諸 14962
成就 14963
堀池主計 14964
銅鳥 14965
琳 14966
賣 14967
虫玉 14968
應禅 14969
雪庭 14970
鳥見郷 14971
鳥見 14972
登美 14973
及雅 14974
外桂言 14975
前防 14976
断簡 14977
曽我 14978
坐弥志理 14979
伎 14980
峯住 14981
藤室 14982
ə 14983
恵美 14984
蟹 14985
蟹守 14986
掃 14987
加守 14988
狩森 14989
散 14990
河江 14991
矢河枝 14992
氵 14993
保誉 14994
宝譽 14995
忠登 14996
瓜 14997
為恵 14998
阪 14999
湯釜祭 15000
勝満 15001
兼継 15002
崇敬 15003
殀壽不貳 15004
修身以俟 15005
所以立 15006
佛教 15007
· 15008
Ω 15009
番組 15010
蘭陀 15011
蘭書 15012
芝蘭堂 15013
讀 15014
讀壮 15015
夜見 15016
豆美 15017
讀尊 15018
読 15019
ヨ乙 15020
ミ甲 15021
ユ 15022
ヨ甲 15023
余美 15024
ヨ 15025
鶏 15026
厳島 15027
岐島 15028
秦韓 15029
稲荷 15030
稲架掛け 15031
乎止 15032
愛宕 15033
辺朝代 15034
宇受賣 15035
摩訶迦羅 15036
暗黒 15037
言魂 15038
黄泉 15039
靈 15040
雷 15041
甕槌 15042
甕雷男 15043
建雷 15044
饒速 15045
波限建鵜草葺不合 15046
彦波瀲 15047
草葺不合尊 15048
勝吾勝勝速 15049
忍穂耳 15050
哉吾勝々速 15051
押穂耳尊 15052
瓊瓊杵尊 15053
瓊々杵尊 15054
弥栄 15055
素盞嗚 15056
素盞雄 15057
須我 15058
素鵞 15059
簸 15060
錀 15061
豊宇気毘売 15062
豊受媛 15063
稲葉 15064
稲場 15065
因幡 15066
祝詞 15067
奥 15068
置く 15069
霊位 15070
相撲 15071
産巣 15072
産霊 15073
忌み 15074
斎み 15075
現 15076
菩卑能 15077
穂 15078
穂霊 15079
思 15080
世思 15081
思兼 15082
意思兼 15083
意思 15084
智祝 15085
児屋 15086
児屋根 15087
々登魂 15088
殯 15089
椎 15090
脚摩乳 15091
摩乳 15092
遅鉏 15093
遅志貴 15094
治志貴 15095
遅須枳 15096
遅鋤 15097
味耜 15098
彦根 15099
花咲耶 15100
鹿葦 15101
華開耶 15102
開耶 15103
花開耶媛 15104
豊吾 15105
布刀玉 15106
力男 15107
力雄 15108
斯許理度売 15109
窓 15110
凝姥 15111
稚産霊 15112
奇稲 15113
串蛇 15114
立尊 15115
宇摩志 15116
斯訶備 15117
古遅 15118
可美葦牙彦舅尊 15119
志挙乎 15120
志許乎 15121
遅麻毛理 15122
間守 15123
咩 15124
波能売 15125
罔象 15126
水波能売 15127
淤加美 15128
龗 15129
志那 15130
級 15131
志那戸辨 15132
須勢理毘売 15133
須世理毘売 15134
須世理 15135
裁つ 15136
梨 15137
豊玉毘売 15138
豊玉 15139
祈 15140
美志 15141
祖霊舎 15142
霊舎 15143
霊屋 15144
儀後霊祭 15145
祖霊 15146
怒志 15147
賀屋鳴 15148
市寸島 15149
市杵嶋 15150
曲玉 15151
産 15152
産魂 15153
産むす 15154
苔 15155
玉積産 15156
魂留産霊 15157
掬び 15158
怪我 15159
玉依毘売 15160
玉依 15161
棄戸 15162
柀 15163
祠 15164
籬 15165
胙 15166
膰 15167
燔 15168
火闌降 15169
火酢芹 15170
能智 15171
句句廼馳 15172
尾刃張 15173
稜威 15174
紙垂 15175
巷 15176
粟島 15177
つ罪 15178
罪 15179
雨障 15180
曇磯 15181
船霊 15182
船玉 15183
加牟波理入 15184
雁婆理入 15185
眼張入 15186
郭登 15187
らさ 15188
お白様 15189
オシラ様 15190
オシラサマ 15191
左口 15192
入彦 15193
盟 15194
探湯 15195
誓湯 15196
俣 15197
開 15198
豊雲 15199
豊斟渟尊 15200
금줄 15201
禁縄 15202
泣沢 15203
啼沢 15204
哭沢 15205
速秋 15206
紀理毘売 15207
湍 15208
滾つ 15209
析 15210
根析 15211
磐裂 15212
根裂 15213
裂く 15214
筒 15215
磐筒男 15216
雄魔 15217
瑞垣 15218
斎垣 15219
玉垣 15220
勇 15221
愛 15222
省 15223
結界 15224
如形 15225
占食 15226
精 15227
根性 15228
根精 15229
聲 15230
主時盛 15231
どもみ 15232
げうせ 15233
はやぶさ 15234
は春 15235
おわ 15236
す也 15237
弉冉 15238
邪那美 15239
弉弥 15240
稜威母 15241
瀬織 15242
巫堂 15243
牡丹 15244
九相 15245
倶相 15246
豊饒 15247
苗加 15248
苗益 15249
香語 15250
賀吾 15251
蔵六所 15252
九ヶ所 15253
内覚満 15254
群馬桃井郷 15255
ヶ権現 15256
坂瓊曲玉 15257
乃ち従ひた 15258
璽 15259
璽符 15260
璽印 15261
青雲 15262
予母 15263
志許売 15264
黄泉戦 15265
樋 15266
ひふみ 15267
示 15268
㋹ 15269
鋳 15270
淵 15271
志古渕 15272
興淵 15273
僧旻 15274
角彔 15275
池辺史 15276
志我閇連 15277
佐諸君 15278
谷那康受 15279
蓑麻呂 15280
船連 15281
臣志斐連 15282
江沼臣 15283
祖息麻呂 15284
陰陽請益 15285
暦請益 15286
階貞範 15287
百済淸貞 15288
秦經尚 15289
権允 15290
曰佐得 15291
弘範 15292
滋丘 15293
弓削是雄 15294
怪僧 15295
善相 15296
満井 15297
儺祭 15298
刀禁呪 15299
浄心呪 15300
浄身呪 15301
地呪 15302
四位 15303
七位 15304
位階令 15305
亜相 15306
亜槐 15307
槐 15308
龍作 15309
官職今案 15310
務権 15311
佐遠 15312
流浪 15313
牢 15314
賛寧 15315
智ギ 15316
知玄 15317
康蔵 15318
南陽慧忠 15319
澄観 15320
景德 15321
爛圓 15322
覺 15323
仁睿 15324
普照 15325
眞覺 15326
普愚 15327
有円成 15328
定聖応 15329
勝妙 15330
慧 15331
続 15332
鑑智 15333
率 15334
翼 15335
交代寄合 15336
使掌 15337
扶持衆 15338
探題 15339
随 15340
軽貨 15341
例進納物 15342
政官 15343
政官被官 15344
七宝行者 15345
〜 15346
七槍 15347
内豎所 15348
魯 15349
固倫 15350
碩 15351
翁主 15352
積 15353
掾 15354
判官 15355
両属性 15356
賞牌従軍牌制定ノ件 15357
与力 15358
寄騎 15359
寄親 15360
翰林学 15361
通貴 15362
松爵 15363
気豆 15364
主典 15365
９ 15366
珠流河 15367
駿河 15368
廬 15369
遠淡海 15370
遠江 15371
若建 15372
知々夫 15373
秩父 15374
邪志 15375
自牟 15376
牟邪 15377
千葉 15378
知波 15379
珂 15380
口岐閉 15381
尻岐閉 15382
岐閇 15383
那珂 15384
那賀 15385
斐陀 15386
斐 15387
飛騨 15388
